{
  "</s>": 0,
  "<unk>": 1,
  "\u0323": 2,
  ",": 3,
  ".": 4,
  "\u2581\"": 5,
  "\u2581the": 6,
  "\u2581t\u00f3": 7,
  "\u2581to": 8,
  "\u2581a": 9,
  "\u2581of": 10,
  "\u2581\u0144": 11,
  "\u2581\u00e0w\u1ecdn": 12,
  "\u2581-": 13,
  "\u2581p\u00e9": 14,
  "\u2581t\u00ed": 15,
  "n": 16,
  "\u2581and": 17,
  "\u2581\u1e63e": 18,
  ":": 19,
  "\u2581n\u00ed": 20,
  "?": 21,
  "\u2581\u00f2": 22,
  "\u2581m\u00e1a": 23,
  "\u2581in": 24,
  "\u2581w\u00f3": 25,
  "\u2581s\u00ed": 26,
  "\u2581ti": 27,
  "\u2581ni": 28,
  "\u2581l\u00f3": 29,
  "\u2581that": 30,
  "s": 31,
  "\u2581s\u00ec": 32,
  "\u2581j\u00e9": 33,
  "\u2581b\u00e1": 34,
  "\u2581\u00f3": 35,
  "\u2581fi": 36,
  "\u2581n\u00e1\u00e0": 37,
  "\u2581kan": 38,
  "\u00e8": 39,
  "\u2581l\u00e8": 40,
  "\u2581f\u00fan": 41,
  "\u2581l\u00e1ti": 42,
  "\u2581k\u00ed": 43,
  "\u2581r\u00e8": 44,
  "\u2581is": 45,
  "\u2581": 46,
  "run": 47,
  "\u2581s\u1ecd": 48,
  "\u2581w\u1ecdn": 49,
  "'": 50,
  "\u2581\u00e0ti": 51,
  "\u00e9": 52,
  "\u2581k\u00f3": 53,
  "\u2581\u00e8": 54,
  "\u2581w\u00e0": 55,
  "\u2581\u1eccl\u00f3": 56,
  "\u2581n\u00edn\u00fa": 57,
  "\u2581for": 58,
  "\u2581k\u00f2": 59,
  "l\u00e8": 60,
  "\u2581ohun": 61,
  "\u2581J\u00e8h\u00f3f\u00e0": 62,
  "\u00f3": 63,
  "\u2581b\u00ed": 64,
  "\u2581wa": 65,
  "\u2581Jehovah": 66,
  "\u2581w\u00e1": 67,
  "\u2581God": 68,
  "r\u00f2": 69,
  "\u2581his": 70,
  "\u2581you": 71,
  "\u2581with": 72,
  "\u2581was": 73,
  "\u2581l\u00e9": 74,
  "\u2581be": 75,
  "\u00f2": 76,
  "\u2581we": 77,
  "w\u00f3": 78,
  "\u2581y\u00ec\u00ed": 79,
  "\u2581r\u00ed": 80,
  "\u2581o": 81,
  "\u2581I": 82,
  "\u2581l\u1ecd": 83,
  "\u2581not": 84,
  "\u2581\u00e8\u00e8y\u00e0n": 85,
  "\u2581k\u00e1": 86,
  "\u2581on": 87,
  "\u2581as": 88,
  "\u2581n\u00edpa": 89,
  "\u2581The": 90,
  "\u2581m\u00fa": 91,
  "\u2581are": 92,
  "\u2581have": 93,
  "\u2581mi": 94,
  "\u2581an": 95,
  "\u2581he": 96,
  "\u2581will": 97,
  "\u2581it": 98,
  "\u2581\u00c0w\u1ecdn": 99,
  "\u2581gbogbo": 100,
  "\u2581B\u00edb\u00e9l\u00ec": 101,
  "\u2581t\u00e1": 102,
  "\u2581\u1ecdm\u1ecd": 103,
  "\u2581m\u00f3": 104,
  "\u2581by": 105,
  "\u2581from": 106,
  "\u2581\u00d3": 107,
  "n\u00e0": 108,
  "\u2581\u00ed": 109,
  "\u2581'": 110,
  "\u2581[": 111,
  "\u2581Bible": 112,
  "\u2581J\u00e9s\u00f9": 113,
  "p\u00f2": 114,
  "\u2581can": 115,
  "\u2581ay\u00e9": 116,
  "\u2581\u00ecw\u00e9": 117,
  "\u2581b\u00e9": 118,
  "\u2581f\u00e9": 119,
  "\u2581i": 120,
  "!": 121,
  "\u2581our": 122,
  "\u2581their": 123,
  "y\u00ecn": 124,
  "\u2581n\u00edgb\u00e0": 125,
  "\u2581Jesus": 126,
  "\u2581mo": 127,
  ";": 128,
  "\u2581(": 129,
  "\u2581n\u01f9kan": 130,
  "ing": 131,
  "\u2581\u00e1": 132,
  "\u2581who": 133,
  "\u2581\u1eb9ni": 134,
  "\u2581gb\u00e9": 135,
  "\u2581i\u1e63\u00e9": 136,
  "\u2581or": 137,
  "\u2581ara": 138,
  "\u2581they": 139,
  "\u25811": 140,
  "\u2581us": 141,
  "\u2581A": 142,
  "\u2581y\u00f3\u00f2": 143,
  "\u2581t\u00e0b\u00ed": 144,
  "\u2581K\u00ed": 145,
  "\u2581this": 146,
  "\u2581t\u00fan": 147,
  "\u2581gb\u00e0": 148,
  "\u2581\u00d2": 149,
  "\u2581your": 150,
  "\u2581p\u00e8": 151,
  "k\u00f2": 152,
  "\u2581l\u00f3r\u00ed": 153,
  "\u2581what": 154,
  ")": 155,
  "\u2581do": 156,
  "gb\u00f3": 157,
  "\u2581were": 158,
  "\u2581at": 159,
  "\u2581\u1eb9": 160,
  "\u2581What": 161,
  "\u2581di": 162,
  "k\u00f3": 163,
  "r\u00e8": 164,
  "\u2581l\u00e1ra": 165,
  "\u2581had": 166,
  "\u2581k\u00ec": 167,
  "\u2581one": 168,
  "\u2581all": 169,
  "\u2581y\u1eb9n": 170,
  "\u2581\u00f2un": 171,
  "\u2581gb\u00f3": 172,
  "\u2581wo": 173,
  "\u2581r\u1eb9": 174,
  "\u2581h\u00e0n": 175,
  "\u2581m\u00f2": 176,
  "\u2581\u00e8d\u00e8": 177,
  "\u2581people": 178,
  "\u2581pa": 179,
  "\u2581y\u1eb9": 180,
  "\u2581\u1ecd": 181,
  "m\u00ed": 182,
  "\u2581d\u00e1": 183,
  "l\u00fa": 184,
  "\u2581him": 185,
  "\u2581\u1ecdd\u00fan": 186,
  "\u2581In": 187,
  "\u2581them": 188,
  "\u2581\u00ecgb\u00e0": 189,
  "d\u00f2": 190,
  "\u2581about": 191,
  "\u2581\u00e8y\u00ed": 192,
  "a": 193,
  "\u2581my": 194,
  "\u2581w\u00f2": 195,
  "\u2581oj\u00fa": 196,
  "\u2581b\u00f3": 197,
  "\u2581\u00c0m\u00f3": 198,
  "\u2581gan": 199,
  "\u2581has": 200,
  "\u2581would": 201,
  "\u2581when": 202,
  "\u2581Krist\u1eb9ni": 203,
  "]": 204,
  "\u2581il\u00e8": 205,
  "\u2581m\u00e9": 206,
  "l\u00ec": 207,
  "\u2581t\u00e9": 208,
  "\u2581time": 209,
  "\u2581m\u1ecd": 210,
  "kan": 211,
  "\u2581t\u00e8": 212,
  "\u2581may": 213,
  "\u2581How": 214,
  "\u2581in\u00fa": 215,
  "\u2581did": 216,
  "\u2581life": 217,
  "\u2581so": 218,
  "\u2581N\u00edgb\u00e0": 219,
  "\u2581b\u00e8": 220,
  "\u2581but": 221,
  "\u2581B\u00ed": 222,
  "\u2581lo": 223,
  "\u2581gba": 224,
  "\u2581p\u00f2": 225,
  "ni": 226,
  "g\u00e9": 227,
  "\u2581t\u00e1w\u1ecdn": 228,
  "\u2581me": 229,
  "\u2581ir\u00fa": 230,
  "\u2581those": 231,
  "\u2581la": 232,
  "\u2581\u00ecy\u1eb9n": 233,
  "r\u00e0n": 234,
  "\u2581\u1eb8l\u00e9": 235,
  "\u2581j\u00f9": 236,
  "\u2581n\u00edtor\u00ed": 237,
  "ra": 238,
  "r\u00ec\u00ed": 239,
  "\u2581d\u00e0": 240,
  "\u2581more": 241,
  "\u2581s\u00f2": 242,
  "\u2581\u1ecdk\u00e0n": 243,
  "\u2581He": 244,
  "\u2581N\u00ed": 245,
  "w\u00f2": 246,
  "\u2581il\u00e9": 247,
  "\u2581d\u00e9": 248,
  "\u2581some": 249,
  "\u2581her": 250,
  "\u2581also": 251,
  "\u2581/": 252,
  "\u2581rere": 253,
  "\u2581out": 254,
  "\"": 255,
  "s\u00e8": 256,
  "\u2581k\u1ecd": 257,
  "\u2581p\u00e0t\u00e0k\u00ec": 258,
  "\u2581\u00ecw\u00e0": 259,
  "\u2581how": 260,
  "\u2581T\u00f3": 261,
  "\u2581help": 262,
  "\u2581been": 263,
  "\u2581such": 264,
  "\u2581\u00e0t\u00e0w\u1ecdn": 265,
  "\u1ecdj\u00f3": 266,
  "l\u00f9": 267,
  "\u2581many": 268,
  "\u2581It": 269,
  "\u2581good": 270,
  "\u2581m\u00ed\u00ec": 271,
  "k\u00e0n": 272,
  "\u2581Witnesses": 273,
  "\u2581m\u00e1": 274,
  "\u2581up": 275,
  "\u2581b\u00edi": 276,
  "t\u00f2": 277,
  "\u2581un": 278,
  "\u2581B\u00e1wo": 279,
  "\u2581k\u00e9": 280,
  "\u2581y\u00edn": 281,
  "\u2581We": 282,
  "w\u1ecdn": 283,
  "\u2581if": 284,
  "\u2581\u00ecf\u00e9": 285,
  "\u2581or\u00edl\u00e8": 286,
  "\u2581\u00ccw\u00e9": 287,
  "\u2581ibi": 288,
  "\u2581Ohun": 289,
  "\u2581no": 290,
  "\u2581love": 291,
  "\u2581\u00e0p\u1eb9\u1eb9r\u1eb9": 292,
  "\u2581\u1e63\u1eb9l": 293,
  "\u2581j\u1eb9": 294,
  "\u2581l\u00f3j\u00fa": 295,
  "\u2581l\u00f2": 296,
  "\u2581g\u00e9": 297,
  "\u2581there": 298,
  "\u2581way": 299,
  "\u2581\u1e63e\u00e9": 300,
  "\u2581other": 301,
  "\u25814": 302,
  "\u2581things": 303,
  "\u2581does": 304,
  "\u2581work": 305,
  "\u2581P\u00f3": 306,
  "ly": 307,
  "\u25815": 308,
  "ed": 309,
  "\u2581Paul": 310,
  "\u2581j\u1ecd": 311,
  "\u2581should": 312,
  "nu": 313,
  "\u2581than": 314,
  "\u2581\u00c8": 315,
  "\u2581said": 316,
  "\u2581page": 317,
  "\u2581W\u00f3": 318,
  "\u2581even": 319,
  "m\u00f2": 320,
  "\u2581\u00e0m\u00f3": 321,
  "\u2581could": 322,
  "\u2581\u00e0k\u00f3k\u00f2": 323,
  "\u2581make": 324,
  "\u2581When": 325,
  "\u2581world": 326,
  "\u2581\u00e9": 327,
  "l\u00e9": 328,
  "\u2581l\u00e0w\u1ecdn": 329,
  "\u2581m\u00ed": 330,
  "\u2581man": 331,
  "\u1e63\u00e8": 332,
  "\u2581\u1eb8": 333,
  "\u2581\u00ecj\u1ecd": 334,
  "\u25812": 335,
  "d\u00f3": 336,
  "\u2581she": 337,
  "\u2581B\u00f3": 338,
  "\u2581ju": 339,
  "\u2581years": 340,
  "b": 341,
  "j\u00f3": 342,
  "\u2581into": 343,
  "\u2581Christian": 344,
  "\u2581day": 345,
  "\u2581ar\u00e1": 346,
  "\u2581which": 347,
  "\u2581says": 348,
  "\u2581Why": 349,
  "\u2581But": 350,
  "...": 351,
  "\u2581others": 352,
  "\u2581O": 353,
  "\u2581these": 354,
  "\u2581k\u00far\u00f2": 355,
  "\u2581For": 356,
  "\u2581j\u00e1de": 357,
  "\u00ed": 358,
  "\u0301": 359,
  "\u2581ron\u00fa": 360,
  "\u2581\u0143": 361,
  "\u2581first": 362,
  "\u2581Kristi": 363,
  "\u2581earth": 364,
  "\u2581m\u00ec\u00edr\u00e0n": 365,
  "\u2581children": 366,
  "\u2581\u00ecl\u00fa": 367,
  "\u2581\u00ccj\u1ecdba": 368,
  "\u2581ka": 369,
  "\u2581If": 370,
  "\u2581tor\u00ed": 371,
  "\u2581n": 372,
  "\u2581This": 373,
  "r\u00e9": 374,
  "\u2581L\u00e9": 375,
  "\u2581b\u00e1y\u00ec\u00ed": 376,
  "\u2581Christians": 377,
  "\u2581Christ": 378,
  "\u2581need": 379,
  "\u2581\u00f2b\u00ed": 380,
  "\u2581Kingdom": 381,
  "\u2581\u00ec\u1e63\u00f2ro": 382,
  "\u2581They": 383,
  "\u2581d\u00f9n": 384,
  "\u2581\u0144l\u00e1": 385,
  "\u2581mu": 386,
  "\u2581L\u00f3": 387,
  "\u2581K\u00f2": 388,
  "\u2581t\u00fab\u00f2": 389,
  "\u258115": 390,
  "\u2022": 391,
  "\u2581*": 392,
  "\u0300": 393,
  "\u2581family": 394,
  "\u2581\u1e62\u00e9": 395,
  "r\u00ed": 396,
  "\u25813:": 397,
  "\u2581\u00e8n\u00ecy\u00e0n": 398,
  "\u2581r\u00f2": 399,
  "\u2581only": 400,
  "\u2581\u1eb9n\u00ec": 401,
  "\u2581t\u00edt\u00ed": 402,
  "\u2581\u00e0": 403,
  "ta": 404,
  "\u2581or\u00ed": 405,
  "\u2581\u00ecd\u00edl\u00e9": 406,
  "\u2581spirit": 407,
  "\u2581example": 408,
  "\u2581because": 409,
  "\u2581\u00fan": 410,
  "\u2581\u00e0wa": 411,
  "\u2581s\u00f3": 412,
  "\u2581\u00ecgb\u00e9s": 413,
  "\u2581k\u00fa": 414,
  "\u2581n\u00edf\u00e8": 415,
  "w\u00e9": 416,
  "s\u00ecn": 417,
  "\u2581made": 418,
  "\u2581As": 419,
  "\u2581n\u00ecy\u1eb9n": 420,
  "\u2581You": 421,
  "\u2581\u00e8r\u00f2": 422,
  "\u2581\u1ecdk\u00f9nrin": 423,
  "\u2581faith": 424,
  "the": 425,
  "t\u00edt\u00f3": 426,
  "\u2581\u0144\u1e63e": 427,
  "\u2581fara": 428,
  "k\u00e9": 429,
  "\u2581being": 430,
  "\u2581see": 431,
  "\u2581f\u00e1w\u1ecdn": 432,
  "t": 433,
  "\u2581Mo": 434,
  "r\u00f9n": 435,
  "\u2581\u00cds\u00edr\u00e9": 436,
  "\u2581like": 437,
  "\u2581l\u00e1\u00e0\u00e1r\u00edn": 438,
  "\u2581\u00ecm\u00f2": 439,
  "\u2581T\u00ed": 440,
  "\u2581n\u00ecd\u00ed": 441,
  "j\u00fa": 442,
  "\u2581r\u00e0n": 443,
  "\u2581\u01f8j\u00e9": 444,
  "\u25812:": 445,
  "\u2581N\u00edtor\u00ed": 446,
  "\u2581m\u00edm\u00f3": 447,
  "\u2581over": 448,
  "\u2581\u1e63\u00ec": 449,
  "\u2581must": 450,
  "\u2581know": 451,
  "b\u00e8": 452,
  "\u2581k\u00e0n": 453,
  "\u2581pad\u00e0": 454,
  "\u2581k\u00fan": 455,
  "\u2581or\u00fak\u1ecd": 456,
  "\u25818": 457,
  "\u2581y\u00ed": 458,
  "\u2581spiritual": 459,
  "\u258111": 460,
  "\u2581n\u00edb\u00e8": 461,
  "\u2581then": 462,
  "\u2581M\u00e1": 463,
  "\u2581true": 464,
  "\u2581n\u00eckan": 465,
  "\u2581congregation": 466,
  "\u2581B\u00e1": 467,
  "\u2581m\u00e9j\u00ec": 468,
  "\u2581well": 469,
  "\u2581\u1e63i\u1e63": 470,
  "\u1e63\u00e9": 471,
  "\u258110": 472,
  "\u2581take": 473,
  "\u2581ob\u00ecnrin": 474,
  "\u2581d\u00e1ra": 475,
  "\u25816": 476,
  "\u2581heart": 477,
  "\u2581t\u00fam": 478,
  "\u2581M\u00edm\u00f3": 479,
  "\u2581\u00ecs\u00ecn": 480,
  "\u2581just": 481,
  "\u2581d\u00ed\u00e8": 482,
  "s\u00ec": 483,
  "ny\u00ed": 484,
  "\u2581b\u00f2": 485,
  "\u2581s\u00e9": 486,
  "\u2581d\u00far\u00f3": 487,
  "d\u00e1": 488,
  "\u2581come": 489,
  "\u2581become": 490,
  "\u2581\u00c0w\u00f2r\u00e1n": 491,
  "\u2581\u00ec": 492,
  "\u2581\u1e62e": 493,
  "\u2581own": 494,
  "\u2581words": 495,
  "\u2581d\u00e1ad\u00e1a": 496,
  "\u2581t\u00e1n": 497,
  "\u2581s\u00edn\u00fa": 498,
  "\u2581K\u00f3": 499,
  "\u00f3t\u00f3": 500,
  "\u2581parents": 501,
  "\u2581its": 502,
  "\u2581ip\u00f2": 503,
  "s\u00edt\u00e9l\u00ec": 504,
  "\u2581sin": 505,
  "k\u1ecd": 506,
  "\u2581before": 507,
  "\u2581death": 508,
  "\u2581ow\u00f3": 509,
  "\u2581ones": 510,
  "\u2581J\u00e9": 511,
  "\u2581\u00ecw\u1ecd": 512,
  "\u2581Picture": 513,
  "r\u00f9": 514,
  "\u2581two": 515,
  "\u2581after": 516,
  "\u2581might": 517,
  "\u2581John": 518,
  "\u2581any": 519,
  "\u2581\u1eb9gb": 520,
  "\u2581t\u00f2\u00f3t": 521,
  "d": 522,
  "\u2581And": 523,
  "\u2581That": 524,
  "\u2581k\u00e0": 525,
  "\u2581now": 526,
  "\u2581person": 527,
  "\u2581new": 528,
  "gb\u00e9": 529,
  "\u2581ogun": 530,
  "\u2581d\u00e1j\u00fa": 531,
  "n\u00ec": 532,
  "\u2581men": 533,
  "\u258112": 534,
  "\u2581\u00ecd\u00ed": 535,
  "\u2581name": 536,
  "d\u00fan": 537,
  "\u2581agb\u00e1ra": 538,
  "\u258113": 539,
  "\u2581another": 540,
  "\u2581\u00e8t\u00f2": 541,
  "\u25811,": 542,
  "\u2581give": 543,
  "\u2581\u1ecdk\u1ecd": 544,
  "\u2581N\u00edn\u00fa": 545,
  "\u00e8y\u00e0n": 546,
  "\u2581much": 547,
  "\u2581\u00c8y\u00ed": 548,
  "\u2581David": 549,
  "\u2581\u00e8mi": 550,
  "\u2581very": 551,
  "\u2581k\u00e9\u00e8y\u00e0n": 552,
  "\u2581\u00ecl\u00e0n\u00e0": 553,
  "\u2581feel": 554,
  "\u2581fa": 555,
  "\u2581times": 556,
  "l\u00f3": 557,
  "\u1ecdl\u00f3": 558,
  "\u2581\u1e63\u00e8": 559,
  "\u258114": 560,
  "\u2581T\u00e1": 561,
  "m\u00f3": 562,
  "ka": 563,
  "\u2581\u00ecj\u1ecdba": 564,
  "\u2581w\u00e0\u00e1s\u00f9": 565,
  "\u2581study": 566,
  "\u2581through": 567,
  "\u2581Word": 568,
  "\u2581truth": 569,
  "\u2581found": 570,
  "\u2581ran": 571,
  "\u2581find": 572,
  "\u2581\u00ecr\u00f2y\u00ecn": 573,
  "\u2581young": 574,
  "\u2581n\u00edbi": 575,
  "\u2581\u1e63\u00f9gb": 576,
  "\u2581o\u00fanj\u1eb9": 577,
  "\u2581most": 578,
  "\u2581To": 579,
  "\u2581today": 580,
  "t\u00f3": 581,
  "\u2581l\u00e1w\u1ecd": 582,
  "\u2581where": 583,
  "\u2581\u00ecb\u00e9\u00e8r\u00e8": 584,
  "\u2581D\u00e1f\u00edd\u00ec": 585,
  "\u2581So": 586,
  "\u2581use": 587,
  "\u2581S\u00e1t\u00e1n\u00ec": 588,
  "\u2581Tor\u00ed": 589,
  "\u25817": 590,
  "\u1eb9": 591,
  "\u2581put": 592,
  "\u2581say": 593,
  "\u2581ik\u00fa": 594,
  "\u2581s\u00fan": 595,
  "\u2581\u1e63\u00e0l\u00e0y\u00e9": 596,
  "\u2581omi": 597,
  "\u2581t\u00ec": 598,
  "\u2581each": 599,
  "\u2581One": 600,
  "\u2581part": 601,
  "\u2581However": 602,
  "I": 603,
  "\u2581r\u00e1r\u00e1": 604,
  "\u2581Do": 605,
  "\u2581home": 606,
  "\u2581s\u00edb\u00e8": 607,
  "\u2581\u00e0k\u00f3": 608,
  "\u2581Satan": 609,
  "\u2581e": 610,
  "p\u00e9": 611,
  "\u2581apostle": 612,
  "\u2581brothers": 613,
  "\u2581himself": 614,
  "\u2581learn": 615,
  "\u2581B\u00e9": 616,
  "\u2581great": 617,
  "\u2581against": 618,
  "\u2581tuntun": 619,
  "\u2581S\u00edb": 620,
  "\u2581human": 621,
  "\u2581book": 622,
  "\u2581d\u00e1a": 623,
  "\u2581gb\u00e0d\u00far\u00e0": 624,
  "\u2581K\u00e1": 625,
  "rin": 626,
  "\u2581\u1e63\u00e9": 627,
  "\u2581same": 628,
  "\u2581f\u00e0": 629,
  "\u2581keep": 630,
  "\u2581Some": 631,
  "\u2581year": 632,
  "\u2581p\u00e0\u00e1p\u00e0\u00e1": 633,
  "\u2581Israel": 634,
  "\u2581k\u00f9": 635,
  "\u2581show": 636,
  "\u2581used": 637,
  "\u2581j\u00e1": 638,
  "\u2581b\u00e9\u00e8r\u00e8": 639,
  "\u2581ta": 640,
  "\u2581s\u00e1b\u00e0": 641,
  "\u2581pinnu": 642,
  "\u2581\u1eb9l\u00e9": 643,
  "\u2581\u1ecdba": 644,
  "\u2581\u1e63\u00f3": 645,
  "\u2581\u1eccba": 646,
  "\u2581why": 647,
  "\u2581\u00f2fin": 648,
  "\u2581never": 649,
  "\u2581n\u00edl\u00f2": 650,
  "\u2581\u00e0p\u00f3": 651,
  "\u25aa": 652,
  "\u2581means": 653,
  "\u2581wrote": 654,
  "\u2581kankan": 655,
  "\u258117": 656,
  "\u2581long": 657,
  "\u258116": 658,
  "\u2581though": 659,
  "\u25813": 660,
  "\u2581t\u00ed\u00ec": 661,
  "\u2581\u00e0n\u00ed": 662,
  "\u2581often": 663,
  "\u2581right": 664,
  "\u2581\u1eccm\u1ecd": 665,
  "\u2581Peter": 666,
  "\u25819": 667,
  "\u2581s\u00e1w\u1ecdn": 668,
  "t\u00e9": 669,
  "\u2581pe": 670,
  "\u2581\u00ect\u00f3": 671,
  "\u2581important": 672,
  "\u2581y\u00e0t": 673,
  "\u2581\u00ecr\u00e1n\u1e63": 674,
  "\u2581\u00e0w\u00f2r\u00e1n": 675,
  "E": 676,
  "\u2581Father": 677,
  "\u258120": 678,
  "\u2581l\u00e1gb\u00e1ra": 679,
  "\u2581end": 680,
  "\u2581b\u00e0a": 681,
  "\u2581get": 682,
  "\u2581k\u1ecdj\u00e1": 683,
  "\u2581\u00e0\u01f9f\u00e0\u00e0n\u00ed": 684,
  "\u2581J\u00f2h\u00e1n\u00f9": 685,
  "\u2581l\u00e1tin\u00fa": 686,
  "\u2581\u00ecw\u00e0\u00e1s\u00f9": 687,
  "\u2581y\u1ecd": 688,
  "\u2581At": 689,
  "\u2581Is": 690,
  "\u2581place": 691,
  "\u2581worship": 692,
  "\u2581want": 693,
  "\u2581too": 694,
  "\u2581y\u00e1": 695,
  "\u2581course": 696,
  "r\u00fan": 697,
  "\u2581\u1ecdg": 698,
  "\u2581After": 699,
  "\u2581ar\u00e1k\u00f9nrin": 700,
  "\u2581w\u00f9": 701,
  "\u2581read": 702,
  "\u2581under": 703,
  "\u2581\u00e0pil": 704,
  "\u2581go": 705,
  "s\u00ed": 706,
  "\u2581ap\u00e1": 707,
  "\u2581kej\u00ec": 708,
  "\u2581wife": 709,
  "\u2581ol\u00f3\u00f2\u00f3t": 710,
  "\u2581C": 711,
  "\u2581New": 712,
  "\u2581every": 713,
  "\u2581word": 714,
  "\u2581ministry": 715,
  "\u2581P\u00e9t\u00e9r\u00f9": 716,
  "\u2581faithful": 717,
  "\u258122": 718,
  "\u2581became": 719,
  "\u2581b\u00f3j\u00fa": 720,
  "\u258121": 721,
  "\u2581R\u00f3\u00f2m\u00f9": 722,
  "\u2581came": 723,
  "\u2581w\u00e0\u00e1": 724,
  "\u2581S\u00e1\u00e0m\u00f9": 725,
  "\u2581upon": 726,
  "\u2581y\u00e8": 727,
  "\u2581\u00f2n\u00ed": 728,
  "\u2581b\u00f3y\u00e1": 729,
  "\u2581mind": 730,
  "\u2581away": 731,
  "\u2581kedere": 732,
  "\u2581\u00e0r\u00f9n": 733,
  "\u2581l\u00e1y\u00e9": 734,
  "\u2581back": 735,
  "\u1e63e": 736,
  "\u2581let": 737,
  "\u2581news": 738,
  "un": 739,
  "\u2581Gbogbo": 740,
  "\u2581down": 741,
  "\u2581\u00ccd\u00ed": 742,
  "\u2581l\u00e0": 743,
  "\u2581told": 744,
  "j\u00e9": 745,
  "\u2581bal\u00e8": 746,
  "\u2581\u00ect": 747,
  "\u2581live": 748,
  "\u25812.": 749,
  "\u2581among": 750,
  "f\u00e9": 751,
  "\u2581gb\u00e1d\u00f9n": 752,
  "\u2581foj\u00fa": 753,
  "\u2581days": 754,
  "\u2581hope": 755,
  "\u2581view": 756,
  "\u2581Fi": 757,
  "\u2581r\u1ecdr\u00f9n": 758,
  "\u2581t\u00e1a": 759,
  "\u2581\u00e0d\u00far\u00e0": 760,
  "\u25814.": 761,
  "\u258119": 762,
  "\u2581later": 763,
  "\u2581J\u00fa\u00f9": 764,
  "\u2581\u00e0m\u00ec": 765,
  "\u2581s\u00f3r\u00ed": 766,
  "S": 767,
  "\u2581r\u00e1nt\u00ed": 768,
  "\u2581y\u00e0n": 769,
  "\u2581\u1e62\u00f9": 770,
  "\u2581during": 771,
  "\u2581a\u1e63\u00e1\u00e1j\u00fa": 772,
  "j\u00e8": 773,
  "\u2581began": 774,
  "\u2581called": 775,
  "\u2581\u00e0j\u1ecd\u1e63e": 776,
  "e": 777,
  "\u2581f\u1ecd": 778,
  "\u258110.": 779,
  "\u2581old": 780,
  "\u2581By": 781,
  "\u2581\u1e63\u00e1\u00e1j\u00fa": 782,
  "\u2581preaching": 783,
  "\u2581w\u00e9": 784,
  "\u2581am": 785,
  "\u2581p\u00fap": 786,
  "\u2581\u00ech\u00ecn": 787,
  "\u2581holy": 788,
  "\u2581ya": 789,
  "\u2581d\u00e0gb\u00e0": 790,
  "\u2581\u00ecj\u1ecds\u00ecn": 791,
  "\u2581still": 792,
  "y": 793,
  "\u2581consider": 794,
  "\u2581knowledge": 795,
  "\u2581l\u00f3ye": 796,
  "\u2581serve": 797,
  "\u2581aya": 798,
  "\u2581No": 799,
  "\u2581Psalm": 800,
  "\u2581Ni": 801,
  "\u2581child": 802,
  "\u2581Scriptures": 803,
  "\u2581\u00e0y\u00e0": 804,
  "\u2581b\u00e0b\u00e1": 805,
  "m\u00f9": 806,
  "\u258125": 807,
  "\u2581set": 808,
  "\u2581Matthew": 809,
  "\u2581ways": 810,
  "\u2581Il\u00e9": 811,
  "\u2581r\u00ecn": 812,
  "\u2581\u00ccgb\u00e0": 813,
  "\u2581given": 814,
  "\u2581three": 815,
  "\u2581On": 816,
  "\u2581Our": 817,
  "\u2581themselves": 818,
  "\u00e0w\u1ecdn": 819,
  "\u2581disciples": 820,
  "\u2581doing": 821,
  "\u2581\u00ecy\u00e0w\u00f3": 822,
  "\u2581however": 823,
  "\u2581\u00e0\u1e63\u1eb9": 824,
  "\u2581There": 825,
  "\u2581\u00ecp\u00e0d\u00e9": 826,
  "\u2581w\u00e1y\u00e9": 827,
  "y\u00e0": 828,
  "\u2581She": 829,
  "\u2581With": 830,
  "\u2581service": 831,
  "t\u00ec": 832,
  "\u2581gave": 833,
  "\u2581\u00e1n": 834,
  "\u2581marriage": 835,
  "\u2581s\u00ecn": 836,
  "\u2581M\u00f3s\u00e8": 837,
  "\u2581power": 838,
  "\u2581\u00ect\u00e0n": 839,
  "\u2581M\u00e1t\u00ed\u00f9": 840,
  "\u2581living": 841,
  "\u2581able": 842,
  "\u2581century": 843,
  "\u2581without": 844,
  "\u2581father": 845,
  "\u2581fact": 846,
  "n\u00fa": 847,
  "\u2581r\u00e1n": 848,
  "\u2581making": 849,
  "\u2581\u1e63\u00ed": 850,
  "\u258112.": 851,
  "\u25817.": 852,
  "\u2581dar\u00ed": 853,
  "\u2581\u00ecgb\u00e9y\u00e0w\u00f3": 854,
  "The": 855,
  "\u1eb8": 856,
  "\u2581al\u00e0gb\u00e0": 857,
  "\u2581m\u00e9j\u00e8\u00e8j\u00ec": 858,
  "\u2581\u00cc": 859,
  "h\u00fan": 860,
  "\u2581L\u00e1ti": 861,
  "\u25818.": 862,
  "\u2581\u1eb9s\u1eb9": 863,
  "\u2581peace": 864,
  "\u2581Many": 865,
  "k\u00e8": 866,
  "\u258114.": 867,
  "\u2581In\u00fa": 868,
  "\u2581b\u1eb9": 869,
  "\u2581His": 870,
  "\u2581ba": 871,
  "\u2581both": 872,
  "\u25819.": 873,
  "\u2581always": 874,
  "\u2581think": 875,
  "\u2581bring": 876,
  "\u2581loving": 877,
  "\u2581\u00e0l\u00e0\u00e1f\u00ed\u00e0": 878,
  "\u2581King": 879,
  "\u2581\u1e63\u00ed\u1e63e": 880,
  "\u2581N\u00edpa": 881,
  "\u2581result": 882,
  "\u25816:": 883,
  "\u2581article": 884,
  "\u2581\u00f2j\u00ed\u1e63": 885,
  "\u2581\u1ecc": 886,
  "\u25815.": 887,
  "\u2581mother": 888,
  "\u258111.": 889,
  "\u2581whom": 890,
  "\u2581L\u00e8": 891,
  "\u2581\u00f2dodo": 892,
  "\u258113.": 893,
  "\u2581Yes": 894,
  "\u2581n\u00ec\u1e63\u00f3": 895,
  "\u2581Ir\u00fa": 896,
  "\u2581w\u00ed": 897,
  "\u2581l\u00f3n\u00ec\u00ed": 898,
  "\u2581reason": 899,
  "\u2581personal": 900,
  "\u2581while": 901,
  "\u2581\u00ecy\u00e0": 902,
  "\u2581b\u00e0": 903,
  "\u2581n\u00edl\u00e8": 904,
  "\u2581asked": 905,
  "\u2581\u00ecy\u00e8": 906,
  "\u2581Even": 907,
  "\u2581took": 908,
  "A": 909,
  "\u2581full": 910,
  "\u2581humans": 911,
  "\u2581l\u00e1y\u00f2": 912,
  "\u2581hand": 913,
  "\u2581d\u00e9bi": 914,
  "\u2581something": 915,
  "\u2581iw\u00e1j\u00fa": 916,
  "\u2581Then": 917,
  "\u2581bur\u00fa": 918,
  "\u2581\u00ec\u1e63\u00e8": 919,
  "\u2581\u1eb9l\u00f2m\u00edr\u00e0n": 920,
  "\u2581\u00e0j\u00f2": 921,
  "\u2581\u00ecp\u00edn": 922,
  "\u258117.": 923,
  "\u2581\u00d2we": 924,
  "\u2581\u1eb8ni": 925,
  "\u2581iye": 926,
  "\u258115.": 927,
  "\u2581bur\u00fak\u00fa": 928,
  "\u2581really": 929,
  "\u2581fellow": 930,
  "),": 931,
  "\u2581house": 932,
  "\u2581purpose": 933,
  "\u2581Am\u00e9": 934,
  "\u2581someone": 935,
  "\u2581l\u00e1\u00e9": 936,
  "r\u00edk\u00e0": 937,
  "\u258116.": 938,
  "\u2581K\u00f3d\u00e0": 939,
  "\u2581Yet": 940,
  "\u25816.": 941,
  "\u2581son": 942,
  "\u2581k\u00e9ker\u00e9": 943,
  "\u2581mankind": 944,
  "\u2581\u00ecpinnu": 945,
  "\u2581From": 946,
  "\u2581H\u00e9b\u00e9r\u00f9": 947,
  "\u2581questions": 948,
  "\u2581servants": 949,
  "\u2581s\u00edw\u00e1j\u00fa": 950,
  "\u2581k\u00ec\u00edn\u00ed": 951,
  "\u2581t\u00f2": 952,
  "\u258115,": 953,
  "\u2581between": 954,
  "b\u00f9n": 955,
  "\u2581r\u00f3": 956,
  "b\u00e9": 957,
  "l\u00f2": 958,
  "\u2581My": 959,
  "\u2581woman": 960,
  "\u2581order": 961,
  "\u2581ar\u00e1y\u00e9": 962,
  "\u2581\u00e0g\u00f9nt\u00e0n": 963,
  "b\u00f9": 964,
  "\u2581S\u00e0nm\u00e1n\u00ec": 965,
  "\u2581w\u1ecd": 966,
  "\u2581\u00ecw\u00f2": 967,
  "\u2581prayer": 968,
  "\u2581\u1e63\u1eb9": 969,
  "\u2581n\u00edl\u00e9": 970,
  "\u2581h\u00f9w\u00e0": 971,
  "\u1e63\u00ec": 972,
  "\u2581\u00edn": 973,
  "r\u00fand\u00fan": 974,
  "\u2581future": 975,
  "\u2581\u00ecy\u00e1": 976,
  "\u2581ay\u00f2": 977,
  "\u2581l\u00e1\u01f9f\u00e0\u00e0n\u00ed": 978,
  "\u2581husband": 979,
  "\u25813.": 980,
  "yin": 981,
  "-": 982,
  "al": 983,
  "\u2581\u00e0s\u1ecdt\u00e9": 984,
  "\u2581having": 985,
  "\u2581B": 986,
  "\u2581igi": 987,
  "\u2581G\u00e9": 988,
  "\u2581W": 989,
  "\u2581together": 990,
  "\u2581l\u00e1b": 991,
  "\u2581learned": 992,
  "\u2581toward": 993,
  "gb\u00e0": 994,
  "\u2581friends": 995,
  "\u2581p\u00e1t\u00e1p\u00e1t\u00e1": 996,
  "\u2581Baba": 997,
  "\u2581look": 998,
  "\u2581da": 999,
  "\u2581o\u1e63\u00f9": 1000,
  "\u2581religious": 1001,
  "\u2581helped": 1002,
  "\u2581food": 1003,
  "\u2581\u00e0\u1e63\u00e0": 1004,
  "\u2581I\u1e63\u00e9": 1005,
  "\u2581hard": 1006,
  "\u2581b\u00fabur\u00fa": 1007,
  "\u2581felt": 1008,
  "\u2581Credit": 1009,
  "t\u00e8": 1010,
  "\u2581Son": 1011,
  "\u2581experience": 1012,
  "\u2581number": 1013,
  "\u2581\u1e63o\u1e63o": 1014,
  "\u258124": 1015,
  "\u2581bi": 1016,
  "\u2581joy": 1017,
  "\u2581Moses": 1018,
  "t\u00e0": 1019,
  "\u2581er\u00e9": 1020,
  "\u2581p\u00e8s\u00e8": 1021,
  "\u2581d\u00e1h\u00f9n": 1022,
  "\u2581\u00ecr\u00e0n": 1023,
  "\u2581j\u00ed": 1024,
  "\u2581\u00eck\u00e9": 1025,
  "\u2581on\u00edr\u00faur\u00fa": 1026,
  "\u2581following": 1027,
  "\u2581meetings": 1028,
  "\u2581relationship": 1029,
  "\u2581face": 1030,
  "\u2581\u1e63\u00e1": 1031,
  "\u2581little": 1032,
  "o": 1033,
  "\u2581brother": 1034,
  "\u2581A\u00eds\u00e1y\u00e0": 1035,
  "\u2581\u00f3\u00f2": 1036,
  "\u2581r\u00e9": 1037,
  "m\u1ecd": 1038,
  "\u2581few": 1039,
  "\u2581city": 1040,
  "\u2581care": 1041,
  "\u2581problems": 1042,
  "\u2581j\u00f3": 1043,
  "\u2581Proverbs": 1044,
  "\u2581par\u00ed": 1045,
  "\u2581Isaiah": 1046,
  "\u2581\u00ecr\u00e8t\u00ed": 1047,
  "\u2581close": 1048,
  "\u2581yourself": 1049,
  "\u2581left": 1050,
  "\u2581best": 1051,
  "\u258128": 1052,
  "\u2581Jerusalem": 1053,
  "\u2581happy": 1054,
  "\u2581needed": 1055,
  "\u2581again": 1056,
  "\u2581l\u00f3de": 1057,
  "\u2581better": 1058,
  "\u25818,": 1059,
  "\u2581heaven": 1060,
  "\u2581language": 1061,
  "\u2581\u00e8y\u00edk\u00e9y\u00ec\u00ed": 1062,
  "\u2581\u00ecb": 1063,
  "\u2581possible": 1064,
  "\u2581free": 1065,
  "\u258118.": 1066,
  "\u2581ask": 1067,
  "\u2581Line": 1068,
  "\u2581ever": 1069,
  "t\u00ed": 1070,
  "\u2581Your": 1071,
  "\u2581gb\u00ecy\u00e0nj\u00fa": 1072,
  "\u2581d\u00e9\u00e9d\u00e9\u00e9": 1073,
  "\u2581wisdom": 1074,
  "\u2581wicked": 1075,
  "\u2581support": 1076,
  "er": 1077,
  "\u2581K\u00ec": 1078,
  "\u2581share": 1079,
  "\u2581Let": 1080,
  "\u2581le": 1081,
  "\u2581\u00ecs\u00e0l": 1082,
  "\u2581lives": 1083,
  "\u258118": 1084,
  "\u258123": 1085,
  "\u2581d\u00ecde": 1086,
  "\u2581n\u00edl\u00f9\u00fa": 1087,
  "f\u00e0": 1088,
  "\u2581\u00e0n\u00edm": 1089,
  "\u2581h\u00f9": 1090,
  "\u2581matter": 1091,
  "\u2581\u00f2r\u00f3r\u00f3": 1092,
  "\u2581\u00e0gb\u00e8gb\u00e8": 1093,
  "\u00c0w\u1ecdn": 1094,
  "\u2581known": 1095,
  "\u2581eyes": 1096,
  "\u2581Israelites": 1097,
  "\u2581done": 1098,
  "\u2581Ay\u00e9": 1099,
  "\u2581off": 1100,
  "\u2581women": 1101,
  "\u2581\u00e0l\u00f9f\u00e1\u00e0": 1102,
  "\u258130": 1103,
  "\u2581counsel": 1104,
  "\u2581Jer\u00fas\u00e1l": 1105,
  "\u2581s\u00e1": 1106,
  "\u2581\u00e1\u0144": 1107,
  "ther": 1108,
  "\u2581yan": 1109,
  "\u2581Or\u00ed": 1110,
  "\u2581age": 1111,
  "\u2581avoid": 1112,
  "\u2581Wo": 1113,
  "\u2581water": 1114,
  "\u2581b\u00e1wo": 1115,
  "\u2581These": 1116,
  "\u2581All": 1117,
  "\u2581F\u00fan": 1118,
  "\u2581different": 1119,
  "\u2581ret\u00ed": 1120,
  "kun": 1121,
  "\u2581Consider": 1122,
  "\u2581ohunk\u00f3hun": 1123,
  "\u2581World": 1124,
  "\u2581last": 1125,
  "\u2581answer": 1126,
  "\u2581m\u00e9l\u00f2\u00f3": 1127,
  "\u2581understand": 1128,
  "\u2581message": 1129,
  "\u2581y\u00f2": 1130,
  "\u2581\u00e0\u00ecs\u00e0n": 1131,
  "\u2581\u00cc\u1e63e": 1132,
  "\u2581school": 1133,
  "\u2581bad": 1134,
  "r\u00f3": 1135,
  "\u2581sap\u00e1": 1136,
  "\u25813,": 1137,
  "\u2581near": 1138,
  "\u2581believe": 1139,
  "\u2581\u1e63\u00e0k\u00f3so": 1140,
  "\u2581S": 1141,
  "\u2581feelings": 1142,
  "\u2581j\u00edr\u00f2r\u00f2": 1143,
  "\u2581m\u00fara": 1144,
  "\u2581self": 1145,
  "\u2581cannot": 1146,
  "\u2581de": 1147,
  "\u2581continue": 1148,
  "r\u00ed\u0144t\u00ec": 1149,
  "\u2581f\u00fanni": 1150,
  "\u2581anointed": 1151,
  "\u2581states": 1152,
  "\u2581fear": 1153,
  "\u2581far": 1154,
  "\u2581k\u00edy\u00e8": 1155,
  "\u2581money": 1156,
  "\u2581desire": 1157,
  "\u2581Abraham": 1158,
  "\u2581Timothy": 1159,
  "\u2581\u1e63\u00f2ro": 1160,
  "\u2581t\u00e8t\u00e8": 1161,
  "\u2581bo": 1162,
  "\u2581\u1ecdm\u1ecdd\u00e9": 1163,
  "\u2581ip\u00e1": 1164,
  "\u2581\u00d2fin": 1165,
  "n\u00f9": 1166,
  "\u2581\u00f2k\u00e8": 1167,
  "\u2581benefit": 1168,
  "\u2581Ar\u00e1k\u00f9nrin": 1169,
  "\u2581l\u00e1": 1170,
  "\u2581went": 1171,
  "\u2581t\u1eb9": 1172,
  "\u2581teaching": 1173,
  "\u2581n\u00e1": 1174,
  "\u2581J\u00f3\u00f2b\u00f9": 1175,
  "\u2581\u00c0l\u00e0y\u00e9": 1176,
  "\u2581ipa": 1177,
  "\u2581T\u00edm\u00f3t\u00ec": 1178,
  "\u2581\u1eb9l\u00f2m\u00ed\u00ec": 1179,
  "bi": 1180,
  "\u2581Can": 1181,
  "\u2581f\u00f2": 1182,
  "\u258119.": 1183,
  "\u2581f\u00edfi": 1184,
  "\u2581enjoy": 1185,
  "\u2581ourselves": 1186,
  "\u2581thought": 1187,
  "\u2581heavenly": 1188,
  "\u2581\u1eb9ran": 1189,
  "\u2581L\u00fa\u00f9k\u00f9": 1190,
  "\u2581Luke": 1191,
  "\u2581situation": 1192,
  "\u2581\u00ccy\u1eb9n": 1193,
  "\u2581since": 1194,
  "\u2581wise": 1195,
  "\u2581certain": 1196,
  "\u2581D": 1197,
  "\u2581\u00c1b\u00far\u00e1h\u00e1m\u00f9": 1198,
  "\u2581early": 1199,
  "\u2581sense": 1200,
  "\u2581tipa": 1201,
  "\u2581conduct": 1202,
  "\u2581Job": 1203,
  "\u2581k\u00f3d\u00e0": 1204,
  "\u2581present": 1205,
  "\u25819,": 1206,
  "\u2581gidi": 1207,
  "\u2581likely": 1208,
  "\u2581Ti": 1209,
  "\u2581ancient": 1210,
  "\u2581p\u00edp\u00e9": 1211,
  "\u2581Although": 1212,
  "\u2581r\u1ecd": 1213,
  "\u2581giving": 1214,
  "\u2581account": 1215,
  "\u2581ga": 1216,
  "\u2581fine": 1217,
  "\u2581members": 1218,
  "\u2581nations": 1219,
  "\u2581received": 1220,
  "\u2581t\u1ecdk\u1ecdtaya": 1221,
  "r": 1222,
  "\u2581king": 1223,
  "\u2581righteous": 1224,
  "\u2581health": 1225,
  "\u2581talk": 1226,
  "t\u00e1": 1227,
  "\u2581elders": 1228,
  "\u2581y\u00e0": 1229,
  "\u2581y\u00e9": 1230,
  "\u2581Does": 1231,
  "\u2581next": 1232,
  "\u258127": 1233,
  "\u2581respect": 1234,
  "\u2581Because": 1235,
  "\u2581speak": 1236,
  "....": 1237,
  "\u25816,": 1238,
  "\u2581\u1ecdm\u1ecdl\u00e9": 1239,
  "m\u00fa": 1240,
  "\u2581\u00e0gb\u00e0": 1241,
  "\u2581j\u00e0": 1242,
  "\u2581k\u00f3k\u00f3": 1243,
  "\u2581T": 1244,
  "d\u00e9": 1245,
  "\u2581mean": 1246,
  "C": 1247,
  "\u2581nor": 1248,
  "\u2581wu": 1249,
  "\u2581baptized": 1250,
  "\u2581l\u00f3\u00f2\u00f3t": 1251,
  "\u2581w\u00f2l\u00ed\u00ec": 1252,
  "\u2581serving": 1253,
  "\u2581cause": 1254,
  "m": 1255,
  "\u2581kind": 1256,
  "\u2581needs": 1257,
  "g\u00e1": 1258,
  "\u2581a\u1e63\u1ecd": 1259,
  "\u2581difficult": 1260,
  "\u2581saw": 1261,
  "\u2581system": 1262,
  "Mo": 1263,
  "\u2581moved": 1264,
  "\u2581Mi": 1265,
  "\u25815,": 1266,
  "\u2581\u00e0p\u00e9j\u1ecd": 1267,
  "\u2581attention": 1268,
  "\u2581Adam": 1269,
  "\u2581real": 1270,
  "\u2581around": 1271,
  "d\u00e1\u00e0b\u00f2": 1272,
  "\u2581\u00ecd\u00e1j": 1273,
  "\u2581Acts": 1274,
  "\u2581W\u1ecdn": 1275,
  "\u2581\u1eb9r\u00fa": 1276,
  "\u2581Who": 1277,
  "\u2581reading": 1278,
  "\u2581law": 1279,
  "u": 1280,
  "\u2581information": 1281,
  "\u2581\u00ecb\u00f9k\u00fan": 1282,
  "\u2581knew": 1283,
  "\u2581o\u00f2r\u00f9n": 1284,
  "\u2581saying": 1285,
  "\u2581\u00f2k\u00fa": 1286,
  "in": 1287,
  "w\u00e0\u00e1": 1288,
  "\u2581case": 1289,
  "\u2581especially": 1290,
  "\u2581sure": 1291,
  "\u2581thus": 1292,
  "\u2581high": 1293,
  "\u2581jin": 1294,
  "\u2581\u00ecl\u00e9r\u00ed": 1295,
  "\u2581Of": 1296,
  "s\u00f2": 1297,
  "\u2581along": 1298,
  "\u2581ar\u00e1b\u00ecnrin": 1299,
  "\u2581James": 1300,
  "\u2581Those": 1301,
  "\u2581land": 1302,
  "r\u1ecd": 1303,
  "\u2581point": 1304,
  "\u2581wrong": 1305,
  "\u2581principles": 1306,
  "\u2581body": 1307,
  "\u2581lead": 1308,
  "\u2581Oj\u00fa": 1309,
  "\u2581k\u00e9r\u00e9": 1310,
  "\u2581t\u00fa": 1311,
  "\u2581until": 1312,
  "\u2581receive": 1313,
  "\u2581question": 1314,
  "\u2581yet": 1315,
  "\u2581Greek": 1316,
  "th": 1317,
  "\u2581\u00ecj\u00e0": 1318,
  "\u2581f\u00f3": 1319,
  "\u2581sun": 1320,
  "\u2581\u00ecs\u1ecdf\u00fanni": 1321,
  "\u2581including": 1322,
  "\u2581d\u00edn": 1323,
  "\u2581Thus": 1324,
  "\u2581\u00c1d\u00e1m\u00f9": 1325,
  "\u2581Footnote": 1326,
  "\u2581Ol\u00fawa": 1327,
  "\u2581\u00c9": 1328,
  "\u2581Watchtower": 1329,
  "\u2581Law": 1330,
  "\u2581blood": 1331,
  "\u2581Lord": 1332,
  "\u2581o\u00f2g\u00f9n": 1333,
  "d\u00e0\u00e1": 1334,
  "\u2581suffering": 1335,
  "\u2581r\u00e8\u00e9": 1336,
  "\u2581soon": 1337,
  "\u2581L": 1338,
  "\u2581change": 1339,
  "\u2581\u1e63\u00e8t\u00f2": 1340,
  "\u2581P\u00e9": 1341,
  "\u2581act": 1342,
  "gun": 1343,
  "\u258133": 1344,
  "\u2581trust": 1345,
  "\u2581kindness": 1346,
  "\u2581brought": 1347,
  "\u2581follow": 1348,
  "\u2581died": 1349,
  "\u2581attitude": 1350,
  "\u2581Are": 1351,
  "\u2581Y\u00e0": 1352,
  "la": 1353,
  "\u2581Corinthians": 1354,
  "p\u00e8": 1355,
  "\u2581makes": 1356,
  "\u2581going": 1357,
  "y\u00f2": 1358,
  "\u2581dandan": 1359,
  "\u2581turn": 1360,
  "\u2581\u00ecd\u00e1": 1361,
  "\u2581\u00f2ye": 1362,
  "\u2581dead": 1363,
  "\u2581provide": 1364,
  "\u2581wanted": 1365,
  "\u258120.": 1366,
  "\u2581thinking": 1367,
  "\u2581THE": 1368,
  "\u258126": 1369,
  "\u2581ak\u00e9": 1370,
  "\u2581\u00e8so": 1371,
  "\u2581\u1ecdm\u1ecdb\u00ecnrin": 1372,
  "\u2581Be": 1373,
  "\u2581l\u00e1\u00e0y\u00e8": 1374,
  "\u2581yanj\u00fa": 1375,
  "\u2581\u00c0p\u00f3": 1376,
  "\u2581m\u00e0\u00e1": 1377,
  "Read": 1378,
  "g\u00f3": 1379,
  "\u2581gb\u00e0gb\u00e9": 1380,
  "\u2581G\u00edr\u00ed\u00eck\u00ec": 1381,
  "\u2581married": 1382,
  "\u2581religion": 1383,
  "ng\u00e0n": 1384,
  "\u25814,": 1385,
  "\u00d3": 1386,
  "\u2581D\u00ed": 1387,
  "\u2581Jews": 1388,
  "\u2581G\u00e8": 1389,
  "l\u1ecd": 1390,
  "\u2581Ka": 1391,
  "\u2581\u00e8k\u00e9": 1392,
  "\u2581whole": 1393,
  "\u2581Such": 1394,
  "\u258114,": 1395,
  "\u2581prophet": 1396,
  "st": 1397,
  "\u2581small": 1398,
  "\u2581allow": 1399,
  "\u2581K\u00e0k\u00e0": 1400,
  "\u2581Pictures": 1401,
  "\u2581Not": 1402,
  "\u2581\u00c0W\u1eccN": 1403,
  "hile": 1404,
  "\u2581s\u00edbi": 1405,
  "Ka": 1406,
  "\u2581remain": 1407,
  "\u2581\u00f2kun": 1408,
  "\u2581People": 1409,
  "\u258112:": 1410,
  "\u2581group": 1411,
  "\u2581happiness": 1412,
  "\u0144p\u00ecl\u00ec": 1413,
  "\u2581Since": 1414,
  "\u2581individuals": 1415,
  "\u2581taught": 1416,
  "\u2581followers": 1417,
  "\u2581og\u00fan": 1418,
  "\u2581\u00ec\u1e63\u00f2": 1419,
  "\u2581\u1eb9nu": 1420,
  "\u2581s\u00edl\u00e9": 1421,
  "\u2581control": 1422,
  "\u2581\u1eb9b\u1ecd": 1423,
  "ny\u1eb9n": 1424,
  "\u2581Creator": 1425,
  "\u2581\u00ecr\u00e8": 1426,
  "\u2581war": 1427,
  "\u2581taking": 1428,
  "\u2581Il\u00e8": 1429,
  "\u2581teach": 1430,
  "\u2581Joseph": 1431,
  "\u2581\u00ecran": 1432,
  "\u2581\u1e63\u00f2": 1433,
  "\u258121.": 1434,
  "\u2581orin": 1435,
  "\u2581Wa": 1436,
  "\u2581pray": 1437,
  "\u2581special": 1438,
  "\u2581whe": 1439,
  "\u2581\u00c0wa": 1440,
  "\u2581try": 1441,
  "\u2581\u1e63\u00e8l\u00e9r\u00ed": 1442,
  "\u2581s\u00f3k\u00e8": 1443,
  "b\u00ed": 1444,
  "gb\u00e8": 1445,
  "gb\u00f2": 1446,
  "d\u00e0": 1447,
  "\u2581\u00c8\u1e63\u00f9": 1448,
  "\u2581W\u00e0": 1449,
  "\u2581nation": 1450,
  "\u2581nothing": 1451,
  "\u2581k\u00e1r\u00ed": 1452,
  "\u2581strong": 1453,
  "\u2581m\u00e1\u00e0": 1454,
  "\u2581\u00ecd\u00e1h\u00f9n": 1455,
  "\u2581Romans": 1456,
  "\u2581d\u00edp\u00f2": 1457,
  "\u2581gb\u00e8": 1458,
  "\u258129": 1459,
  "\u2581doj\u00fa": 1460,
  "f\u00f9": 1461,
  "\u2581Read": 1462,
  "\u2581\u00f2pin": 1463,
  "\u2581\u1e63\u00e8r\u00ecb\u1ecdmi": 1464,
  "\u2581l\u00f3kun": 1465,
  "\u2581sent": 1466,
  "\u2581\u00c0": 1467,
  "\u2581\u1ecdm\u1ecdk\u00f9nrin": 1468,
  "\u2581P": 1469,
  "\u2581night": 1470,
  "\u2581matters": 1471,
  "\u2581Solomon": 1472,
  "w\u00e8": 1473,
  "\u2581light": 1474,
  "nn\u00e1r\u00ec": 1475,
  "\u2581thing": 1476,
  "\u2581in\u00e1": 1477,
  "\u2581\u00e0\u00e1d\u00f3": 1478,
  "\u2581involved": 1479,
  "\u2581l\u00e1t\u00f2": 1480,
  "\u2581t\u00e0w\u1ecdn": 1481,
  "\u2581large": 1482,
  "\u2581bor\u00ed": 1483,
  "\u2581four": 1484,
  "\u2581Daniel": 1485,
  "\u2581mentioned": 1486,
  "\u2581p\u00e0d\u00e9": 1487,
  "\u2581Rather": 1488,
  "\u2581S\u00f3l\u00f3m\u00f3": 1489,
  "\u2581similar": 1490,
  "\u2581m\u1ecdy\u00ec": 1491,
  "\u2581qualities": 1492,
  "\u2581Today": 1493,
  "\u2581\u00cc\u1e63\u00edpay\u00e1": 1494,
  "\u258111,": 1495,
  "\u2581comes": 1496,
  "\u258110,": 1497,
  "\u2581san": 1498,
  "\u2581works": 1499,
  "\u2581m\u00e1r\u00f9n": 1500,
  "\u2581Revelation": 1501,
  "\u2581E": 1502,
  "\u2581d\u00ed": 1503,
  "\u2581k\u00edk\u00fan": 1504,
  "\u2581perfect": 1505,
  "\u2581\u00e0w\u00f9j\u1ecd": 1506,
  "\u2581gives": 1507,
  "\u2581on\u00edf": 1508,
  "\u2581tiw\u1ecdn": 1509,
  "\u2581\u00e0\u00e0b\u00f2": 1510,
  "\u2581sons": 1511,
  "\u2581temple": 1512,
  "\u2581spiritually": 1513,
  "\u2581\u00ecb\u00e1l\u00f2": 1514,
  "\u2581United": 1515,
  "\u2581material": 1516,
  "\u2581loved": 1517,
  "\u2581physical": 1518,
  "\u2581\u00ecgb\u00e9": 1519,
  "\u2581b\u00f9": 1520,
  "\u2581s\u00f9n": 1521,
  "\u2581\u00c8d\u00e8": 1522,
  "\u2581f\u00e8": 1523,
  "\u25817,": 1524,
  "\u2581based": 1525,
  "\u2581w\u00fal\u00f2": 1526,
  "\u2581everlasting": 1527,
  "\u2581local": 1528,
  "\u2581\u00ccW\u00c9": 1529,
  "\u2581\u00e0\u00e1r\u00edn": 1530,
  "p\u00e1": 1531,
  "\u2581m\u00e9je": 1532,
  "\u2581s": 1533,
  "wa": 1534,
  "\u2581Dur": 1535,
  "\u2581Would": 1536,
  "\u2581past": 1537,
  "f\u1ecdk\u00e0n": 1538,
  "\u2581friend": 1539,
  "\u2581shows": 1540,
  "\u2581m\u00ed\u1e63": 1541,
  "espite": 1542,
  "\u2581d\u00e1r\u00ed": 1543,
  "\u2581kingdom": 1544,
  "\u2581Devil": 1545,
  "\u2581heard": 1546,
  "j\u1ecd": 1547,
  "\u258123.": 1548,
  "\u2581w\u00e0h\u00e1l\u00e0": 1549,
  "\u2581simply": 1550,
  "\u2581s\u00edl\u00f2": 1551,
  "\u2581taken": 1552,
  "\u2581\u00e0gb\u00e0yanu": 1553,
  "\u2581clear": 1554,
  "\u2581certainly": 1555,
  "\u2581sisters": 1556,
  "\u1eccl\u00f3": 1557,
  "\u2581\u00ccf": 1558,
  "\u2581\u00ec\u1e63": 1559,
  "\u2581country": 1560,
  "\u2581ol\u00f9k\u00f3": 1561,
  "\u2581F": 1562,
  "\u2581J\u00f3s": 1563,
  "\u2581y\u1ecdr\u00ed": 1564,
  "\u258116,": 1565,
  "\u2581false": 1566,
  "\u2581l\u00e1k\u00f2\u00f3k\u00f2": 1567,
  "\u258132": 1568,
  "\u2581resurrection": 1569,
  "K\u00ed": 1570,
  "\u2581using": 1571,
  "\u2581Watch": 1572,
  "\u2581once": 1573,
  "\u2581w\u1ecdl\u00e9": 1574,
  "\u2581According": 1575,
  "\u258118:": 1576,
  "\u2581\u00ectum": 1577,
  "re": 1578,
  "\u2581\u1e63\u00e8gb\u1ecdr\u00e0n": 1579,
  "\u2581r\u00fa": 1580,
  "\u258112,": 1581,
  "c": 1582,
  "\u2581L\u1ecd": 1583,
  "\u2581G": 1584,
  "\u2581tell": 1585,
  "w\u00e0": 1586,
  "\u2581Gb\u00f2": 1587,
  "\u2581b\u00e1w\u1ecdn": 1588,
  "\u2581al\u00e1\u1e63\u1eb9": 1589,
  "\u2581interest": 1590,
  "\u2581anyone": 1591,
  "\u2581sacrifice": 1592,
  "\u2581truly": 1593,
  "\u2581divine": 1594,
  "\u2581provided": 1595,
  "\u2581started": 1596,
  "\u2581strength": 1597,
  "\u2581seen": 1598,
  "\u2581slave": 1599,
  "\u2581\u00cdj\u00edb\u00edt\u00ec": 1600,
  "\u2581ewu": 1601,
  "\u2581\u1ecdgb\u00e0": 1602,
  "\u2581lost": 1603,
  "\u2581p\u00edn": 1604,
  "\u2581fully": 1605,
  "\u2581l\u00e9t\u00ed": 1606,
  "d\u00f9n": 1607,
  "\u2581d\u00fa": 1608,
  "\u25812,": 1609,
  "\u2581problem": 1610,
  "\u2581apostles": 1611,
  "\u2581inspired": 1612,
  "\u2581tiwa": 1613,
  "\u2581May": 1614,
  "\u2581evidence": 1615,
  "s\u00eds\u00ec": 1616,
  "\u2581\u00c8mi": 1617,
  "\u00c8": 1618,
  "\u2581leave": 1619,
  "\u2581Mary": 1620,
  "\u2581second": 1621,
  "\u2581\u00e0tij\u00f3": 1622,
  "j\u00e1de": 1623,
  "\u2581\u00ecb\u00ed": 1624,
  "\u2581circumstances": 1625,
  "\u2581d\u00f3": 1626,
  "\u2581righteousness": 1627,
  "\u258131": 1628,
  "\u2581Genesis": 1629,
  "\u2581effort": 1630,
  "\u2581lived": 1631,
  "\u2581sister": 1632,
  "\u25817:": 1633,
  "\u2581R\u1eb9": 1634,
  "\u2581Rere": 1635,
  "\u2581gift": 1636,
  "\u2581\u1e62\u00f3": 1637,
  "\u258122.": 1638,
  "\u2581York": 1639,
  "\u2581already": 1640,
  "\u2581wonderful": 1641,
  "\u2581Hebrew": 1642,
  "\u2581according": 1643,
  "\u2581here": 1644,
  "\u2581m\u00e0": 1645,
  "\u2581value": 1646,
  "\u2581\u00e0gb\u00e0lagb\u00e0": 1647,
  "\u2581\u00fa": 1648,
  "and": 1649,
  "\u00d2": 1650,
  "\u2581Will": 1651,
  "\u2581p\u00e0t\u00f3": 1652,
  "\u2581serious": 1653,
  "\u2581\u00e0t": 1654,
  "\u01f9da": 1655,
  "\u2581ol\u00f3r\u00ed": 1656,
  "\u2581older": 1657,
  "\u2581J": 1658,
  "\u2581form": 1659,
  "\u2581meaning": 1660,
  "\u2581n\u00edw\u00e1j\u00fa": 1661,
  "\u2581\u00c8\u00e8y\u00e0n": 1662,
  "\u2581\u1eb9ranko": 1663,
  "\u2581s\u00eds\u1ecd": 1664,
  "d\u00e8": 1665,
  "\u2581regard": 1666,
  "\u2581return": 1667,
  "\u2581B\u00e0b\u00e1": 1668,
  "\u2581accept": 1669,
  "\u2581S\u00ed": 1670,
  "\u2581\u00cc\u1e63\u00f3": 1671,
  "\u2581\u00e0\u00ecn\u00edp": 1672,
  "\u2581further": 1673,
  "\u2581\u25cf": 1674,
  "\u2581efforts": 1675,
  "\u2581coming": 1676,
  "B\u00ed": 1677,
  "\u2581R\u00ed": 1678,
  "\u2581sheep": 1679,
  "You": 1680,
  "\u2581j\u00f2": 1681,
  "\u2581public": 1682,
  "\u2581J\u00e1k": 1683,
  "\u2581Like": 1684,
  "\u2581Now": 1685,
  "de": 1686,
  "\u2581standards": 1687,
  "\u2581forever": 1688,
  "\u2581understanding": 1689,
  "\u2581Ta": 1690,
  "\u2581k\u00e1\u00e0kiri": 1691,
  "n\u00edt\u00f2": 1692,
  "\u2581\u00c0n\u00ed": 1693,
  "\u258113,": 1694,
  "\u2581rather": 1695,
  "\u2581effect": 1696,
  "\u2581P\u00e1r\u00e1d\u00eds\u00e8": 1697,
  "\u2581al\u00e1b\u00f2\u00f3j\u00fat\u00f3": 1698,
  "\u2581greater": 1699,
  "\u2581comfort": 1700,
  "\u2581Society": 1701,
  "\u2581gain": 1702,
  "\u258124.": 1703,
  "\u2581anything": 1704,
  "\u2581imitate": 1705,
  "\u2581draw": 1706,
  "\u2581t\u00e1\u00e1": 1707,
  "k\u00f9nrin": 1708,
  "\u2581Did": 1709,
  "\u2581prayers": 1710,
  "\u2581ra": 1711,
  "s\u00f3": 1712,
  "\u258140": 1713,
  "\u2581born": 1714,
  "\u2581_": 1715,
  "\u2581y\u00f2\u00f3w\u00f9": 1716,
  "\u258137": 1717,
  "\u2581rule": 1718,
  "\u2581showed": 1719,
  "\u2581\u1eccd\u00fan": 1720,
  "\u2581tara": 1721,
  "\u2581written": 1722,
  "\u2581M\u00e9": 1723,
  "\u2581Still": 1724,
  "\u2581longer": 1725,
  "\u2581k\u00e8": 1726,
  "\u2581please": 1727,
  "\u2581named": 1728,
  "\u2581S\u00f3": 1729,
  "\u2581doubt": 1730,
  "\u2581Life": 1731,
  "\u2581L\u00e1": 1732,
  "\u2581t\u00fat\u00f9": 1733,
  "\u2581changed": 1734,
  "\u2581\u00f2\u1e63\u00ec\u1e63": 1735,
  "fet\u00ed": 1736,
  "r\u00fa": 1737,
  "\u2581Their": 1738,
  "\u2581b\u1ecd": 1739,
  "\u2581\u1e63": 1740,
  "\u2581history": 1741,
  "\u2581N\u00f3\u00e0": 1742,
  "\u2581stand": 1743,
  "\u2581meeting": 1744,
  "\u2581kept": 1745,
  "\u2581\u00e0k\u1ecds\u00edl": 1746,
  "\u2581common": 1747,
  "\u2581Scriptural": 1748,
  "\u2581key": 1749,
  "\u2581months": 1750,
  "\u2581perhaps": 1751,
  "\u2581speaking": 1752,
  "\u2581baba": 1753,
  "\u2581gidigidi": 1754,
  "\u2581move": 1755,
  "\u2581therefore": 1756,
  "l\u00e1": 1757,
  "\u2581%": 1758,
  "\u2581call": 1759,
  "\u2581t\u00edt\u00f3": 1760,
  "\u2581congregations": 1761,
  "\u2581deal": 1762,
  "\u2581s\u00edra": 1763,
  "\u2581\u00e0y\u00e8": 1764,
  "\u2581L\u00f3\u00f2\u00f3": 1765,
  "\u2581examples": 1766,
  "\u2581An": 1767,
  "\u2581deep": 1768,
  "\u2581on\u00edm": 1769,
  "\u2581promises": 1770,
  "\u2581gbangba": 1771,
  "\u2581j\u00ecnn\u00e0": 1772,
  "\u2581ol\u00f3dodo": 1773,
  "\u2581powerful": 1774,
  "\u2581y\u00f2\u00f3k\u00f9": 1775,
  "\u2581authority": 1776,
  "\u2581j\u00f3k\u00f2\u00f3": 1777,
  "\u2581within": 1778,
  "\u2581Roman": 1779,
  "\u2581d\u00e1n": 1780,
  "\u2581gb\u00e1ra": 1781,
  "\u2581prophecy": 1782,
  "ohun": 1783,
  "\u2581\u01f9j": 1784,
  "\u2581Instead": 1785,
  "\u2581Noah": 1786,
  "\u2581promise": 1787,
  "\u2581regarding": 1788,
  ",...": 1789,
  "\u2581confidence": 1790,
  "\u2581\u00ecw\u00e1d\u00ec\u00ed": 1791,
  "\u2581l\u00e1s\u00e1n": 1792,
  "\u2581Mark": 1793,
  "\u2581M\u00fa": 1794,
  "\u2581\u00c0p\u1eb9\u1eb9r\u1eb9": 1795,
  "\u2581Hebrews": 1796,
  "\u2581\u1ecdl\u00e1": 1797,
  "\u2581pioneer": 1798,
  "\u2581s\u00e1y\u00e9": 1799,
  "\u2581\u00f2go": 1800,
  "\u258117,": 1801,
  "\u2581Jewish": 1802,
  "\u2581opportunity": 1803,
  "\u2581\u00c0p\u00f3t\u00ed": 1804,
  "\u2581alone": 1805,
  "\u2581kiri": 1806,
  "\u2581\u00e0l\u00e0y\u00e9": 1807,
  "\u2581decision": 1808,
  "\u2581government": 1809,
  "\u2581issue": 1810,
  "\u2581\u1e63\u00e8gb\u00e9y\u00e0w\u00f3": 1811,
  "\u2581Indeed": 1812,
  "\u2581blessings": 1813,
  "\u2581stated": 1814,
  "\u2581soul": 1815,
  "\u2581Tower": 1816,
  "\u2581area": 1817,
  "\u2581everything": 1818,
  "\u2581n\u00edw\u00f2": 1819,
  "\u2581s\u00f9\u00far\u00f9": 1820,
  "\u2581M\u00e8s\u00e1y\u00e0": 1821,
  "\u2581States": 1822,
  "\u2581privilege": 1823,
  "\u2581affect": 1824,
  "\u2581n\u00edy\u00e0nj\u00fa": 1825,
  "\u2581\u00e0y\u00edk\u00e1": 1826,
  "\u2581K": 1827,
  "\u2581spoke": 1828,
  "\u2581w\u00e1k\u00e0t\u00ed": 1829,
  "\u2581\u00f2de": 1830,
  "\u2581j\u00e0\u01f9f\u00e0\u00e0n\u00ed": 1831,
  "\u2581k\u00f3r\u00ec\u00edra": 1832,
  "\u2581Samuel": 1833,
  "\u2581helps": 1834,
  "\u2581remember": 1835,
  "\u2581\u00ecm\u00f3": 1836,
  "\u2581pages": 1837,
  "\u2581\u00d2un": 1838,
  "k\u00fa": 1839,
  "\u2581die": 1840,
  "\u2581hands": 1841,
  "ting": 1842,
  "\u2581advice": 1843,
  "\u2581got": 1844,
  "\u2581OJ\u00da": 1845,
  "\u2581open": 1846,
  "\u2581loyal": 1847,
  "\u2581published": 1848,
  "\u2581blessing": 1849,
  "\u2581explained": 1850,
  "\u2581m\u00edl\u00ed": 1851,
  "\u2581W\u00e1": 1852,
  "\u2581witness": 1853,
  "\u2581P\u00e8": 1854,
  "\u2581thoughts": 1855,
  "\u2581\u00ecyanu": 1856,
  "\u2581apply": 1857,
  "\u2581d": 1858,
  "\u2581j\u00edj": 1859,
  "\u2581j\u00e1w\u00f3": 1860,
  "\u2581koj\u00fa": 1861,
  "\u2581\u00e0\u00ecp\u00e9": 1862,
  "\u2581shall": 1863,
  "\u2581\u1ecdn": 1864,
  "\u2581activities": 1865,
  "\u2581decisions": 1866,
  "\u2581lu": 1867,
  "\u2581organization": 1868,
  "\u2581\u1eccj": 1869,
  "\u258119,": 1870,
  "\u2581Witness": 1871,
  "\u2581maintain": 1872,
  "\u2581M": 1873,
  "\u2581R\u00e8": 1874,
  "nj\u00fa": 1875,
  "\u2581ago": 1876,
  "\u2581willing": 1877,
  "\u2581hearts": 1878,
  "\u2581n\u00f9": 1879,
  "\u2581\u1eb9r\u00f9": 1880,
  "\u2581\u1ecdt\u00ed": 1881,
  "es": 1882,
  "\u2581available": 1883,
  "\u2581heavens": 1884,
  "\u2581t\u1ecdk\u00e0nt\u1ecdk\u00e0n": 1885,
  "\u2581couple": 1886,
  "\u2581L\u00e1\u00ec": 1887,
  "\u2581b\u00e1ra": 1888,
  "\u2581k\u00edk\u00f3": 1889,
  "\u2581s\u00e0n": 1890,
  "\u2581Hence": 1891,
  "\u2581\u00e0\u00e1n\u00fa": 1892,
  "\u2581vital": 1893,
  "\u2581considered": 1894,
  "\u2581instance": 1895,
  "\u2581events": 1896,
  "\u2581tan": 1897,
  "\u258125.": 1898,
  "\u2581continued": 1899,
  "\u2581students": 1900,
  "\u2581visit": 1901,
  "Jehovah": 1902,
  "J\u00e8h\u00f3f\u00e0": 1903,
  "\u2581L\u00e1ra": 1904,
  "\u2581f": 1905,
  "\u2581percent": 1906,
  "\u2581U": 1907,
  "\u2581D\u00e1n\u00ed\u00e9": 1908,
  "\u2581listen": 1909,
  "\u2581\u1e63\u00e8r\u00e0n": 1910,
  "\u2581w\u00fa": 1911,
  "\u2581hold": 1912,
  "\u2581\u00ecr\u00ecn": 1913,
  "\u2581moral": 1914,
  "\u2581prove": 1915,
  "God": 1916,
  "\u2581seem": 1917,
  "\u2581l\u00f3jooj\u00fa": 1918,
  "\u2581\u00c9f\u00e9s\u00f9": 1919,
  "\u2581\u1e63\u00e0y\u00e8": 1920,
  "\u258118,": 1921,
  "\u2581held": 1922,
  "\u2581poor": 1923,
  "\u2581served": 1924,
  "\u2581\u00ec\u1e63\u00e0k\u00f3so": 1925,
  "\u2581l\u00e9d\u00e8": 1926,
  "\u2581Kan": 1927,
  "\u2581role": 1928,
  "n\u00ed": 1929,
  "\u2581hear": 1930,
  "\u2581honor": 1931,
  "\u2581b\u00edn\u00fa": 1932,
  "\u2581offer": 1933,
  "\u2581\u00c9f\u00e0": 1934,
  "\u1e63\u00f2": 1935,
  "\u2581Jerem\u00e1y\u00e0": 1936,
  "\u2581ability": 1937,
  "\u2581preach": 1938,
  "\u2581n\u00edsins\u00ecny\u00ed": 1939,
  "\u01f9p\u00fat\u00e0": 1940,
  "\u2581Ibi": 1941,
  "\u2581in\u00fanib\u00edni": 1942,
  "\u2581led": 1943,
  "\u2581M\u00e0r\u00ed\u00e0": 1944,
  "\u2581N\u01f9kan": 1945,
  "\u2581countries": 1946,
  "y\u00e9": 1947,
  "\u2581True": 1948,
  "\u2581\u00e0g\u00f3": 1949,
  "\u2581\u00ecj\u00ec": 1950,
  "d\u00ec": 1951,
  "\u2581Jeremiah": 1952,
  "\u2581\u00e0j\u00ed\u01f9de": 1953,
  "\u2581believers": 1954,
  "\u2581various": 1955,
  "\u2581branch": 1956,
  "\u2581answers": 1957,
  "\u2581influence": 1958,
  "\u2581\u00e0b\u00ed": 1959,
  "\u2581First": 1960,
  "\u2581glory": 1961,
  "\u2581r\u00e1n\u1e63": 1962,
  "\u2581explains": 1963,
  "d\u1eb9ni": 1964,
  "less": 1965,
  "\u2581church": 1966,
  "\u2581less": 1967,
  "\u2581\u00e8te": 1968,
  "\u2581don": 1969,
  "\u2581okun": 1970,
  "\u2581See": 1971,
  "\u2581S\u00e1m\u00fa": 1972,
  "\u2581\u00ccw\u1ecd": 1973,
  "\u2581Gb\u00e9": 1974,
  "\u2581five": 1975,
  "\u2581t\u00f9": 1976,
  "\u2581direction": 1977,
  "\u2581S\u1ecd": 1978,
  "\u2581g\u00edga": 1979,
  "\u2581\u00cd\u0144t\u00e1n": 1980,
  "\u2581Eve": 1981,
  "\u2581l\u00edle": 1982,
  "\u2581\u00e0d\u00e1nw\u00f2": 1983,
  "\u2581B\u00e1b\u00edl\u00f3n\u00ec": 1984,
  "\u2581teachings": 1985,
  "\u2581wants": 1986,
  "\u2581accepted": 1987,
  "\u2581above": 1988,
  "l\u00e0": 1989,
  "\u2581angels": 1990,
  "\u2581practical": 1991,
  "\u2581p\u00e9r\u00e9": 1992,
  "\u2581seek": 1993,
  "\u2581\u00ecgb\u00e0an\u00ec": 1994,
  "\u2581head": 1995,
  "\u2581build": 1996,
  "\u2581pain": 1997,
  "\u2581whose": 1998,
  "\u2581\u00ecr\u00edr\u00ed": 1999,
  "\u2581J\u00e1m\u00e1n\u00ec": 2000,
  "\u1e63\u00f3": 2001,
  "\u2581several": 2002,
  "hun": 2003,
  "m\u00ec\u00ed": 2004,
  "\u2581else": 2005,
  "\u2581judgment": 2006,
  "\u2581oh\u00f9n": 2007,
  "\u2581source": 2008,
  "\u2581determined": 2009,
  "\u2581enough": 2010,
  "\u2581ol\u00f9\u1e63\u00f3": 2011,
  "\u2581\u00ecr\u00f2n\u00fa": 2012,
  "\u2581described": 2013,
  "\u2581\u00ccw\u00e0": 2014,
  "\u2581p\u00f3": 2015,
  "\u2581field": 2016,
  "\u2581start": 2017,
  "\u2581\u00e0\u1e63\u00ec\u1e63e": 2018,
  "\u2581m\u00e0m\u00e1": 2019,
  "\u2581s\u00edy\u1eb9n": 2020,
  "\u2581t\u00e0n": 2021,
  "\u2581appreciate": 2022,
  "\u2581easy": 2023,
  "\u2581l\u00f2d\u00ec": 2024,
  "\u2581recorded": 2025,
  "\u2581violence": 2026,
  "\u2581Have": 2027,
  "\u2581Box": 2028,
  "\u2581\u00e0j\u1ecd": 2029,
  "\u2581\u00ecn\u00ed": 2030,
  "\u2581earlier": 2031,
  "\u2581\u00eclera": 2032,
  "\u2581ol\u00fak\u00fal\u00f9k\u00f9": 2033,
  "\u2581Hall": 2034,
  "\u2581itself": 2035,
  "\u2581English": 2036,
  "\u2581sexual": 2037,
  "\u2581PAGE": 2038,
  "\u2581R": 2039,
  "\u2581experienced": 2040,
  "l": 2041,
  "\u2581happened": 2042,
  "\u2581n\u00ed\u1e63\u00ec\u00edr\u00ed": 2043,
  "\u2581period": 2044,
  "\u2581walk": 2045,
  "godly": 2046,
  "\u2581appointed": 2047,
  "\u2581express": 2048,
  "\u2581worldwide": 2049,
  "\u2581million": 2050,
  "\u2581single": 2051,
  "\u2581\u00e8r\u00f2j\u00e0": 2052,
  "_": 2053,
  "\u2581text": 2054,
  "\u2581class": 2055,
  "\u2581modern": 2056,
  "\u2581\u00cch\u00ecn": 2057,
  "\u2581complete": 2058,
  "\u2581everyone": 2059,
  "\u2581\u00ec\u1e63ek\u00fa\u1e63e": 2060,
  "\u2581ha": 2061,
  "\u2581letter": 2062,
  "\u2581reach": 2063,
  "\u2581working": 2064,
  "O": 2065,
  "f\u00ed\u00ecs\u00ec": 2066,
  "\u2581clearly": 2067,
  "\u2581\u00ecb\u00e1m": 2068,
  "\u2581Just": 2069,
  "\u2581activity": 2070,
  "\u2581appreciation": 2071,
  "\u2581met": 2072,
  "\u2581position": 2073,
  "\u2581psalmist": 2074,
  "\u2581clean": 2075,
  "\u2581\u00f2m\u00ecnira": 2076,
  "\u2581job": 2077,
  "\u2581proved": 2078,
  "\u2581reasons": 2079,
  "\u2581s\u00e1ra": 2080,
  "\u2581\u1e63\u00e0p\u00e8j\u00fawe": 2081,
  "\u2581flesh": 2082,
  "\u2581B\u00edi": 2083,
  "\u2581R\u00e1r\u00e1": 2084,
  "\u2581agbo": 2085,
  "\u2581conscience": 2086,
  "\u2581integrity": 2087,
  "\u2581m\u1ecdr\u00edr\u00ec": 2088,
  "\u2581mate": 2089,
  "\u2581meet": 2090,
  "\u2581myself": 2091,
  "\u2581concern": 2092,
  "\u2581d\u00f3k\u00edt\u00e0": 2093,
  "\u2581daughter": 2094,
  "\u2581\u00eck\u1eb9y\u00ecn": 2095,
  "\u2581on\u00ed": 2096,
  "\u2581Saul": 2097,
  "\u2581\u00e0b\u00e1j\u00e1de": 2098,
  "\u2581\u00ecb\u00e0n\u00faj": 2099,
  "\u2581l\u00edlo": 2100,
  "\u2581strengthen": 2101,
  "Wo": 2102,
  "\u2581actually": 2103,
  "\u2581grow": 2104,
  "\u2581K\u00e1t\u00f3l\u00ed\u00eck\u00ec": 2105,
  "\u258122,": 2106,
  "\u2581Most": 2107,
  "\u2581M\u00f3": 2108,
  "\u2581ko": 2109,
  "\u2581Y\u1eb9": 2110,
  "\u2581\u00e0s\u1ecdy\u00e9": 2111,
  "t\u00edm\u00f3": 2112,
  "\u2581Ara": 2113,
  "\u2581develop": 2114,
  "\u2581actions": 2115,
  "\u2581birth": 2116,
  "\u2581chapter": 2117,
  "\u2581forth": 2118,
  "\u2581offered": 2119,
  "\u2581six": 2120,
  "\u2581training": 2121,
  "\u2581helping": 2122,
  "\u2581ransom": 2123,
  "\u2581t\u00f3bi": 2124,
  "\u2581D\u00e1j\u00fad\u00e1j\u00fa": 2125,
  "\u2581panel": 2126,
  "\u2581\u00e0p\u00e8j\u00fawe": 2127,
  "\u2581books": 2128,
  "\u2581learning": 2129,
  "\u2581millions": 2130,
  "\u2581appropriate": 2131,
  "\u2581sins": 2132,
  "\u2581families": 2133,
  "org": 2134,
  "\u2581tried": 2135,
  "\u00a9": 2136,
  "\u00c8mi": 2137,
  "\u2581created": 2138,
  "\u2581p\u00e1n": 2139,
  "\u2581office": 2140,
  "\u2581on\u00edgb\u00e0gb": 2141,
  "s\u00e0n": 2142,
  "\u2581Bethel": 2143,
  "\u2581n\u00edt\u00f2s\u00ed": 2144,
  "\u2581\u00e0t\u00e0t\u00e0": 2145,
  "\u2581action": 2146,
  "\u2581magazine": 2147,
  "\u2581stay": 2148,
  "See": 2149,
  "\u25819:": 2150,
  "\u2581Egypt": 2151,
  "\u2581Therefore": 2152,
  "\u2581promised": 2153,
  "p\u00e0\u00e1": 2154,
  "\u2581baptism": 2155,
  "\u2581responsibility": 2156,
  "\u2581rest": 2157,
  "\u2581attend": 2158,
  "\u2581takes": 2159,
  "\u2581Ask": 2160,
  "\u2581raised": 2161,
  "f\u00e0y\u00e8": 2162,
  "\u2581Ogun": 2163,
  "\u2581evil": 2164,
  "\u2581harmony": 2165,
  "\u2581regularly": 2166,
  "\u2581respond": 2167,
  "N\u00ed": 2168,
  "\u2581carry": 2169,
  "\u2581hours": 2170,
  "\u2581regular": 2171,
  "\u2581write": 2172,
  "\u258129.": 2173,
  "\u2581Later": 2174,
  "\u2581w": 2175,
  "\u2581\u00e0j\u00e1l\u00f9": 2176,
  "\u258131.": 2177,
  "\u2581addition": 2178,
  "\u2581ib\u00ec": 2179,
  "\u2581p\u00e0d\u00e1n\u00f9": 2180,
  "\u2581\u00ecr\u00e0pad\u00e0": 2181,
  "\u2581daily": 2182,
  "\u2581natural": 2183,
  "\u2581neither": 2184,
  "\u2581precious": 2185,
  "f\u00e8": 2186,
  "\u2581guidance": 2187,
  "\u2581provides": 2188,
  "\u2581l\u00e1\u00ecs\u00ed": 2189,
  "\u258134": 2190,
  "\u2581force": 2191,
  "\u2581foretold": 2192,
  "\u2581choose": 2193,
  "\u2581decided": 2194,
  "\u2581l\u00e1y\u00e8": 2195,
  "\u2581oj\u00fa\u1e63e": 2196,
  "\u2581\u00ecy\u00edpad\u00e0": 2197,
  "\u2581positive": 2198,
  "\u2581\u25a1": 2199,
  "N\u00edgb\u00e0": 2200,
  "k\u00f9n": 2201,
  "\u2581\u00c1f\u00edr\u00edk\u00e0": 2202,
  "\u2581k\u00eck\u00ec": 2203,
  "\u2581p\u00e0\u1e63\u1eb9": 2204,
  "\u2581display": 2205,
  "\u2581speech": 2206,
  "\u2581report": 2207,
  "h\u00f9n": 2208,
  "\u258128.": 2209,
  "\u2581stop": 2210,
  "\u2581\u00ecsap\u00e1": 2211,
  "\u2581changes": 2212,
  "\u2581d\u00ec": 2213,
  "\u258124:": 2214,
  "\u2581\u00ecgb\u00f2k\u00e8gbod\u00f2": 2215,
  "\u2581or\u00ed\u1e63ir\u00ed\u1e63i": 2216,
  "\u2581subject": 2217,
  "\u2581Moreover": 2218,
  "\u2581results": 2219,
  "\u2581ten": 2220,
  "\u2581w\u1ecdn\u00fa": 2221,
  "l\u00e1k\u00f2\u00f3k\u00f2": 2222,
  "\u2581earthly": 2223,
  "\u258120,": 2224,
  "\u2581M\u00e1\u00e0k\u00f9": 2225,
  "\u2581exercise": 2226,
  "\u2581knows": 2227,
  "\u2581k\u00f3pa": 2228,
  "\u2581Y\u00far\u00f3\u00f2p\u00f9": 2229,
  "i": 2230,
  "\u2581April": 2231,
  "\u2581general": 2232,
  "\u2581accurate": 2233,
  "\u2581gb\u00f3l\u00f3h\u00f9n": 2234,
  "\u2581ro": 2235,
  "\u2581f\u00ecf": 2236,
  "\u2581lands": 2237,
  "\u2581languages": 2238,
  "\u2581s\u00fa": 2239,
  "\u2581r\u1eb9p\u1eb9t\u1eb9": 2240,
  "\u2581\u00ecl\u00e0": 2241,
  "f\u00ecd\u00ed": 2242,
  "\u25817]": 2243,
  "\u2581anger": 2244,
  "\u2581assignment": 2245,
  "\u2581indeed": 2246,
  "\u2581laws": 2247,
  "\u2581pressure": 2248,
  "\u2581\u00e0\u00e1": 2249,
  "\u2581covenant": 2250,
  "\u2581p\u00ecw\u00e0": 2251,
  "g\u00f2": 2252,
  "\u2581Or": 2253,
  "\u2581door": 2254,
  "\u2581seems": 2255,
  "\u2581t\u1ecd": 2256,
  "\u2581Brother": 2257,
  "\u2581obey": 2258,
  "\u2581places": 2259,
  "\u2581r\u00fab\u1ecd": 2260,
  "\u2581suffer": 2261,
  "to": 2262,
  "\u2581Another": 2263,
  "\u2581eat": 2264,
  "\u2581least": 2265,
  "\u2581September": 2266,
  "\u2581J\u00f9": 2267,
  "\u2581creation": 2268,
  "\u2581encouraged": 2269,
  "\u2581entire": 2270,
  "\u2581p\u1ecdn": 2271,
  "\u2581\u00ecb\u00edn\u00fa": 2272,
  "\u2581Japan": 2273,
  "\u2581shown": 2274,
  "\u2581F\u00edl\u00edp\u00ec": 2275,
  "\u2581behind": 2276,
  "\u2581s\u00f3hun": 2277,
  "\u2581courage": 2278,
  "\u2581occasion": 2279,
  "\u2581\u00ecp\u00f3": 2280,
  "s\u00f9n": 2281,
  "\u2581challenge": 2282,
  "\u2581er\u00e9k\u00f9\u1e63\u00f9": 2283,
  "\u2581\u00ccb\u00e9\u00e8r\u00e8": 2284,
  "\u2581J\u00ed": 2285,
  "M": 2286,
  "\u2581include": 2287,
  "\u2581week": 2288,
  "\u2581rich": 2289,
  "\u2581command": 2290,
  "\u2581individual": 2291,
  "\u2581irin": 2292,
  "\u2581\u00ecgb\u00e0l\u00e0": 2293,
  "\u2581\u00e8l\u00f2": 2294,
  "\u2581\u00ec\u1e63e": 2295,
  "\u2581dara": 2296,
  "\u2581g\u00fan": 2297,
  "\u2581practice": 2298,
  "\u2581Africa": 2299,
  "\u2581Before": 2300,
  "\u2581ad\u00far\u00f3\u1e63in\u1e63in": 2301,
  "\u2581convention": 2302,
  "\u2581t\u00e8mi": 2303,
  "ic": 2304,
  "\u2581caused": 2305,
  "\u2581n\u00edd\u00ec\u00ed": 2306,
  "\u2581praise": 2307,
  "\u2581\u00e0r\u00e0": 2308,
  "\u2581\u1ecdp\u1ecdl\u1ecd": 2309,
  "\u2581Love": 2310,
  "\u2581\u00ecb\u00e1w\u00ed": 2311,
  "\u2581Awake": 2312,
  "\u2581Catholic": 2313,
  "\u2581Others": 2314,
  "\u2581\u00e0\u00ecm\u1ecdye": 2315,
  "b\u00f2": 2316,
  "\u2581Lo": 2317,
  "\u2581freedom": 2318,
  "\u2581studying": 2319,
  "\u2581throughout": 2320,
  "\u2581oj\u00fal\u00f3w\u00f3": 2321,
  "\u2581short": 2322,
  "\u2581\u00e0b\u00far\u00f2": 2323,
  "\u2581\u1e63\u00e1\u00e1": 2324,
  "\u2581expression": 2325,
  "\u01f9s\u00ec": 2326,
  "\u2581Farans\u00e9": 2327,
  "\u2581k\u00f2k\u00f2r\u00f2": 2328,
  "\u2581miles": 2329,
  "\u2581protect": 2330,
  "\u2581showing": 2331,
  "\u2581\u00e8r\u00e8": 2332,
  "\u2581k\u00fak\u00fa": 2333,
  "\u2581realize": 2334,
  "\u2581\u00ecgboy\u00e0": 2335,
  "ve": 2336,
  "\u2581becoming": 2337,
  "\u2581tu": 2338,
  "\u2581benefits": 2339,
  "\u2581interested": 2340,
  "\u2581\u00ecr\u00ecb\u1ecdmi": 2341,
  "ness": 2342,
  "\u2581turned": 2343,
  "\u2581\u00ect\u00f9n\u00fa": 2344,
  "\u2581interests": 2345,
  "\u2581literature": 2346,
  "\u2581centuries": 2347,
  "\u2581N": 2348,
  "\u2581discipline": 2349,
  "\u2581prison": 2350,
  "\u2581returned": 2351,
  "\u2581\u00e0w\u00f2": 2352,
  "\u2581invited": 2353,
  "\u2581thousands": 2354,
  "\u2581Tiwa": 2355,
  "\u2581getting": 2356,
  "\u2581seven": 2357,
  "\u2581\u00e0p\u00f3t\u00ed": 2358,
  "\u2581July": 2359,
  "\u2581allowed": 2360,
  "\u2581\u00ccgb\u00ec": 2361,
  "nba": 2362,
  "t\u00ecn\u00ec": 2363,
  "\u2581Young": 2364,
  "\u2581gb\u00f2": 2365,
  "\u2581ol\u00f3r\u00f3": 2366,
  "\u2581m\u00e1j\u00e8": 2367,
  "\u2581trials": 2368,
  "\u2581J\u00fad\u00e0": 2369,
  "\u2581tells": 2370,
  "\u2581l\u00e8y\u00ed": 2371,
  "\u2581\u00ecw\u00e0l\u00e1\u00e0y\u00e8": 2372,
  "\u00e1\u00e0\u00e1r\u00edn": 2373,
  "or": 2374,
  "\u2581Messiah": 2375,
  "\u2581r\u00ecnr\u00ecn": 2376,
  "\u2581wonder": 2377,
  "\u2581\u00ecrora": 2378,
  "\u2581South": 2379,
  "\u2581al\u00e1\u00ecp\u00e9": 2380,
  "\u2581desires": 2381,
  "\u2581\u00e0k\u00e0n\u1e63e": 2382,
  "y\u00e8": 2383,
  "\u2581knowing": 2384,
  "\u2581About": 2385,
  "\u2581former": 2386,
  "\u2581missionary": 2387,
  "\u2581personality": 2388,
  "\u2581prayed": 2389,
  "\u2581worked": 2390,
  "us": 2391,
  "\u2581lack": 2392,
  "\u2581paradise": 2393,
  "\u2581d\u00e1n\u00ed": 2394,
  "\u2581goal": 2395,
  "\u2581youths": 2396,
  "\u2581\u00ccm\u00f2": 2397,
  "\u2581T\u00d3": 2398,
  "\u2581education": 2399,
  "\u2581December": 2400,
  "\u2581\u1eb9l\u1eb9g": 2401,
  "\u2581Jacob": 2402,
  "\u2581seeking": 2403,
  "\u2581morning": 2404,
  "\u2581sometimes": 2405,
  "\u2581tree": 2406,
  "\u2581y\u00e1l\u00e0": 2407,
  "t\u00fan": 2408,
  "\u2581Perhaps": 2409,
  "\u2581expect": 2410,
  "N": 2411,
  "\u2581Great": 2412,
  "\u2581condition": 2413,
  "\u2581imperfect": 2414,
  "\u2581sex": 2415,
  "\u2581voice": 2416,
  "dar\u00e0n": 2417,
  "\u2581disease": 2418,
  "\u2581s\u00edp\u00f2": 2419,
  "\u2581beliefs": 2420,
  "\u2581building": 2421,
  "\u2581success": 2422,
  "\u2581elder": 2423,
  "\u2581enjoyed": 2424,
  "\u2581girl": 2425,
  "san": 2426,
  "\u2581rin": 2427,
  "\u0144b\u00e0": 2428,
  "\u2581quality": 2429,
  "\u2581sign": 2430,
  "\u2581Us": 2431,
  "\u2581necessary": 2432,
  "\u2581salvation": 2433,
  "l\u1eb9": 2434,
  "\u2581gb\u00edgb\u00e9": 2435,
  "\u2581\u00c0\u01f9f\u00e0\u00e0n\u00ed": 2436,
  "\u2581T\u00fa": 2437,
  "\u2581added": 2438,
  "\u2581endure": 2439,
  "\u2581happen": 2440,
  "\u2581proper": 2441,
  "\u2581\u00c8\u00e9": 2442,
  "\u2581genuine": 2443,
  "\u2581s\u00f3j\u00fa": 2444,
  "\u2581City": 2445,
  "\u2581N\u00e1\u00e0": 2446,
  "\u2581beyond": 2447,
  "\u2581servant": 2448,
  "If": 2449,
  "\u0144": 2450,
  "\u2581al\u00e1d\u00f9\u00fagb\u00f2": 2451,
  "\u2581quickly": 2452,
  "\u2581acts": 2453,
  "\u2581Ephesians": 2454,
  "\u2581More": 2455,
  "\u2581\u00ectara": 2456,
  "\u2581B\u00e9\u00e8r\u00e8": 2457,
  "\u2581reflect": 2458,
  "\u2581destruction": 2459,
  "\u2581encourage": 2460,
  "\u2581justice": 2461,
  "\u2581\u1ecck\u00e0n": 2462,
  "j\u00f2": 2463,
  "\u2581Judah": 2464,
  "\u2581feeling": 2465,
  "\u2581goals": 2466,
  "\u2581looking": 2467,
  "\u2581\u00ecd\u00e0\u00e0m\u00fa": 2468,
  "\u2581\u1ecdgb": 2469,
  "\u00e9\u00e8y\u00e0n": 2470,
  "\u2581Holy": 2471,
  "\u2581greatest": 2472,
  "\u2581k\u00ecl\u00f3m\u00edt\u00e0": 2473,
  "\u2581record": 2474,
  "\u2581s\u00ecg\u00e1": 2475,
  "\u2581\u00c0gb\u00e1y\u00e9": 2476,
  "\u2581usually": 2477,
  "\u2581Ob\u00ecnrin": 2478,
  "\u2581humble": 2479,
  "\u2581walking": 2480,
  "\u2581Y\u00f3\u00f2": 2481,
  "\u2581basis": 2482,
  "\u2581line": 2483,
  "\u2581Keep": 2484,
  "\u2581il\u00e9e\u1e63": 2485,
  "\u2581\u1e63\u00e1\u00e0": 2486,
  "\u2581K\u00e9": 2487,
  "\u2581spend": 2488,
  "\u25819]": 2489,
  "\u2581beginning": 2490,
  "\u2581fulfillment": 2491,
  "\u2581para": 2492,
  "\u2581spent": 2493,
  "\u2581trying": 2494,
  "\u2581\u0143l\u00e1": 2495,
  "\u2581\u1e63er\u00e9": 2496,
  "\u2581address": 2497,
  "\u2581polongo": 2498,
  "\u2581related": 2499,
  "\u2581\u00cc\u1e63\u00f2ro": 2500,
  "p": 2501,
  "\u2581favor": 2502,
  "\u1ecd": 2503,
  "\u2581H": 2504,
  "\u2581blessed": 2505,
  "\u2581j\u00ecy\u00e0": 2506,
  "\u2581pay": 2507,
  "\u2581steps": 2508,
  "\u2581\u1ecdr\u1eb9": 2509,
  "\u258124,": 2510,
  "\u2581enemies": 2511,
  "\u2581image": 2512,
  "\u2581r\u00e0": 2513,
  "\u2581l\u00e9pa": 2514,
  "\u2581member": 2515,
  "\u2581side": 2516,
  "\u2581Clearly": 2517,
  "\u2581Soon": 2518,
  "\u2581assigned": 2519,
  "\u2581original": 2520,
  "\u2581areas": 2521,
  "\u2581ready": 2522,
  "\u2581\u00ec\u1e63\u00edr\u00ed": 2523,
  "ers": 2524,
  "\u2581Though": 2525,
  "\u2581half": 2526,
  "ww": 2527,
  "\u2581gb\u00e1": 2528,
  "\u2581\u00c0pil": 2529,
  "\u2581faced": 2530,
  "\u2581feet": 2531,
  "\u258126.": 2532,
  "\u2581d\u00f2": 2533,
  "\u2581state": 2534,
  "\u2581L\u00f3r\u00ed": 2535,
  "\u2581warning": 2536,
  "K\u00f2": 2537,
  "\u258150": 2538,
  "\u2581Further": 2539,
  "\u2581ay\u1eb9y\u1eb9": 2540,
  "\u2581deeply": 2541,
  "\u2581arrived": 2542,
  "\u2581bear": 2543,
  "\u2581firm": 2544,
  "\u2581m\u00e9j\u00ecl\u00e1": 2545,
  "\u2581War": 2546,
  "\u2581conditions": 2547,
  "\u2581crowd": 2548,
  "\u2581challenges": 2549,
  "\u2581leaders": 2550,
  "\u2581revealed": 2551,
  "\u2581traveling": 2552,
  "\u2581\u00c8r\u00f2": 2553,
  "\u2581month": 2554,
  "\u2581\u00c8l\u00edj\u00e0": 2555,
  "We": 2556,
  "\u2581August": 2557,
  "\u2581October": 2558,
  "\u2581koko": 2559,
  "\u2581simple": 2560,
  "\u2581choice": 2561,
  "\u2581gb\u00e1\u00e0": 2562,
  "\u2581\u00e0t\u00f2": 2563,
  "\u2581eventually": 2564,
  "\u2581whatever": 2565,
  "\u258110]": 2566,
  "\u2581Brazil": 2567,
  "\u2581Tuntun": 2568,
  "\u2581followed": 2569,
  "\u2581encouragement": 2570,
  "\u2581\u00ccd\u00edl\u00e9": 2571,
  "\u2581Gilead": 2572,
  "\u2581Nevertheless": 2573,
  "\u2581reports": 2574,
  "\u2581\u00ecb\u00e0": 2575,
  "\u258123]": 2576,
  "\u2581completely": 2577,
  "\u2581either": 2578,
  "\u2581sleep": 2579,
  "\u2581Brooklyn": 2580,
  "\u2581contact": 2581,
  "\u2581program": 2582,
  "It": 2583,
  "\u2581al\u00e1gb\u00e1ra": 2584,
  "\u2581January": 2585,
  "\u2581alive": 2586,
  "\u2581k\u00edl\u00e1\u00e0s\u00ec": 2587,
  "\u2581l\u00f3k\u00e8": 2588,
  "\u2581parts": 2589,
  "\u2581social": 2590,
  "\u2581sound": 2591,
  "r\u00fak\u1ecd": 2592,
  "\u2581cultivate": 2593,
  "\u2581j\u00ed\u01f9de": 2594,
  "\u2581cope": 2595,
  "\u2581k\u00e9\u00e9k\u00e8\u00e8k\u00e9": 2596,
  "\u2581term": 2597,
  "ar": 2598,
  "\u2581almo": 2599,
  "\u2581l\u00f3g\u00fan": 2600,
  "\u2581\u00ecd\u00f9nn\u00fa": 2601,
  "\u2581yin": 2602,
  "\u2581d\u00ecgb\u00e0": 2603,
  "\u2581illustration": 2604,
  "\u2581Ruth": 2605,
  "\u2581focus": 2606,
  "\u2581Joshua": 2607,
  "\u2581ahead": 2608,
  "\u2581beautiful": 2609,
  "\u2581fire": 2610,
  "\u2581June": 2611,
  "\u2581Where": 2612,
  "Do": 2613,
  "\u2581mercy": 2614,
  "\u2581explain": 2615,
  "\u2581km": 2616,
  "\u2581B\u00cdB\u00c9L\u00cc": 2617,
  "\u2581translation": 2618,
  "l\u00e1\u00ecp\u00e9": 2619,
  "\u2581recent": 2620,
  "\u2581brings": 2621,
  "\u2581expressed": 2622,
  "\u2581F\u00e9": 2623,
  "\u2581gb\u1ecdn": 2624,
  "\u2581studies": 2625,
  "d\u00f3g\u00fan": 2626,
  "gba": 2627,
  "r\u00ecnr\u00ecn": 2628,
  "tara": 2629,
  "\u2581test": 2630,
  "\u2581School": 2631,
  "\u2581sacred": 2632,
  "\u2581\u00e8re": 2633,
  "\u258127.": 2634,
  "\u2581Similarly": 2635,
  "\u2581accounts": 2636,
  "\u2581j\u00ec": 2637,
  "\u2581Pa": 2638,
  "\u2581R\u00e1nt\u00ed": 2639,
  "\u2581aj\u00e9": 2640,
  "\u2581nira": 2641,
  "\u2581parent": 2642,
  "\u2581W\u00e0\u00e1": 2643,
  "\u2581al\u00e1\u00ecn\u00ed": 2644,
  "\u2581noted": 2645,
  "\u2581publications": 2646,
  "\u2581teacher": 2647,
  "\u2581town": 2648,
  "\u2581\u00ccgb\u00e9s": 2649,
  "\u2581emotional": 2650,
  "\u2581protection": 2651,
  "\u2581included": 2652,
  "\u2581prevent": 2653,
  "\u2581March": 2654,
  "\u2581j\u1eb9un": 2655,
  "\u2581\u00c1": 2656,
  "\u2581principle": 2657,
  "\u2581'?": 2658,
  "\u2581IN": 2659,
  "\u2581Really": 2660,
  "\u2581Remember": 2661,
  "\u2581od\u00f2": 2662,
  "\u2581\u00d2k\u00e8": 2663,
  "\u258135.": 2664,
  "\u2581O\u00f2r\u00f9n": 2665,
  "\u2581approach": 2666,
  "\u2581fruit": 2667,
  "\u2581progress": 2668,
  "\u2581sa": 2669,
  "\u2581\u0144l\u00e1\u01f9l\u00e0": 2670,
  "\u2581t\u1eb9lif\u00ed": 2671,
  "\u2581youth": 2672,
  "\u2581idea": 2673,
  "\u2581unity": 2674,
  "\u2581lot": 2675,
  "\u2581\u1eb9gb\u1eb9\u1eb9gb": 2676,
  "\u25811914": 2677,
  "\u2581angel": 2678,
  "\u2581filled": 2679,
  "\u2581fulfilled": 2680,
  "\u2581sacrifices": 2681,
  "\u2581articles": 2682,
  "\u2581behalf": 2683,
  "\u2581examine": 2684,
  "\u2581\u1ecck\u00f9nrin": 2685,
  "\u2581mental": 2686,
  "\u2581truths": 2687,
  "\u2581\u00e0n\u00edy\u00e0n": 2688,
  "ri": 2689,
  "\u2581sea": 2690,
  "Ohun": 2691,
  "tor\u00ed": 2692,
  "\u2581\u00ecparun": 2693,
  "\u1eb8ni": 2694,
  "\u2581ab\u00fal\u00e9": 2695,
  "\u2581\u00eck\u00e0nn\u00ec": 2696,
  "fi": 2697,
  "\u2581Church": 2698,
  "\u2581j\u00e1\u00ec": 2699,
  "\u2581priest": 2700,
  "\u2581Pennsylvania": 2701,
  "\u2581realized": 2702,
  "w\u1ecd": 2703,
  "\u2581aware": 2704,
  "\u2581humility": 2705,
  "\u2581closer": 2706,
  "\u2581nature": 2707,
  "an": 2708,
  "\u2581j\u00e1k\u00e8j\u00e1d\u00f2": 2709,
  "\u2581lesson": 2710,
  "\u2581Kej\u00ec": 2711,
  "\u2581importance": 2712,
  "\u2581\u00ecm\u00fa\u1e63\u1eb9": 2713,
  "\u2581Children": 2714,
  "\u2581cases": 2715,
  "\u2581yanturu": 2716,
  "\u2581\u00ccs\u1ecdf\u00fanni": 2717,
  "k\u00ed": 2718,
  "\u25811.": 2719,
  "\u2581T\u00cd": 2720,
  "\u2581passed": 2721,
  "\u2581political": 2722,
  "\u2581boy": 2723,
  "\u2581final": 2724,
  "\u2581\u00ecgb\u00ec": 2725,
  "\u2581involves": 2726,
  "\u2581consequences": 2727,
  "\u2581priests": 2728,
  "\u2581wives": 2729,
  "\u2581yourselves": 2730,
  "\u2581J\u00f3\u1e63\u00fa\u00e0": 2731,
  "\u2581carefully": 2732,
  "\u2581discuss": 2733,
  "\u2581l\u00e9wu": 2734,
  "\u2581Elijah": 2735,
  "\u2581recognize": 2736,
  "\u258115]": 2737,
  "\u2581begin": 2738,
  "\u2581treat": 2739,
  "\u258133.": 2740,
  "\u2581fall": 2741,
  "\u2581oko": 2742,
  "\u2581\u00c0k\u00f3k\u00f2": 2743,
  "\u2581worshippers": 2744,
  "\u2581ire": 2745,
  "\u2581neighbor": 2746,
  "\u2581prepared": 2747,
  "\u2581ol\u00f9": 2748,
  "\u2581Good": 2749,
  "\u2581Was": 2750,
  "\u2581g\u00f9n": 2751,
  "\u2581l\u00f2un": 2752,
  "\u2581negative": 2753,
  "\u2581\u1e63\u00e0n\u00edy\u00e0n": 2754,
  "\u2581L\u00e1\u00ecs\u00ed": 2755,
  "jw": 2756,
  "\u2581Babylon": 2757,
  "\u2581calls": 2758,
  "\u2581persecution": 2759,
  "\u2581security": 2760,
  "\u2581\u00c0j\u1ecd": 2761,
  "\u2581\u1eb9ja": 2762,
  "\u2581Paradise": 2763,
  "\u2581devotion": 2764,
  "\u2581p\u00edp\u00e9ye": 2765,
  "\u2581animals": 2766,
  "\u2581relief": 2767,
  "able": 2768,
  "\u2581p\u00edpa": 2769,
  "\u00b7": 2770,
  "\u258130.": 2771,
  "b\u00ecnrin": 2772,
  "\u2581T\u00e9": 2773,
  "\u2581experiences": 2774,
  "\u2581\u00f2k\u00fata": 2775,
  "\u2581Through": 2776,
  "\u2581keeping": 2777,
  "\u2581\u00e8\u1e63\u00f9": 2778,
  "\u2581N\u00cd": 2779,
  "\u2581imagine": 2780,
  "\u2581personally": 2781,
  "\u2581specific": 2782,
  "\u2581n\u00edj\u00e0\u00e1nu": 2783,
  "\u2581observed": 2784,
  "\u2581\u00f2fuuruf\u00fa": 2785,
  "\u2581meant": 2786,
  "\u2581medical": 2787,
  "\u2581asking": 2788,
  "\u2581t\u00e0": 2789,
  "\u2581affection": 2790,
  "\u2581contrast": 2791,
  "\u2581list": 2792,
  "\u2581outside": 2793,
  "\u2581Ab\u00e1j\u1ecd": 2794,
  "\u2581Also": 2795,
  "\u2581jog\u00fan": 2796,
  "\u2581\u1ecdj\u00e0": 2797,
  "\u258128,": 2798,
  "\u2581fight": 2799,
  "\u2581l\u00e1\u00ecka": 2800,
  "\u2581society": 2801,
  "\u2581third": 2802,
  "\u2581values": 2803,
  "\u2581y\u00f3": 2804,
  "UN": 2805,
  "\u2581dedicated": 2806,
  "\u2581resurrected": 2807,
  "\u2581s\u00edp\u00e0d\u00e9": 2808,
  "\u2581verse": 2809,
  "\u2581y\u00e0r\u00e1": 2810,
  "\u2581ground": 2811,
  "\u2581loyalty": 2812,
  "\u2581n\u00edn\u00ed": 2813,
  "\u2581presence": 2814,
  "s\u00e1n": 2815,
  "\u2581M\u00f2": 2816,
  "\u2581R\u00f3": 2817,
  "\u2581homes": 2818,
  "\u2581seemed": 2819,
  "\u2581\u00ecw\u00f2s\u00e0n": 2820,
  "\u2581prepare": 2821,
  "\u2581\u00eck\u00ec": 2822,
  "L\u00c8": 2823,
  "f\u00f2": 2824,
  "\u2581Should": 2825,
  "\u2581arrangement": 2826,
  "\u02b9": 2827,
  "\u2581t\u00f3o": 2828,
  "s\u1eb9": 2829,
  "\u2581al\u00e1\u00ecs\u00e0n": 2830,
  "\u2581\u00cct\u00e0n": 2831,
  "\u2581Each": 2832,
  "\u2581TO": 2833,
  "\u2581destroyed": 2834,
  "\u2581forward": 2835,
  "\u2581\u00c0b\u00ed": 2836,
  "\u2581groups": 2837,
  "\u2581hour": 2838,
  "\u2581n\u00edgb\u00e8\u00e9": 2839,
  "\u2581\u00e8we": 2840,
  "\u2581\u1eb9y\u1eb9": 2841,
  "Let": 2842,
  "\u2581BIBLE": 2843,
  "\u2581Matt": 2844,
  "\u2581n\u00ecy\u00ed": 2845,
  "\u2581sharing": 2846,
  "\u2581workers": 2847,
  "M\u00e1": 2848,
  "\u2581d\u00ec\u00edd\u00ec": 2849,
  "\u2581k\u00e9de": 2850,
  "\u2581tribulation": 2851,
  "\u2581urged": 2852,
  "\u2581\u00f2j\u00f2": 2853,
  "\u2581observe": 2854,
  "\u2581\u00e0s\u00e8": 2855,
  "\u2581Y\u00ec\u00ed": 2856,
  "%": 2857,
  "B": 2858,
  "In": 2859,
  "\u2581Rome": 2860,
  "\u2581j\u1ecdba": 2861,
  "\u2581names": 2862,
  "\u2581required": 2863,
  "\u258135": 2864,
  "\u2581St": 2865,
  "\u2581j\u00e8": 2866,
  "\u2581major": 2867,
  "on": 2868,
  "\u2581d\u00e1j\u00fad\u00e1j\u00fa": 2869,
  "\u2581established": 2870,
  "\u2581sick": 2871,
  "\u2581\u00e0j\u00e8j\u00ec": 2872,
  "\u2581Germany": 2873,
  "\u2581dedication": 2874,
  "\u2581step": 2875,
  "\u2581\u1e63\u00e8w\u00e1d\u00ec\u00ed": 2876,
  "Gbogbo": 2877,
  "\u2581elderly": 2878,
  "\u2581for\u00ed": 2879,
  "\u2581picture": 2880,
  "\u2581spoken": 2881,
  "\u2581w\u00edw\u00e0": 2882,
  "\u2581lose": 2883,
  "\u2581strive": 2884,
  "\u258138": 2885,
  "\u25815]": 2886,
  "\u258160": 2887,
  "\u2581behavior": 2888,
  "\u2581built": 2889,
  "\u2581ab\u1eb9": 2890,
  "\u2581d\u00e8": 2891,
  "\u2581p\u00e0fiy\u00e8s\u00ed": 2892,
  "\u2581Questions": 2893,
  "\u2581l\u00f3j\u00faf\u00f2": 2894,
  "\u2581ru": 2895,
  "k\u00f9": 2896,
  "\u2581L\u00f3n\u00ec\u00ed": 2897,
  "\u2581b\u00eck\u00edt\u00e0": 2898,
  "\u2581immediately": 2899,
  "\u2581kings": 2900,
  "\u2581loss": 2901,
  "\u2581room": 2902,
  "\u2581Ik\u00fa": 2903,
  "\u2581State": 2904,
  "\u2581Ar\u00e1b\u00ecnrin": 2905,
  "\u2581missionaries": 2906,
  "\u2581treatment": 2907,
  "\u2581developed": 2908,
  "\u2581minister": 2909,
  "\u2581visited": 2910,
  "\u2581\u00ccl\u00fa": 2911,
  "He": 2912,
  "s\u1eb9\u1eb9s\u1eb9": 2913,
  "\u2581friendship": 2914,
  "\u2581Un": 2915,
  "\u2581attending": 2916,
  "\u2581m\u00edmu": 2917,
  "i\u1e63\u00e9": 2918,
  "\u2581Or\u00fak\u1ecd": 2919,
  "\u2581practices": 2920,
  "\u00e1": 2921,
  "\u2581agree": 2922,
  "\u2581m\u00edm\u00fa": 2923,
  "\u2581\u00ccj\u1ecd": 2924,
  "gb\u00e8gb\u00e8": 2925,
  "\u258126]": 2926,
  "\u258170": 2927,
  "\u2581batis\u00ed": 2928,
  "\u2581ah\u00f3": 2929,
  "\u2581effective": 2930,
  "\u2581limited": 2931,
  "\u2581ol\u00f3ye": 2932,
  "\u2581teachers": 2933,
  "is": 2934,
  "\u2581K\u00f3l\u00f3s\u00e8": 2935,
  "\u2581al\u00e0\u00e0y\u00e8": 2936,
  "\u2581chosen": 2937,
  "\u2581convinced": 2938,
  "ti": 2939,
  "\u2581f\u00ecy\u00e0": 2940,
  "\u2581og\u00f3j\u00ec": 2941,
  "\u00e8t\u00f2": 2942,
  "\u2581Over": 2943,
  "\u2581opposition": 2944,
  "\u2581\u00ecsins\u00ecny\u00ed": 2945,
  "\u2581produce": 2946,
  "\u2581tongue": 2947,
  "al\u00e1y\u00f2": 2948,
  "\u2581Di": 2949,
  "\u2581ol\u00f3gun": 2950,
  "\u2581Gb\u00e0": 2951,
  "\u2581reasonable": 2952,
  "\u2581rejoice": 2953,
  "\u2581response": 2954,
  "\u2581standing": 2955,
  "\u2581Family": 2956,
  "\u2581On\u00edw\u00e0\u00e1s\u00f9": 2957,
  "\u2581disciple": 2958,
  "pa": 2959,
  "\u2581although": 2960,
  "\u2581overseer": 2961,
  "\u2581remained": 2962,
  "\u2581watch": 2963,
  "\u2581S\u00edw\u00e1j\u00fa": 2964,
  "\u2581obedience": 2965,
  "\u2581shepherd": 2966,
  "\u2581sort": 2967,
  "\u2581sovereignty": 2968,
  "\u2581Philippians": 2969,
  "\u2581association": 2970,
  "\u2581forget": 2971,
  "\u2581household": 2972,
  "\u2581reported": 2973,
  "\u258136": 2974,
  "\u2581ak\u00e9de": 2975,
  "\u2581evening": 2976,
  "\u2581ORIN": 2977,
  "\u2581Sunday": 2978,
  "\u2581attended": 2979,
  "\u2581p\u00e1t\u00e1": 2980,
  "\u2581p\u00e1p\u00e1": 2981,
  "\u2581type": 2982,
  "\u2581t\u1eb9nu": 2983,
  "r\u00ec\u1e63\u00e0": 2984,
  "\u2581Help": 2985,
  "\u2581situations": 2986,
  "\u2581destroy": 2987,
  "\u2581includes": 2988,
  "\u2581request": 2989,
  "\u2581suffered": 2990,
  "more": 2991,
  "\u2581SONGS": 2992,
  "\u2581killed": 2993,
  "\u2581pioneers": 2994,
  "m\u00edm\u00f3": 2995,
  "\u2581Well": 2996,
  "\u2581issues": 2997,
  "\u2581surely": 2998,
  "\u2581answered": 2999,
  "\u2581relatives": 3000,
  "\u2581sincere": 3001,
  "\u2581\u00ecd\u00e1ray\u00e1": 3002,
  "f\u00f2pin": 3003,
  "\u2581L\u00f3j\u00fa": 3004,
  "\u2581bread": 3005,
  "\u2581business": 3006,
  "\u2581stress": 3007,
  "\u2581\u00d2kun": 3008,
  "\u2581\u00e0t\u00fan\u1e63e": 3009,
  "\u2581\u1e63eyeb\u00edye": 3010,
  "\u2581affected": 3011,
  "\u2581alcohol": 3012,
  "\u2581continues": 3013,
  "\u2581l\u00f3h\u00f9n": 3014,
  "\u2581opening": 3015,
  "\u2581\u00f2d\u00ec": 3016,
  "\u2581active": 3017,
  "\u2581instead": 3018,
  "\u2581risk": 3019,
  "\u2581sinmi": 3020,
  "\u2581\u1e62E": 3021,
  "g\u00e0n": 3022,
  "ll": 3023,
  "\u25814;": 3024,
  "\u2581abuse": 3025,
  "\u2581bani": 3026,
  "\u2581gb\u1eb9": 3027,
  "\u2581points": 3028,
  "\u2581responsible": 3029,
  "b\u1ecdl\u00e1": 3030,
  "\u2581November": 3031,
  "\u2581j\u00e0\u01f9b\u00e1": 3032,
  "\u2581l\u00e1\u00ec": 3033,
  ".)": 3034,
  "\u2581op\u00f3": 3035,
  "\u2581\u00ccr\u00e1nt\u00ed": 3036,
  "\u2581\u1eb8n\u00ec": 3037,
  "\u2581existence": 3038,
  "\u2581improve": 3039,
  "\u2581increase": 3040,
  "\u2581oorun": 3041,
  "\u2581overcome": 3042,
  "\u2581spread": 3043,
  "\u2581w\u00e1\u00ecn\u00ec": 3044,
  "\u2581\u00f2r\u00ec\u1e63\u00e0": 3045,
  "\u2581car": 3046,
  "\u2581re": 3047,
  "\u2581compassion": 3048,
  "\u2581event": 3049,
  "\u2581seeing": 3050,
  "\u2581\u00ecfarad\u00e0": 3051,
  "\u2581\u00ecj\u00edr\u00f2r\u00f2": 3052,
  "r\u00ecn": 3053,
  "\u00e8y\u00ed": 3054,
  "\u258118]": 3055,
  "\u258165": 3056,
  "\u2581Ecclesiastes": 3057,
  "\u2581danger": 3058,
  "\u2581flock": 3059,
  "\u2581l\u00e1p\u00e1": 3060,
  "\u2581offering": 3061,
  "\u2581\u00e0r\u00edw\u00e1": 3062,
  "t\u00e0n": 3063,
  "\u2581(2)": 3064,
  "\u2581basic": 3065,
  "\u2581cut": 3066,
  "\u2581front": 3067,
  "\u2581guard": 3068,
  "\u2581l\u00e1\u1e63\u1eb9": 3069,
  "\u2581obedient": 3070,
  "\u2581patient": 3071,
  "\u2581play": 3072,
  "\u2581save": 3073,
  "\u2581valuable": 3074,
  "\u2581conclusion": 3075,
  "\u2581finally": 3076,
  "\u2581han": 3077,
  "\u2581listening": 3078,
  "\u2581\u00ecr\u00e0w": 3079,
  "\u2581Ipa": 3080,
  "\u2581Make": 3081,
  "\u2581grateful": 3082,
  "\u2581r\u00e1y\u00e8": 3083,
  "\u2581delight": 3084,
  "\u2581note": 3085,
  "\u2581requires": 3086,
  "\u2581student": 3087,
  "\u2581(1)": 3088,
  "\u2581acceptable": 3089,
  "\u2581b\u00far": 3090,
  "\u2581cities": 3091,
  "\u2581\u00e0d\u00fagb\u00f2": 3092,
  "When": 3093,
  "\u2581Christianity": 3094,
  "\u2581late": 3095,
  "l\u00e1ra": 3096,
  "mong": 3097,
  "\u2581M\u00e1t": 3098,
  "\u2581OH": 3099,
  "\u2581d\u00e1w\u00f3": 3100,
  "\u2581k\u00e1ra": 3101,
  "\u2581manner": 3102,
  "\u2581refused": 3103,
  "\u2581reveal": 3104,
  "\u2581teaches": 3105,
  "\u2581\u00ccd\u00e1h\u00f9n": 3106,
  "\u2581Europe": 3107,
  "\u2581grew": 3108,
  "\u2581publishers": 3109,
  "\u2581\u00e0gb\u00e8": 3110,
  "\u2581Ps": 3111,
  "\u2581becomes": 3112,
  "\u2581easily": 3113,
  "\u2581music": 3114,
  "\u2581seed": 3115,
  "\u2581\u00eck\u00f3": 3116,
  "\u2581\u1e63\u00e0\u1e63ey\u1ecdr\u00ed": 3117,
  "r\u1eb9": 3118,
  "\u2581Blur": 3119,
  "\u2581appear": 3120,
  "\u2581viewed": 3121,
  "\u2581\u00f2ru": 3122,
  "\u2581k\u00e0w\u00e9": 3123,
  "\u2581l\u00f9": 3124,
  "\u2581R\u00fa\u00f9t\u00f9": 3125,
  "\u2581Teach": 3126,
  "\u2581concerned": 3127,
  "\u2581declared": 3128,
  "\u2581opened": 3129,
  "\u2581placed": 3130,
  "all": 3131,
  "\u2581France": 3132,
  "\u2581foreign": 3133,
  "\u2581r\u00f2y\u00ecn": 3134,
  "\u2581warned": 3135,
  "\u2581American": 3136,
  "\u2581believed": 3137,
  "\u2581describes": 3138,
  "\u2581l\u00e1s\u00eck\u00f2": 3139,
  "\u2581Only": 3140,
  "\u2581d\u00edd\u00f9n": 3141,
  "\u2581\u00ec\u1e63\u00e0p\u1eb9\u1eb9r\u1eb9": 3142,
  "\u2581W\u00f2": 3143,
  "\u2581n\u00edd\u00e8": 3144,
  "\u258123,": 3145,
  "\u2581confident": 3146,
  "\u2581date": 3147,
  "\u2581l\u00e1d\u00f9\u00fagb\u00f2": 3148,
  "\u25812000": 3149,
  "\u2581Memorial": 3150,
  "\u2581al\u00e1ra": 3151,
  "\u2581energy": 3152,
  "\u2581eye": 3153,
  "\u2581f\u00ecgb\u00e0": 3154,
  "\u2581illness": 3155,
  "\u2581na": 3156,
  "\u1e63\u00ed\u00e0": 3157,
  "\u2581b\u00e1ni": 3158,
  "\u2581pursue": 3159,
  "\u2581\u00eck\u00e0": 3160,
  "\u2581\u1e63in\u1e63in": 3161,
  "\u2581fail": 3162,
  "\u2581\u00e0lej\u00f2": 3163,
  "\u2581\u1eb9\u1e63in": 3164,
  "\u2581mouth": 3165,
  "\u2581referred": 3166,
  "\u2581wine": 3167,
  "\u2581\u00ecy\u00ecn": 3168,
  "d\u1ecd\u1ecdd\u00fan": 3169,
  "\u2581conversation": 3170,
  "\u2581ew\u00e9": 3171,
  "\u2581k\u1eb9ta": 3172,
  "\u2581lie": 3173,
  "\u2581l\u00e1rug\u1eb9": 3174,
  "\u2581resist": 3175,
  "\u258113]": 3176,
  "\u2581La": 3177,
  "\u2581amount": 3178,
  "\u2581gifts": 3179,
  "\u2581gor": 3180,
  "\u2581l\u00e1w\u00f9j\u1ecd": 3181,
  "\u2581m\u00edm\u00f2": 3182,
  "\u2581s\u00e1\u00e0": 3183,
  "\u2581talking": 3184,
  "\u2581February": 3185,
  "\u2581b\u00edm\u1ecd": 3186,
  "\u2581failed": 3187,
  "\u2581successful": 3188,
  "\u2581Sarah": 3189,
  "\u2581pure": 3190,
  "\u258132.": 3191,
  "\u2581Could": 3192,
  "\u2581YOU": 3193,
  "\u2581relative": 3194,
  "\u2581road": 3195,
  "\u2581Ron\u00fa": 3196,
  "\u2581ay\u00e9ray\u00e9": 3197,
  "\u2581b\u00e1\u00e0": 3198,
  "\u2581claim": 3199,
  "\u2581s\u00e1r\u00e9": 3200,
  "\u2581harm": 3201,
  "\u2581universe": 3202,
  "\u2581\u00e0p\u00f2": 3203,
  "en": 3204,
  "\u2581worth": 3205,
  "\u2581\u00e0\u00ec": 3206,
  "\u2581Body": 3207,
  "\u2581London": 3208,
  "\u2581quoted": 3209,
  "\u2581\u00ecd\u00e1nil\u00f3j\u00fa": 3210,
  "\u2581Mexico": 3211,
  "\u2581P\u00e0t\u00e0k\u00ec": 3212,
  "\u2581demonstrate": 3213,
  "\u2581fo": 3214,
  "\u2581l\u00e1t\u00ecgb\u00e0": 3215,
  "\u2581ol\u00f9f": 3216,
  "\u2581on\u00eds\u00e1\u00e0m\u00f9": 3217,
  "\u2581particularly": 3218,
  "\u2581riches": 3219,
  "\u2581writer": 3220,
  "\u2581aago": 3221,
  "\u2581comments": 3222,
  "\u2581ol\u00fa": 3223,
  "\u2581particular": 3224,
  "\u2581Two": 3225,
  "\u2581vision": 3226,
  "\u2581weeks": 3227,
  "\u2581Time": 3228,
  "\u2581anxiety": 3229,
  "as": 3230,
  "\u2581Ibo": 3231,
  "\u2581concerning": 3232,
  "\u2581n\u00edtu": 3233,
  "\u2581\u00eck\u00f2": 3234,
  "\u2581\u00ec\u1e63\u00e8l\u00fa": 3235,
  "\u2581\u00f2k\u00e8\u00e8r\u00e8": 3236,
  "\u2581\u00f2m\u00edr\u00e0n": 3237,
  "\u2581\u1e63oj\u00fa": 3238,
  "po": 3239,
  "\u2581Faith": 3240,
  "\u2581caring": 3241,
  "\u2581eight": 3242,
  "\u2581\u00ectura": 3243,
  "i\u1e63\u1eb9": 3244,
  "\u2581Her": 3245,
  "\u2581b\u00edb\u00e1": 3246,
  "\u2581contains": 3247,
  "\u2581measure": 3248,
  "\u2581notes": 3249,
  "\u2581understood": 3250,
  "\u2581\u00ecd\u1eb9w\u00f2": 3251,
  "\u2581Sea": 3252,
  "\u2581approval": 3253,
  "\u2581growing": 3254,
  "\u2581preached": 3255,
  "\u2581prospect": 3256,
  "\u2581publication": 3257,
  "\u2581adds": 3258,
  "\u2581b\u00f9k\u00e1t\u00e0": 3259,
  "\u2581looked": 3260,
  "\u2581\u00e0b\u00e1": 3261,
  "\u2581\u1e63\u00e0\u01f9f\u00e0\u00e0n\u00ed": 3262,
  "\u2581\u1e63\u00e0\u1e63\u00e0r\u00f2": 3263,
  "quite": 3264,
  "\u2581Once": 3265,
  "\u2581helpful": 3266,
  "\u2581police": 3267,
  "\u2581\u00ccl\u00e0n\u00e0": 3268,
  "\u2581\u00e0\u00ecn\u00ed": 3269,
  "\u2581Gan": 3270,
  "\u2581break": 3271,
  "\u2581mountain": 3272,
  "\u2581uses": 3273,
  "\u2581\u1e63\u00e0p\u1eb9\u1eb9r\u1eb9": 3274,
  "\u2581forgiveness": 3275,
  "\u2581military": 3276,
  "\u2581\u00ccr\u00f2y\u00ecn": 3277,
  "\u2581commanded": 3278,
  "\u2581identify": 3279,
  "\u2581presented": 3280,
  "\u2581\u00e0fi": 3281,
  "\u258117]": 3282,
  "\u258121]": 3283,
  "\u2581drink": 3284,
  "\u2581fill": 3285,
  "\u2581sight": 3286,
  "\u2581statement": 3287,
  "\u2581wait": 3288,
  "\u2581igb\u00f3": 3289,
  "\u2581il\u00e9\u00e8w\u00e9": 3290,
  "\u2581y\u00e1ra": 3291,
  "\u2581Being": 3292,
  "\u2581Dr": 3293,
  "\u2581react": 3294,
  "\u2581run": 3295,
  "\u2581\u00ccs\u00ecn": 3296,
  "\u2581\u00e0d\u00edr": 3297,
  "\u2581\u00e0fiy\u00e8s\u00ed": 3298,
  "\u2581Version": 3299,
  "\u2581violent": 3300,
  "f\u00f3": 3301,
  "\u25816]": 3302,
  "\u2581Colossians": 3303,
  "\u2581discussion": 3304,
  "\u2581remind": 3305,
  "\u2581\u1e63\u00e0\u00ecs\u00e0n": 3306,
  "\u2581II": 3307,
  "\u2581Isaac": 3308,
  "\u2581adit\u00ed": 3309,
  "\u2581army": 3310,
  "\u2581baby": 3311,
  "\u2581big": 3312,
  "\u2581eating": 3313,
  "\u2581territory": 3314,
  "\u2581younger": 3315,
  "This": 3316,
  "k\u00fan": 3317,
  "\u2581Mount": 3318,
  "\u2581Sm": 3319,
  "\u2581k\u00e0k\u00e0": 3320,
  "\u2581\u00e0\u1e63\u00e0r\u00f2": 3321,
  "\u2581\u00ecnira": 3322,
  "\u258145": 3323,
  "\u2581accomplish": 3324,
  "\u2581direct": 3325,
  "\u2581d\u00e9n\u00fa": 3326,
  "\u2581on\u00edw\u00e0": 3327,
  "\u2581funfun": 3328,
  "\u2581hurt": 3329,
  "\u2581ir\u00fagb\u00ecn": 3330,
  "\u2581oil": 3331,
  "\u2581satisfaction": 3332,
  "\u2581\u1e63\u00e0k\u00f3b\u00e1": 3333,
  "\u25813;": 3334,
  "\u2581High": 3335,
  "\u2581assured": 3336,
  "\u2581greatly": 3337,
  "k\u00ec": 3338,
  "\u2581100": 3339,
  "\u2581B\u00f3y\u00e1": 3340,
  "\u2581Cor": 3341,
  "\u2581Gospel": 3342,
  "\u2581Translation": 3343,
  "\u2581discussed": 3344,
  "\u2581m": 3345,
  "\u2581search": 3346,
  "\u2581\u00e0gb\u00e1y\u00e9": 3347,
  "\u2581encouraging": 3348,
  "\u2581gbin": 3349,
  "\u2581invitation": 3350,
  "\u2581l\u1eb9": 3351,
  "\u2581reality": 3352,
  "\u2581M\u1ecd": 3353,
  "\u2581Take": 3354,
  "\u2581reward": 3355,
  "\u2581si": 3356,
  "\u2581G\u00edl\u00ed\u00e1d\u00ec": 3357,
  "\u2581Internet": 3358,
  "\u2581Under": 3359,
  "\u2581environment": 3360,
  "\u2581story": 3361,
  "d\u00ed\u00e8": 3362,
  "gbogbo": 3363,
  "\u00ccw\u1ecd": 3364,
  "\u2581K\u00cd": 3365,
  "\u2581T\u00e8": 3366,
  "\u2581communication": 3367,
  "\u2581guide": 3368,
  "w\u00f9": 3369,
  "\u2581Govern": 3370,
  "\u2581al\u00e1w\u00f2": 3371,
  "\u2581consideration": 3372,
  "\u2581fulfill": 3373,
  "\u2581inside": 3374,
  "\u2581warm": 3375,
  "\u2581\u00f2k\u00f9nk\u00f9n": 3376,
  "\u2581L\u00e1tin\u00fa": 3377,
  "\u2581authorities": 3378,
  "\u2581enter": 3379,
  "\u2581ku": 3380,
  "\u2581train": 3381,
  "N\u00edtor\u00ed": 3382,
  "\u2581appeared": 3383,
  "\u2581community": 3384,
  "\u2581drugs": 3385,
  "\u2581g\u00f2k\u00e8": 3386,
  "\u2581hearing": 3387,
  "\u2581manifest": 3388,
  "\u2581welcome": 3389,
  "\u2581discreet": 3390,
  "\u2581endurance": 3391,
  "\u2581merely": 3392,
  "\u2581unique": 3393,
  "\u2581\u1e63i": 3394,
  "\u2581causes": 3395,
  "\u2581et\u00ed": 3396,
  "\u2581forgive": 3397,
  "\u2581gb\u00f3gun": 3398,
  "\u2581immoral": 3399,
  "\u2581carried": 3400,
  "\u2581indicate": 3401,
  "\u2581\u00e0\u00eclera": 3402,
  "\u2581Diutar\u00f3n\u00f3m\u00ec": 3403,
  "\u2581OF": 3404,
  "\u2581drinking": 3405,
  "\u2581patience": 3406,
  "\u2581\u00ecpar\u00ed": 3407,
  "For": 3408,
  "\u2581\"[": 3409,
  "\u2581Ap\u00e1": 3410,
  "\u2581Readers": 3411,
  "\u2581box": 3412,
  "\u2581careful": 3413,
  "\u2581doctor": 3414,
  "\u2581praying": 3415,
  "s\u00edk\u00f2": 3416,
  "\u2581Deuteronomy": 3417,
  "\u2581d\u00f3pin": 3418,
  "\u2581prophecies": 3419,
  "\u2581secular": 3420,
  "\u2581reached": 3421,
  "\u2581zeal": 3422,
  "\u2581WHAT": 3423,
  "\u2581refers": 3424,
  "responsibilities": 3425,
  "\u2581f\u1eb9s": 3426,
  "\u2581probab": 3427,
  "like": 3428,
  "\u2581Finally": 3429,
  "\u2581Note": 3430,
  "\u2581Robert": 3431,
  "\u2581copy": 3432,
  "\u2581\u00f2p\u00f3": 3433,
  "\u2581\u1e63eni": 3434,
  "There": 3435,
  "\u25812001": 3436,
  "\u2581B\u00e8": 3437,
  "\u2581Exodus": 3438,
  "\u2581Show": 3439,
  "\u2581aspects": 3440,
  "\u2581ji": 3441,
  "\u2581produced": 3442,
  "\u2581factors": 3443,
  "\u2581\u00c0d\u00far\u00e0": 3444,
  "\u2581K\u00ec\u00edn\u00ed": 3445,
  "\u2581S\u00edp\u00e9\u00e8n\u00ec": 3446,
  "\u2581T\u1eb9sal\u00f3n\u00edk\u00e0": 3447,
  "\u2581evident": 3448,
  "\u2581join": 3449,
  "\u2581listed": 3450,
  "\u00ecy\u1eb9n": 3451,
  "\u2581busy": 3452,
  "\u2581distress": 3453,
  "\u2581assist": 3454,
  "\u2581emotions": 3455,
  "\u2581goes": 3456,
  "\u2581l\u1eb9ni": 3457,
  "\u2581Parents": 3458,
  "\u2581Think": 3459,
  "\u2581awa": 3460,
  "\u2581fruitage": 3461,
  "\u2581mere": 3462,
  "\u2581subjects": 3463,
  "\u2581\u00e0\u1e63\u00edr\u00ed": 3464,
  "\u2581\u1e63ub\u00fa": 3465,
  "\u2581Mother": 3466,
  "\u2581creatures": 3467,
  "\u2581pleasure": 3468,
  "\u2581village": 3469,
  "\u2581\u00e0tak\u00f2": 3470,
  "\u2581England": 3471,
  "\u2581advantage": 3472,
  "\u2581background": 3473,
  "\u2581chose": 3474,
  "\u2581circuit": 3475,
  "\u2581dangerous": 3476,
  "\u2581global": 3477,
  "\u2581w\u00edw\u00e1": 3478,
  "],": 3479,
  "\u2581battle": 3480,
  "\u2581g\u00fa\u00fas\u00f9": 3481,
  "\u2581k\u00fak\u00far\u00fa": 3482,
  "\u2581\u00ccl\u00e9r\u00ed": 3483,
  "y\u1eb9n": 3484,
  "\u00ed\u00e9": 3485,
  "\u2581gb\u00e8s\u00e8": 3486,
  "\u2581k\u00f9n\u00e0": 3487,
  "est": 3488,
  "it": 3489,
  "\u2581Work": 3490,
  "\u2581effects": 3491,
  "\u2581judge": 3492,
  "\u2581loves": 3493,
  "\u2581\u00ecr\u00eds\u00ed": 3494,
  "\u2581Omi": 3495,
  "\u2581Times": 3496,
  "\u2581insight": 3497,
  "\u2581send": 3498,
  "\u2581writing": 3499,
  "\u2581\u00f2giri": 3500,
  "\u2581appears": 3501,
  "\u2581attack": 3502,
  "\u2581ol\u00f9j\u1ecds\u00ecn": 3503,
  "\u2581\u1eccsir\u00e9l\u00ed\u00e0": 3504,
  "s\u00e9": 3505,
  "y\u00f3": 3506,
  "\u2581lies": 3507,
  "\u2581normal": 3508,
  "mi": 3509,
  "\u2581Without": 3510,
  "\u258126,": 3511,
  "\u2581Book": 3512,
  "\u2581Soviet": 3513,
  "\u2581camp": 3514,
  "\u2581garden": 3515,
  "\u2581notice": 3516,
  "\u2581occur": 3517,
  "\u2581\u00c0ti": 3518,
  "\u2581Other": 3519,
  "\u2581extreme": 3520,
  "\u2581growth": 3521,
  "\u2581lessons": 3522,
  "\u2581newspaper": 3523,
  "\u2581\u00e0k\u00e0w\u00e9": 3524,
  "m\u00ec": 3525,
  "\u2581extent": 3526,
  "\u2581offspring": 3527,
  "\u2581responded": 3528,
  "D": 3529,
  "\u2581gbil": 3530,
  "\u2581gods": 3531,
  "\u2581main": 3532,
  "My": 3533,
  "\u2581119": 3534,
  "\u2581opportunities": 3535,
  "\u2581overseers": 3536,
  "di": 3537,
  "he": 3538,
  "\u2581s\u00e1b": 3539,
  "m\u1ecdd\u00e9": 3540,
  "\u2581assure": 3541,
  "\u2581leading": 3542,
  "\u2581master": 3543,
  "k\u00eds\u00f3d\u00f9": 3544,
  "\u258155": 3545,
  "\u2581Australia": 3546,
  "\u25811999": 3547,
  "\u258141": 3548,
  "\u2581K\u00e1n\u00e1d\u00e0": 3549,
  "\u2581al\u00e9": 3550,
  "\u2581wealth": 3551,
  "\u2581\u00ecr\u00e9": 3552,
  "\u2581(3)": 3553,
  "\u2581George": 3554,
  "\u2581expressions": 3555,
  "\u2581financial": 3556,
  "\u2581mature": 3557,
  "\u2581poverty": 3558,
  "\u2581spouse": 3559,
  "\u2581translated": 3560,
  "\u2581\u00e0\u1e63ey\u1ecdr\u00ed": 3561,
  "\u00e0r\u00e0": 3562,
  "\u2581conclude": 3563,
  "\u2581secret": 3564,
  "\u2581studied": 3565,
  "f": 3566,
  "\u2581associated": 3567,
  "\u2581essential": 3568,
  "\u2581research": 3569,
  "\u2581temptation": 3570,
  "\u2581\u00ecr\u00e1nt\u00ed": 3571,
  "\u2581aside": 3572,
  "\u2581expected": 3573,
  "\u2581on\u00ed\u1e63": 3574,
  "\u2581process": 3575,
  "\u2581troubled": 3576,
  "\u2581zealous": 3577,
  "y\u00e0n": 3578,
  "\u258112]": 3579,
  "\u2581Spanish": 3580,
  "\u2581court": 3581,
  "\u2581saved": 3582,
  "\u2581succeed": 3583,
  "\u2581t\u00f3\u00f3tun": 3584,
  "\u2581wedding": 3585,
  "\u2581\u00ccw\u00f2": 3586,
  "\u2581Maria": 3587,
  "\u2581m\u00fani": 3588,
  "\u2581tears": 3589,
  "\u2581trained": 3590,
  "\u2581\u00ecf\u00f2": 3591,
  "so": 3592,
  "\u2581decades": 3593,
  "\u2581gone": 3594,
  "\u2581purposes": 3595,
  "\u2581\u00e0t\u1ecdm\u1ecdd": 3596,
  "\u2581contrary": 3597,
  "\u2581fell": 3598,
  "\u2581minds": 3599,
  "\u2581pass": 3600,
  "\u2581wish": 3601,
  "\u2581evidently": 3602,
  "\u2581gun": 3603,
  "\u2581on\u00edr\u00e8": 3604,
  "\u2581receiving": 3605,
  "s\u1ecd": 3606,
  "\u2581D\u00e1": 3607,
  "\u2581drawn": 3608,
  "\u2581enemy": 3609,
  "\u2581island": 3610,
  "\u2581race": 3611,
  "\u2581\u00ccl\u00e0": 3612,
  "\u2581\u00e0k\u1ecdl\u00e9": 3613,
  "\u2581\u1e63\u00e8pinnu": 3614,
  "R": 3615,
  "T": 3616,
  "\u2581G\u00e1l\u00e1t\u00ed\u00e0": 3617,
  "\u2581Land": 3618,
  "\u2581b\u00e1kan": 3619,
  "\u2581f\u00e8r\u00e8s\u00e9": 3620,
  "\u2581\u1e63\u00e0d\u00e9": 3621,
  "\u2581correct": 3622,
  "\u2581legal": 3623,
  "\u2581popular": 3624,
  "ation": 3625,
  "\u2581appearance": 3626,
  "\u2581\u1e63\u00e0t\u00fan\u1e63e": 3627,
  "\u2581Imagine": 3628,
  "\u2581Regard": 3629,
  "\u2581company": 3630,
  "\u2581shared": 3631,
  "\u00ecp\u00ec": 3632,
  "\u2581Gb\u00f3": 3633,
  "\u2581belief": 3634,
  "\u2581commandments": 3635,
  "\u2581daughters": 3636,
  "\u2581lasting": 3637,
  "\u2581pride": 3638,
  "\u2581promote": 3639,
  "\u2581fish": 3640,
  "\u2581k\u1ecdrin": 3641,
  "\u2581p\u1eb9l\u1eb9b\u1eb9": 3642,
  "\u2581t\u1ecdr\u1ecd": 3643,
  "\u2581\u00ec\u1e63\u00e8g\u00f9n": 3644,
  "le": 3645,
  "\u2581Biblical": 3646,
  "\u2581Learn": 3647,
  "\u2581afraid": 3648,
  "\u2581d\u00edd\u00e1": 3649,
  "\u2581forms": 3650,
  "\u2581honest": 3651,
  "\u2581letters": 3652,
  "\u2581meal": 3653,
  "\u2581religions": 3654,
  "\u2581wide": 3655,
  "\u2581\u00cctu": 3656,
  "\u2581\u00e0k\u00f2r\u00ed": 3657,
  "\u2581\u00ecb\u00e1tan": 3658,
  "\u2581girls": 3659,
  "\u2581t\u1eb9lif\u00f3\u00f2n\u00f9": 3660,
  "\u2581waiting": 3661,
  "\u2581al\u00e1k\u00f2\u00f3so": 3662,
  "\u2581closely": 3663,
  "\u2581decide": 3664,
  "\u2581likewise": 3665,
  "\u2581\u0144l\u00e1\u0144l\u00e1": 3666,
  "\u2581depression": 3667,
  "\u2581harvest": 3668,
  "\u2581relates": 3669,
  "\u2581ruler": 3670,
  "\u2581series": 3671,
  "\u2581y\u1ecdj\u00fa": 3672,
  "\u2581\u00e0b\u00f3j\u00fat\u00f3": 3673,
  "\u2581\u00ecd\u00far\u00f3\u1e63in\u1e63in": 3674,
  "te": 3675,
  "\u2581Testament": 3676,
  "\u2581applied": 3677,
  "\u2581easier": 3678,
  "\u2581pan\u1e63\u00e1g\u00e0": 3679,
  "\u2581reveals": 3680,
  "\u2581setting": 3681,
  "\u2581slaves": 3682,
  "\u2581bearing": 3683,
  "\u2581cover": 3684,
  "\u2581economic": 3685,
  "\u2581f\u00edd\u00ed\u00f2": 3686,
  "\u2581prophets": 3687,
  "m\u00e1a": 3688,
  "\u2581increased": 3689,
  "\u2581\u00ccy\u00e0": 3690,
  "What": 3691,
  "\u2581Sometimes": 3692,
  "\u2581aid": 3693,
  "\u2581constantly": 3694,
  "\u2581crime": 3695,
  "\u2581determine": 3696,
  "\u2581ojooj\u00fam": 3697,
  "\u2581sees": 3698,
  "\u2581Here": 3699,
  "\u2581directed": 3700,
  "\u2581impressed": 3701,
  "\u2581thank": 3702,
  "\u2581\u00ech\u00e0": 3703,
  "\u258142": 3704,
  "\u2581D\u00f3k\u00edt\u00e0": 3705,
  "\u2581Man": 3706,
  "\u2581demons": 3707,
  "\u2581immorality": 3708,
  "\u2581irun": 3709,
  "\u2581n\u00eds\u00e0l": 3710,
  "\u25818]": 3711,
  "\u2581habits": 3712,
  "\u2581organized": 3713,
  "\u2581History": 3714,
  "\u2581Study": 3715,
  "\u2581endeavor": 3716,
  "\u2581feels": 3717,
  "\u2581thousand": 3718,
  "\u2581\u00ccw\u00e1d\u00ec\u00ed": 3719,
  "\u2581Encyclopedia": 3720,
  "\u2581K\u1ecd": 3721,
  "\u2581committed": 3722,
  "\u2581deliver": 3723,
  "\u2581facts": 3724,
  "\u2581fun": 3725,
  "P": 3726,
  "\u2581g\u00edg\u00f9n": 3727,
  "\u2581illustrate": 3728,
  "\u2581verses": 3729,
  "g": 3730,
  "\u2581cost": 3731,
  "\u2581due": 3732,
  "\u2581kill": 3733,
  "\u2581\u00e0\u00e0y\u00e8": 3734,
  "\u258148": 3735,
  "\u2581deeds": 3736,
  "\u2581j\u00e1r\u00ed": 3737,
  "\u2581ki": 3738,
  "\u2581\u00f2\u01f9k": 3739,
  "tan\u00fa": 3740,
  "\u2581gb\u00f2\u00f2r\u00f2": 3741,
  "\u2581B\u00cd": 3742,
  "\u2581f\u00e8s\u00ec": 3743,
  "\u2581l\u00e9r\u00f2": 3744,
  "\u2581on\u00edgb\u1ecdr\u00e0n": 3745,
  "\u2581treated": 3746,
  "\u2581\u00ccs\u00edk": 3747,
  "\u2581\u00e0t\u1ecdk\u00e0nw\u00e1": 3748,
  "\u2581\u00f2t\u00f2\u1e63\u00ec": 3749,
  "\u258124]": 3750,
  "\u2581Me": 3751,
  "\u2581Sad": 3752,
  "\u2581bless": 3753,
  "\u2581designed": 3754,
  "\u2581leaving": 3755,
  "\u2581\u00c9\u1e63\u00ed\u00e0": 3756,
  "\u2581Spirit": 3757,
  "\u2581buy": 3758,
  "\u2581igba": 3759,
  "\u2581indicates": 3760,
  "K\u1ecc": 3761,
  "\u2581Ay\u00f2": 3762,
  "\u2581Hav": 3763,
  "\u2581Poland": 3764,
  "\u2581animal": 3765,
  "\u2581conflict": 3766,
  "\u2581dealing": 3767,
  "\u2581eternal": 3768,
  "\u2581l\u00e1gb\u00e0\u00e1y\u00e9": 3769,
  "\u2581m\u00ec": 3770,
  "\u2581struggle": 3771,
  "\u2581\u00c0k\u00f3": 3772,
  "\u2581\u00f2w\u00fa": 3773,
  "M\u00c1A": 3774,
  "wo": 3775,
  "\u25812002": 3776,
  "\u2581German": 3777,
  "\u2581instruction": 3778,
  "\u2581stopped": 3779,
  "\u2581trees": 3780,
  "\u2581\u00ecd\u00e1r\u00edj\u00ec": 3781,
  "jinl": 3782,
  "\u2581beloved": 3783,
  "\u2581gb\u00f3r\u00edy\u00ecn": 3784,
  "\u2581heartfelt": 3785,
  "\u2581raise": 3786,
  "\u2581\u00e0fik\u00fan": 3787,
  "\u2581\u00ec\u1e63\u00fara": 3788,
  "y\u00e0y\u00e0": 3789,
  "\u2581Galatians": 3790,
  "\u2581G\u00edr\u00ed\u00ecs\u00ec": 3791,
  "\u2581engage": 3792,
  "\u2581hundreds": 3793,
  "\u2581husbands": 3794,
  "\u2581inhabitants": 3795,
  "\u2581pattern": 3796,
  "\u2581telling": 3797,
  "\u2581\u00e0foj\u00fas\u00f9n": 3798,
  "\u2581\u00e0s\u00eck\u00f2": 3799,
  "j\u00f9": 3800,
  "y\u00ecnd\u00e0": 3801,
  "\u2581Give": 3802,
  "\u2581difference": 3803,
  "\u2581ideas": 3804,
  "\u2581l\u00e8\u00e8y\u00e0n": 3805,
  "\u2581neighbors": 3806,
  "\u2581occurred": 3807,
  "\u2581seriously": 3808,
  "\u2581sunk\u00fan": 3809,
  "\u2581\u00c0s\u1ecdt": 3810,
  "g\u00f9n": 3811,
  "\u258134.": 3812,
  "\u2581F\u00e1r\u00e1\u00f2": 3813,
  "\u2581Ip\u00f2": 3814,
  "\u2581L\u00e1fik\u00fan": 3815,
  "\u2581Michael": 3816,
  "\u2581T\u00c1": 3817,
  "\u2581jagun": 3818,
  "\u2581outstanding": 3819,
  "\u2581\u1eb9y\u1ecd": 3820,
  "\u2581entered": 3821,
  "\u2581l\u00e1\u00ecj": 3822,
  "\u2581or\u00edsun": 3823,
  "\u2581refer": 3824,
  "\u2581trial": 3825,
  "\u2581\u00ect\u00f2l": 3826,
  "\u2581L\u00e1k\u00f2": 3827,
  "\u2581University": 3828,
  "\u2581cares": 3829,
  "\u2581faithfully": 3830,
  "\u2581gold": 3831,
  "\u2581id\u00e0": 3832,
  "\u2581joined": 3833,
  "\u2581speaks": 3834,
  "\u2581\u00cd\u0144d\u00ed\u00e0": 3835,
  "\u2581Bill": 3836,
  "\u2581at\u00fa": 3837,
  "\u2581divorce": 3838,
  "\u2581international": 3839,
  "\u2581powers": 3840,
  "\u2581stick": 3841,
  "\u2581Both": 3842,
  "\u2581scriptures": 3843,
  "\u2581\u00c0k\u1ecds\u00edl": 3844,
  "gi": 3845,
  "\u2581Ow\u00f3": 3846,
  "\u2581as\u00e1n": 3847,
  "\u2581dealings": 3848,
  "\u2581j\u00e8r\u00e8": 3849,
  "\u2581n\u00edr\u00e8t\u00ed": 3850,
  "\u2581views": 3851,
  "\u2581J\u00f3n\u00e0": 3852,
  "\u2581beneficial": 3853,
  "\u2581entertainment": 3854,
  "\u2581formed": 3855,
  "\u2581f\u00ed\u00ecm\u00f9": 3856,
  "\u2581omij\u00e9": 3857,
  "\u2581resolve": 3858,
  "\u2581gb\u00e9ra": 3859,
  "\u2581recognized": 3860,
  "\u2581reference": 3861,
  "\u2581rejected": 3862,
  "\u2581\u00cdt\u00e1l\u00ec": 3863,
  "\u2581M\u00edk\u00e0": 3864,
  "\u2581exist": 3865,
  "\u2581hu": 3866,
  "\u2581\u00ecp\u00e8": 3867,
  "\u258129,": 3868,
  "\u2581Canada": 3869,
  "\u2581n\u00edye": 3870,
  "\u2581providing": 3871,
  "\u2581remains": 3872,
  "\u2581t": 3873,
  "\u2581\u00d2\u01f9k\u00e0w\u00e9": 3874,
  "\u2581Pharaoh": 3875,
  "\u2581discovered": 3876,
  "\u2581journey": 3877,
  "\u2581non": 3878,
  "\u2581strengthened": 3879,
  "\u2581\u00e0gb\u00e8r\u00e8": 3880,
  "\u2581\u00e0l\u00e1": 3881,
  "\u2581\u00ecpil": 3882,
  "\u2581Ezekiel": 3883,
  "\u2581b\u00fa": 3884,
  "\u2581concluded": 3885,
  "\u2581contribute": 3886,
  "\u2581escape": 3887,
  "\u2581healthy": 3888,
  "\u2581odindi": 3889,
  "\u2581perform": 3890,
  "\u2581undeserved": 3891,
  "\u2581\u00ecn\u00e0j\u00fa": 3892,
  "\u2581heavy": 3893,
  "\u2581k\u00edk\u00e0": 3894,
  "\u2581k\u00f3ra": 3895,
  "\u2581\u00e0d\u00e9h\u00f9n": 3896,
  "\u2581\u1ecdl\u1ecd": 3897,
  "\u2581Ak\u00e9": 3898,
  "\u2581lay": 3899,
  "\u2581recently": 3900,
  "\u2581rulership": 3901,
  "\u2581\u00ecgb\u00f3": 3902,
  "y\u00ecnw\u00e1": 3903,
  "\u2581god": 3904,
  "\u2581handle": 3905,
  "\u2581tuni": 3906,
  "\u2581\u00ecr\u00f2": 3907,
  "All": 3908,
  "\u1eb9ni": 3909,
  "\u2581Israelite": 3910,
  "\u2581L\u00e1t\u00ecgb\u00e0": 3911,
  "\u2581across": 3912,
  "\u2581companions": 3913,
  "\u2581darkness": 3914,
  "\u2581n\u00edb\u00ed": 3915,
  "\u2581site": 3916,
  "\u2581Micah": 3917,
  "\u2581Russell": 3918,
  "\u2581indicated": 3919,
  "\u2581k\u00e1nrin": 3920,
  "\u2581\u00cds\u00e1k\u00ec": 3921,
  "\u2581\u00ecm\u1ecdr\u00edr\u00ec": 3922,
  "nil\u00e9": 3923,
  "\u2581Al\u00e1\u1e63\u1eb9": 3924,
  "\u2581Faris\u00ed": 3925,
  "\u2581Y\u00edn": 3926,
  "\u2581freely": 3927,
  "\u2581injustice": 3928,
  "\u2581ol\u00f3w\u00f3": 3929,
  "\u2581persons": 3930,
  "\u2581\u1e63\u00e0w\u00e1r\u00ed": 3931,
  "ted": 3932,
  "\u2581air": 3933,
  "\u2581details": 3934,
  "\u2581d\u00e8n\u00e0": 3935,
  "\u2581gb\u00e1j\u00fa": 3936,
  "\u2581impossible": 3937,
  "\u2581iyeb\u00edye": 3938,
  "\u2581\u00e9\u00e8d\u00ec": 3939,
  "\u2581\u00eck\u00f3r\u00ec\u00edra": 3940,
  "s\u00edb\u00e8": 3941,
  "\u2581Christendom": 3942,
  "\u2581drug": 3943,
  "\u2581forces": 3944,
  "\u2581listened": 3945,
  "\u2581safe": 3946,
  "\u2581sinful": 3947,
  "\u2581victims": 3948,
  "\u2581\u00c0w\u00f2": 3949,
  "\u258139": 3950,
  "\u2581F\u00edfi": 3951,
  "\u2581assistance": 3952,
  "\u2581ill": 3953,
  "\u2581moving": 3954,
  "\u2581Has": 3955,
  "\u2581goodness": 3956,
  "\u2581performed": 3957,
  "\u2581satisfying": 3958,
  "\u25812011": 3959,
  "\u2581Day": 3960,
  "\u2581T\u00e0b\u00ed": 3961,
  "\u2581developing": 3962,
  "\u2581mistakes": 3963,
  "k\u00fanr": 3964,
  "\u2581Eden": 3965,
  "\u2581Whe": 3966,
  "\u2581abundance": 3967,
  "\u2581connection": 3968,
  "\u2581gbaj\u00fa": 3969,
  "\u2581white": 3970,
  "\u2581\u1eb9b\u00ed": 3971,
  "\u2581path": 3972,
  "\u2581skills": 3973,
  "h\u00e9": 3974,
  "man": 3975,
  "\u2581Explain": 3976,
  "\u2581applying": 3977,
  "\u2581bond": 3978,
  "\u2581k\u00e0y\u00e9f\u00ec": 3979,
  "\u2581l\u00e1pa": 3980,
  "\u2581m\u00e0l\u00fa\u00f9": 3981,
  "\u2581widow": 3982,
  "\u2581w\u00edw\u00e0\u00e1s\u00f9": 3983,
  "\u2581\u1ecdm\u1ecdl\u00faw\u00e0b\u00ed": 3984,
  "\u00ecf\u00e9": 3985,
  "\u258120]": 3986,
  "\u2581K\u00e9n\u00e1\u00e1n\u00ec": 3987,
  "\u2581quit": 3988,
  "\u2581separate": 3989,
  "\u2581spirituality": 3990,
  "\u2581trouble": 3991,
  "\u2581\u1e62\u00e0l\u00e0y\u00e9": 3992,
  "\u2581gb\u00f3j\u00fa": 3993,
  "\u2581ja": 3994,
  "\u2581mut\u00ed": 3995,
  "\u2581obtain": 3996,
  "\u2581released": 3997,
  "\u2581s\u00edd\u00ec\u00ed": 3998,
  "\u2581t\u00e0\u00e0r\u00e0t\u00e0": 3999,
  "\u2581\u00c0PIL": 4000,
  ",\"": 4001,
  "\u2581L\u00e1k\u00f2\u00f3k\u00f2": 4002,
  "\u2581Mosaic": 4003,
  "\u2581delivered": 4004,
  "\u2581sit": 4005,
  "\u2581\u00c9d": 4006,
  "L\u00e1ti": 4007,
  "be": 4008,
  "\u00f2m\u00f9g": 4009,
  "\u2581hatred": 4010,
  "\u2581l\u00edl\u1ecd": 4011,
  "\u2581travel": 4012,
  "\u2581wickedness": 4013,
  "\u2581worse": 4014,
  "\u2581\u00ecd\u00e1nw\u00f2": 4015,
  "g\u00e8": 4016,
  "z": 4017,
  "\u2581D\u00e9": 4018,
  "\u2581Kings": 4019,
  "\u2581S\u00e1r\u00e0": 4020,
  "\u2581count": 4021,
  "\u2581grown": 4022,
  "\u2581superior": 4023,
  "\u2581survive": 4024,
  "\u2581w\u00e1d\u00ec\u00ed": 4025,
  "go": 4026,
  "\u2581Gba": 4027,
  "\u2581Ol\u00f9dar\u00ed": 4028,
  "\u2581O\u00fanj\u1eb9": 4029,
  "\u2581Students": 4030,
  "\u2581blind": 4031,
  "\u2581couples": 4032,
  "\u2581gathered": 4033,
  "\u2581higher": 4034,
  "\u2581kindly": 4035,
  "\u2581leads": 4036,
  "\u2581population": 4037,
  "\u2581requirements": 4038,
  "\u2581Esther": 4039,
  "\u2581Likewise": 4040,
  "\u2581Nathan": 4041,
  "\u2581concerns": 4042,
  "\u2581sword": 4043,
  "\u2581\u1eb9w\u00e0": 4044,
  "\u258116]": 4045,
  "\u25812012": 4046,
  "\u2581Its": 4047,
  "\u2581mountains": 4048,
  "\u2581vast": 4049,
  "\u2581\u00e0j\u00e0r\u00e0": 4050,
  "r\u00e1n": 4051,
  "s\u00edw\u00e1j\u00fa": 4052,
  "\u1e63\u00e0m\u00fal\u00f2": 4053,
  "\u258111]": 4054,
  "\u2581K\u00d3": 4055,
  "\u2581dear": 4056,
  "\u2581n\u00ec": 4057,
  "\u2581n\u00ed\u1e63\u00f2": 4058,
  "\u2581\u00e0\u00ect\u00f3": 4059,
  "\u258119]": 4060,
  "\u2581William": 4061,
  "\u2581gb\u00e9d\u00e8gb\u00e9": 4062,
  "\u2581governments": 4063,
  "\u2581l\u00f3m\u00ecnira": 4064,
  "\u2581ol\u00f3go": 4065,
  "\u2581sought": 4066,
  "\u2581upright": 4067,
  "\u2581\u00e0\u00ecl\u00e9": 4068,
  "\u2581S\u00fan": 4069,
  "\u2581construction": 4070,
  "\u2581fearing": 4071,
  "\u2581gb\u00ecn": 4072,
  "\u2581on\u00ed\u1e63\u00e8g\u00f9n": 4073,
  "\u2581primary": 4074,
  "\u2581recalls": 4075,
  "\u2581severe": 4076,
  "\u2581tender": 4077,
  "\u2581t\u00ec\u1eb9": 4078,
  "\u2581\u00ecsinmi": 4079,
  "n\u1eb9": 4080,
  "\u00f2j\u00f3": 4081,
  "\u2581directly": 4082,
  "\u2581hospital": 4083,
  "\u2581or\u00ed\u1e63i": 4084,
  "\u2581scholars": 4085,
  "\u2581t\u00ecr\u1eb9": 4086,
  "\u2581writes": 4087,
  "\u2581J\u00f2h": 4088,
  "\u2581S\u1ecc": 4089,
  "\u2581create": 4090,
  "\u2581l\u00f3r\u00fak\u1ecd": 4091,
  "\u2581rise": 4092,
  "\u2581touched": 4093,
  "\u2581\u00ecl\u00f3": 4094,
  "no": 4095,
  "\u2581epo": 4096,
  "\u2581highly": 4097,
  "\u2581s\u00e1\u00e0\u00e1r\u00edn": 4098,
  "\u0144k": 4099,
  "\u2581Jonathan": 4100,
  "\u2581conventions": 4101,
  "\u2581grasp": 4102,
  "\u2581grief": 4103,
  "\u2581keeps": 4104,
  "\u2581l\u00e0wa": 4105,
  "\u2581ol\u00f9gb\u00e9": 4106,
  "\u2581potential": 4107,
  "H": 4108,
  "\u2581Nehem\u00e1y\u00e0": 4109,
  "\u2581ended": 4110,
  "\u2581f\u00f3\u00f2n\u00f9": 4111,
  "\u2581moment": 4112,
  "\u2581w\u00far\u00e0": 4113,
  "\u00f2\u00f3t\u1ecd": 4114,
  "\u25812008": 4115,
  "\u2581K\u00f3k\u00f3": 4116,
  "\u2581ar\u00e1\u00e0l\u00fa": 4117,
  "\u2581f\u00e0l\u00e0l\u00e0": 4118,
  "\u2581ministers": 4119,
  "\u2581n\u00edb\u00e0\u00e1mu": 4120,
  "\u2581slow": 4121,
  "y\u00edn": 4122,
  "\u2581Every": 4123,
  "\u2581International": 4124,
  "\u2581V": 4125,
  "\u2581a\u1e63oj\u00fa": 4126,
  "\u2581granted": 4127,
  "l\u00ed\u00f2": 4128,
  "\u2581Nehemiah": 4129,
  "\u2581T\u00edt\u00ed": 4130,
  "\u2581cry": 4131,
  "\u2581involve": 4132,
  "\u2581writings": 4133,
  "].": 4134,
  "g\u00f9": 4135,
  "\u2581P\u00e1": 4136,
  "\u2581compared": 4137,
  "\u2581surprise": 4138,
  "\u2581\u00e0p\u00e1\u00e0d\u00ec": 4139,
  "\u2581Charles": 4140,
  "\u2581center": 4141,
  "\u2581determination": 4142,
  "\u2581significant": 4143,
  "\u2581united": 4144,
  "\u2581\u00e0t\u00f2j\u1ecd": 4145,
  "\u25812004": 4146,
  "\u258144": 4147,
  "\u25814]": 4148,
  "\u2581Tim": 4149,
  "\u2581heed": 4150,
  "\u2581on\u00ed\u1e63\u00f2w\u00f2": 4151,
  "\u2581prophetic": 4152,
  "\u2581waters": 4153,
  "\u2581BE": 4154,
  "\u2581Earth": 4155,
  "\u2581Jonah": 4156,
  "\u2581copies": 4157,
  "\u2581iy\u00ec": 4158,
  "\u2581low": 4159,
  "\u2581relationships": 4160,
  "\u2581ruin": 4161,
  "\u2581rules": 4162,
  "\u2581witnessing": 4163,
  "p\u1ecdk\u00e0n": 4164,
  "tay\u00f2": 4165,
  "\u2581describe": 4166,
  "\u2581joyful": 4167,
  "\u2581rebellion": 4168,
  "\u2581yes": 4169,
  "Jesus": 4170,
  "\u2581adults": 4171,
  "\u2581l\u00e9ral\u00e9ra": 4172,
  "\u2581provisions": 4173,
  "\u2581willingly": 4174,
  "K\u00d2": 4175,
  "gb\u00e9j\u00e0": 4176,
  "g\u00ed": 4177,
  "ion": 4178,
  "\u2581N\u00ecd\u00ed": 4179,
  "\u2581entitled": 4180,
  "\u2581gb\u00e8j\u00e0": 4181,
  "\u2581lying": 4182,
  "\u2581meditate": 4183,
  "\u2581occasions": 4184,
  "\u2581phone": 4185,
  "\u2581useful": 4186,
  "\u2581\u1e62\u00ed\u1e63e": 4187,
  "t\u00e0l\u00e1": 4188,
  "\u2581Ol\u00f3d\u00f9mar\u00e8": 4189,
  "\u2581ar\u00fagb\u00f3": 4190,
  "\u2581considering": 4191,
  "\u2581object": 4192,
  "\u2581reminded": 4193,
  "\u2581unable": 4194,
  "\u2581African": 4195,
  "\u2581India": 4196,
  "\u2581L\u00e1y\u00e9": 4197,
  "\u2581National": 4198,
  "\u2581reject": 4199,
  "gbin": 4200,
  "ry": 4201,
  "\u00e0": 4202,
  "\u2581ark": 4203,
  "\u2581f\u1eb9": 4204,
  "\u2581mighty": 4205,
  "\u2581pleased": 4206,
  "\u2581serves": 4207,
  "\u2581\u00cck\u00e9": 4208,
  "\u258121,": 4209,
  "\u2581Am\u00e1": 4210,
  "\u2581J\u00f3": 4211,
  "\u2581Never": 4212,
  "\u2581Tract": 4213,
  "\u2581causing": 4214,
  "\u2581culture": 4215,
  "\u2581magazines": 4216,
  "\u2581physically": 4217,
  "\u2581selfish": 4218,
  "G\u00e8": 4219,
  "\u2581chief": 4220,
  "\u2581displayed": 4221,
  "\u2581p\u1eb9p\u1eb9": 4222,
  "\u2581wars": 4223,
  "\u2581\u1eb8s\u1eb9": 4224,
  "j\u00e0": 4225,
  "\u258144.": 4226,
  "\u2581Answer": 4227,
  "\u2581F\u00daN": 4228,
  "\u2581al\u00e1\u00e0\u00e1n\u00fa": 4229,
  "\u2581aspect": 4230,
  "\u2581bed": 4231,
  "\u2581brochure": 4232,
  "\u2581herself": 4233,
  "\u2581marry": 4234,
  "\u2581pointed": 4235,
  "\u2581tax": 4236,
  "\u2581walked": 4237,
  "\u25813]": 4238,
  "\u258143": 4239,
  "\u2581Y\u00ed": 4240,
  "\u2581attendance": 4241,
  "\u2581ebi": 4242,
  "\u2581pay\u00e1": 4243,
  "\u2581\u00ccr\u00e8t\u00ed": 4244,
  "\u2581\u00cd": 4245,
  "\u2581Don": 4246,
  "\u2581Sam\u00e1r\u00ed\u00e0": 4247,
  "\u2581Table": 4248,
  "\u2581W\u00f2l\u00ed\u00ec": 4249,
  "\u2581d\u1eb9": 4250,
  "\u2581happens": 4251,
  "\u2581j\u00edj\u1eb9": 4252,
  "\u2581task": 4253,
  "\u2581total": 4254,
  "Y": 4255,
  "b\u00f3": 4256,
  "\u2581Asia": 4257,
  "\u2581COVER": 4258,
  "\u2581French": 4259,
  "\u2581On\u00ed": 4260,
  "\u2581acted": 4261,
  "\u2581belong": 4262,
  "\u2581carrying": 4263,
  "\u2581comforting": 4264,
  "\u2581gb\u00f3n\u00e1": 4265,
  "\u2581national": 4266,
  "\u2581r\u00edran": 4267,
  "\u2581\u1e63\u00e0\u00ecgb\u1ecdr\u00e0n": 4268,
  "\u2581Armageddon": 4269,
  "\u2581Look": 4270,
  "\u2581Second": 4271,
  "\u2581exists": 4272,
  "\u2581instructions": 4273,
  "\u2581treasure": 4274,
  "\u2581\u1eb9gb\u00e0\u00e1": 4275,
  "Look": 4276,
  "\u25812003": 4277,
  "\u2581Agb\u00e1ra": 4278,
  "\u2581G\u00fa\u00fas\u00f9": 4279,
  "\u2581Know": 4280,
  "\u2581appreciated": 4281,
  "\u2581critical": 4282,
  "\u2581eager": 4283,
  "\u2581fani": 4284,
  "\u2581finding": 4285,
  "\u2581format": 4286,
  "\u2581nearby": 4287,
  "\u2581numerous": 4288,
  "\u2581privileges": 4289,
  "\u2581solution": 4290,
  "\u2581terms": 4291,
  "\u2581\u00c0g\u00f9nt\u00e0n": 4292,
  "\u2581\u00e0y\u00edpad\u00e0": 4293,
  "\u2581Latin": 4294,
  "\u2581anxious": 4295,
  "\u2581balanced": 4296,
  "\u2581calling": 4297,
  "\u2581inner": 4298,
  "\u2581k\u00e1luk\u00fa": 4299,
  "\u2581remarkable": 4300,
  "\u2581stake": 4301,
  "\u258134,": 4302,
  "\u2581boys": 4303,
  "\u2581challenging": 4304,
  "\u2581damage": 4305,
  "\u2581replied": 4306,
  "\u2581t\u00edt\u00e8": 4307,
  "\u2581\u1e63\u00fa": 4308,
  "\u2581Am": 4309,
  "\u2581Hannah": 4310,
  "\u2581Prov": 4311,
  "\u2581n\u00edm\u00f9\u00fa\u1e63\u1eb9": 4312,
  "\u2581rendered": 4313,
  "\u2581successfully": 4314,
  "\u2581\u00f2\u1e63\u00e8l\u00fa": 4315,
  "\u2581apart": 4316,
  "\u2581beauty": 4317,
  "\u2581private": 4318,
  "\u2581\u00ecpam": 4319,
  "2": 4320,
  "el": 4321,
  "\u1e62\u00e9": 4322,
  "\u2581GNOME": 4323,
  "\u2581Luther": 4324,
  "\u2581Recall": 4325,
  "\u2581d\u00f2n\u00ed": 4326,
  "\u2581ib\u00f2m\u00edr\u00e0n": 4327,
  "\u2581reaction": 4328,
  "\u2581soldiers": 4329,
  "\u2581\u00ecy\u00f3": 4330,
  "\u2581\u00f2\u1e63\u00f9p\u00e1": 4331,
  "gb\u00ecn": 4332,
  "nl\u00f3": 4333,
  "\u2581Iye": 4334,
  "\u2581L\u00d3": 4335,
  "\u2581discern": 4336,
  "\u2581miracles": 4337,
  "\u2581peaceful": 4338,
  "\u2581sickness": 4339,
  "\u2581\u00cck\u00fa": 4340,
  "\u2581\u00eck\u00f3r\u00e8": 4341,
  "L": 4342,
  "\u2581N\u00e1s\u00ec": 4343,
  "\u2581bodies": 4344,
  "\u2581career": 4345,
  "\u2581reaching": 4346,
  "\u2581throne": 4347,
  "\u2581weak": 4348,
  "\u2581wilderness": 4349,
  "toj\u00fa": 4350,
  "\u00ec": 4351,
  "\u00ecm\u00f2": 4352,
  "\u2581allows": 4353,
  "\u2581brain": 4354,
  "\u2581dangers": 4355,
  "\u2581k\u00edk\u00e9": 4356,
  "\u2581location": 4357,
  "\u2581l\u00f3y\u00fan": 4358,
  "\u2581paid": 4359,
  "\u2581\u00e0g\u00e0g\u00e0": 4360,
  "\u2581Christmas": 4361,
  "\u2581forced": 4362,
  "\u2581variety": 4363,
  "ED": 4364,
  "J\u00e9s\u00f9": 4365,
  "n\u00eds\u00e1\u00e0m\u00f9": 4366,
  "out": 4367,
  "\u2581Ol\u00f9k\u00f3": 4368,
  "\u2581additional": 4369,
  "\u2581approached": 4370,
  "\u2581f\u00e0d\u00e1k\u00e0": 4371,
  "\u2581hate": 4372,
  "\u2581l\u00e1\u00e0m\u00fa": 4373,
  "\u2581nine": 4374,
  "\u2581pornography": 4375,
  "\u2581stood": 4376,
  "\u2581straight": 4377,
  "\u2581worshipers": 4378,
  "\u2581\u00f2s\u00ec": 4379,
  "ba": 4380,
  "ur": 4381,
  "\u2581Knorr": 4382,
  "\u2581Out": 4383,
  "\u2581accomplished": 4384,
  "\u2581ak\u1ecd": 4385,
  "\u2581content": 4386,
  "\u2581differ": 4387,
  "\u2581ib\u00f9d\u00f3": 4388,
  "\u2581official": 4389,
  "\u2581opposite": 4390,
  "\u2581require": 4391,
  "ce": 4392,
  "ko": 4393,
  "\u2581Center": 4394,
  "\u2581familiar": 4395,
  "\u2581l\u00f3go": 4396,
  "\u2581mildness": 4397,
  "\u2581refuge": 4398,
  "\u2581silver": 4399,
  "\u2581surprised": 4400,
  "b\u00e0": 4401,
  "\u2581Contents": 4402,
  "\u2581commission": 4403,
  "\u2581n\u00edl\u00e9\u00e8w\u00e9": 4404,
  "\u2581offers": 4405,
  "Keep": 4406,
  "il": 4407,
  "ive": 4408,
  "k\u00faf": 4409,
  "r\u00ecnl\u00e1": 4410,
  "\u25811919": 4411,
  "\u2581Ju": 4412,
  "\u2581Panel": 4413,
  "\u2581d\u00fan": 4414,
  "\u2581firmly": 4415,
  "\u2581fiy\u00e8": 4416,
  "\u2581meaningful": 4417,
  "\u2581\u00ccparap": 4418,
  "\u2581\u00f2d\u00f2d\u00f3": 4419,
  "\u2581\u1e63\u00e8w\u00e0": 4420,
  "d\u00f9": 4421,
  "\u2581angry": 4422,
  "\u2581harmful": 4423,
  "\u2581j\u00ecn": 4424,
  "\u2581majority": 4425,
  "\u2581relations": 4426,
  "\u2581traveled": 4427,
  "\u2581visiting": 4428,
  "gb\u1eb9": 4429,
  "ous": 4430,
  "\u2581Health": 4431,
  "\u2581L\u00e9f\u00ec": 4432,
  "\u2581S\u00cd": 4433,
  "\u2581fast": 4434,
  "\u2581gb\u00e1ko": 4435,
  "\u2581l\u00f3b\u00ecnrin": 4436,
  "\u2581motivated": 4437,
  "\u2581on\u00edw\u00e0\u00e1s\u00f9": 4438,
  "\u2581sad": 4439,
  "\u2581\u00ecso": 4440,
  "ye": 4441,
  "\u2581hair": 4442,
  "\u2581\u00e0f\u1ecdw": 4443,
  "\u2581\u00ecm\u00e1rale": 4444,
  "h\u00e0": 4445,
  "r\u00e0": 4446,
  "\u2581East": 4447,
  "\u2581G\u00edga": 4448,
  "\u2581noticed": 4449,
  "\u2581\u1e63\u00e0k\u00edy\u00e8s\u00ed": 4450,
  "W\u00d3": 4451,
  "k\u00e1": 4452,
  "se": 4453,
  "\u2581Spain": 4454,
  "\u2581clothing": 4455,
  "\u2581inheritance": 4456,
  "\u2581none": 4457,
  "\u2581resources": 4458,
  "\u2581viewpoint": 4459,
  "\u2581\u00e0r\u00e0\u00e1": 4460,
  "\u2581\u00eck\u00f3ra": 4461,
  "\u2581Benin": 4462,
  "\u2581adultery": 4463,
  "\u2581exactly": 4464,
  "\u2581failure": 4465,
  "\u2581pani": 4466,
  "\u2581shepherds": 4467,
  "\u2581standard": 4468,
  "\u2581Britain": 4469,
  "\u2581arranged": 4470,
  "\u2581assembly": 4471,
  "\u2581churches": 4472,
  "\u2581cold": 4473,
  "\u2581demonstrated": 4474,
  "\u2581identified": 4475,
  "\u2581inhabited": 4476,
  "\u2581suggestions": 4477,
  "\u2581\u1e63\u00e0gb\u00e9y": 4478,
  "How": 4479,
  "k\u00e0nl\u00e1": 4480,
  "\u2581Halls": 4481,
  "\u2581Ib": 4482,
  "\u2581Sin": 4483,
  "\u2581Y": 4484,
  "\u2581agreed": 4485,
  "\u2581apparently": 4486,
  "\u2581arise": 4487,
  "\u2581current": 4488,
  "\u2581deaf": 4489,
  "\u2581houses": 4490,
  "\u2581observes": 4491,
  "\u2581stone": 4492,
  "but": 4493,
  "\u2581AY\u00c9": 4494,
  "\u2581Surely": 4495,
  "\u2581Visit": 4496,
  "\u2581gradually": 4497,
  "\u2581l\u00e1tor\u00ed": 4498,
  "\u2581qualified": 4499,
  "\u2581rely": 4500,
  "\u2581wind": 4501,
  "\u2581\u1e63\u00e8\u1e63ek\u00fa\u1e63e": 4502,
  "\u2581minutes": 4503,
  "\u2581secure": 4504,
  "\u2581\u1e63\u00e8d\u00e1": 4505,
  "1": 4506,
  "3": 4507,
  "j\u1eb9": 4508,
  "\u258146": 4509,
  "\u2581fit": 4510,
  "\u2581fornication": 4511,
  "\u2581provision": 4512,
  "\u2581victim": 4513,
  "ity": 4514,
  "k\u1eb9s": 4515,
  "\u2581Flood": 4516,
  "\u2581M\u00e0m\u00e1": 4517,
  "\u2581Name": 4518,
  "\u2581Nations": 4519,
  "\u2581difficulties": 4520,
  "\u2581gb\u00edgba": 4521,
  "\u2581indefinite": 4522,
  "\u2581ogb\u00f3": 4523,
  "\u2581region": 4524,
  "\u2581resulted": 4525,
  "\u2581turning": 4526,
  "\u2581writers": 4527,
  "\u2581\u00ecb\u00f2": 4528,
  "\u2581\u00f2\u1e63\u00ec": 4529,
  "k": 4530,
  "\u1eb9r\u00fa": 4531,
  "\u2581Almighty": 4532,
  "\u2581chapters": 4533,
  "\u2581computer": 4534,
  "\u2581development": 4535,
  "\u2581modest": 4536,
  "\u2581reputation": 4537,
  "\u2581w\u00edwo": 4538,
  "\u2581\u00ccd\u00e1": 4539,
  "\u2581\u00ecs\u00e1di": 4540,
  "\u258139.": 4541,
  "\u258190": 4542,
  "\u2581L\u00c8": 4543,
  "\u2581abandoned": 4544,
  "\u2581aginj\u00f9": 4545,
  "\u2581d\u00e1r\u00fak\u1ecd": 4546,
  "\u2581gratitude": 4547,
  "\u2581huge": 4548,
  "\u2581male": 4549,
  "\u2581plague": 4550,
  "\u2581plant": 4551,
  "\u2581rain": 4552,
  "\u2581season": 4553,
  "\u2581t\u1eb9r\u00ed": 4554,
  "\u2581\u00c8l\u00ed\u1e63\u00e0": 4555,
  "\u2581\u00ccj\u1ecds\u00ecn": 4556,
  "\u2581\u00ecj\u00ecy\u00e0": 4557,
  "\u2581\u00ec\u1e63\u00eds": 4558,
  "ya": 4559,
  "\u25812009": 4560,
  "\u2581Heb": 4561,
  "\u2581Whatever": 4562,
  "\u2581methods": 4563,
  "\u2581remove": 4564,
  "d\u00f3j\u00fa": 4565,
  "t\u00e0d\u00ednl\u00f3g\u00fan": 4566,
  "t\u1eb9": 4567,
  "\u00c8y\u00ed": 4568,
  "\u2581Go": 4569,
  "\u2581Nigeria": 4570,
  "\u2581declare": 4571,
  "\u2581dwell": 4572,
  "\u2581influenced": 4573,
  "\u2581sinned": 4574,
  "\u2581supply": 4575,
  "\u2581\u1ecck\u1ecd": 4576,
  "b\u00e1": 4577,
  "one": 4578,
  "we": 4579,
  "\u2581capital": 4580,
  "\u2581dun": 4581,
  "\u2581generation": 4582,
  "\u2581thereafter": 4583,
  "\u2581tin\u00fa": 4584,
  "\u2581\u00c0\u00e1r\u00edn": 4585,
  "\u2581\u00e0s\u1ecdj\u00e1de": 4586,
  "\u2581\u00e0\u00e0t\u00f2": 4587,
  "\u2581Eventually": 4588,
  "\u2581Ireland": 4589,
  "\u2581Thessalonians": 4590,
  "\u2581aw\u1ecd": 4591,
  "\u2581gb\u00e9ni": 4592,
  "\u2581load": 4593,
  "\u2581proof": 4594,
  "\u2581proud": 4595,
  "\u2581suicide": 4596,
  "\u2581t\u00e1l\u00e1k\u00e0": 4597,
  "G": 4598,
  "f\u00fa\u00f9f\u00f9": 4599,
  "ling": 4600,
  "\u00cd": 4601,
  "\u2581A\u1e63\u00e1\u00e1j\u00fa": 4602,
  "\u2581Him": 4603,
  "\u2581Often": 4604,
  "\u2581Russia": 4605,
  "\u2581al\u00e1b\u00e0\u00e1k": 4606,
  "\u2581mild": 4607,
  "\u2581mothers": 4608,
  "\u2581n\u00edh\u00ecn": 4609,
  "\u2581oj\u00fat\u00f9\u00fa": 4610,
  "\u2581release": 4611,
  "\u2581s\u00edl\u00f9\u00fa": 4612,
  "\u2581\u00ccb\u00f9k\u00fan": 4613,
  "\u2581\u00e0\u1e63ek\u00e1ra": 4614,
  "\u2581\u1ecdm\u1ecdn\u00eckej\u00ec": 4615,
  "They": 4616,
  "\u2581Find": 4617,
  "\u2581Promised": 4618,
  "\u2581companion": 4619,
  "\u2581encourages": 4620,
  "\u2581excellent": 4621,
  "\u2581supported": 4622,
  "\u2581top": 4623,
  "\u2581t\u00f3j\u00fa": 4624,
  "\u25812013": 4625,
  "\u2581Aaron": 4626,
  "\u2581Doing": 4627,
  "\u2581MI": 4628,
  "\u2581N\u00edbi": 4629,
  "\u2581al\u00e1tak\u00f2": 4630,
  "\u2581focused": 4631,
  "\u2581k\u00e1b\u00e0\u00e1m": 4632,
  "\u2581plans": 4633,
  "\u2581punishment": 4634,
  "\u2581store": 4635,
  "\u2581\u1e63\u00f2f\u00f2": 4636,
  "As": 4637,
  "p\u00f3": 4638,
  "t\u00fanw\u00f2": 4639,
  "w\u00e1": 4640,
  "\u2581Granted": 4641,
  "\u2581Paris": 4642,
  "\u2581Rom": 4643,
  "\u2581dream": 4644,
  "\u2581factor": 4645,
  "\u2581igbe": 4646,
  "\u2581k\u00edka": 4647,
  "\u2581motivate": 4648,
  "\u2581per": 4649,
  "\u2581w\u00e8": 4650,
  "\u0144t\u00edk": 4651,
  "\u25812010": 4652,
  "\u2581Pharisees": 4653,
  "\u2581communicate": 4654,
  "\u2581dignity": 4655,
  "\u2581gb\u00f2de": 4656,
  "\u2581ih\u00f2": 4657,
  "\u2581root": 4658,
  "\u2581\u00ecgb\u00e9raga": 4659,
  "n\u00edd\u00e0\u00e1j": 4660,
  "\u2581Elisha": 4661,
  "\u2581FOR": 4662,
  "\u2581Lot": 4663,
  "\u2581Ministry": 4664,
  "\u2581commit": 4665,
  "\u2581plan": 4666,
  "\u2581po": 4667,
  "\u2581properly": 4668,
  "\u2581sang": 4669,
  "\u2581weapons": 4670,
  "\u2581weight": 4671,
  "\u2581\u00c0r\u00f9n": 4672,
  "\u2581\u00f2p\u00ect\u00e0n": 4673,
  "f\u00f2ye": 4674,
  "gb\u00e1": 4675,
  "ns\u00ec": 4676,
  "\u2581Gospels": 4677,
  "\u2581L\u00e1s\u00e1r\u00f9": 4678,
  "\u2581Messianic": 4679,
  "\u2581News": 4680,
  "\u2581abundant": 4681,
  "\u2581dwelling": 4682,
  "\u2581oore": 4683,
  "\u2581reflected": 4684,
  "\u2581Sekar\u00e1y\u00e0": 4685,
  "\u2581Trac": 4686,
  "\u2581ej\u00f2": 4687,
  "\u2581exert": 4688,
  "\u2581facing": 4689,
  "\u2581hundred": 4690,
  "\u2581marvelous": 4691,
  "\u2581signs": 4692,
  "\u2581H\u00e1n\u00e0": 4693,
  "\u2581N\u00edk\u1eb9y\u00ecn": 4694,
  "\u2581Pentecost": 4695,
  "\u2581associate": 4696,
  "\u2581disaster": 4697,
  "\u2581discouraged": 4698,
  "\u2581employment": 4699,
  "\u2581kar\u00ed": 4700,
  "\u2581quick": 4701,
  "\u2581\u00ecb\u1ecdn": 4702,
  "\u2581\u1ecdk\u00e0": 4703,
  "L\u00d3": 4704,
  "f\u00f2fin": 4705,
  "ro": 4706,
  "w": 4707,
  "\u25811990": 4708,
  "\u2581acknowledge": 4709,
  "\u2581al\u00e1\u00ecgb\u00e0": 4710,
  "\u2581items": 4711,
  "\u2581level": 4712,
  "\u2581printed": 4713,
  "\u2581trip": 4714,
  "bal\u00e8": 4715,
  "ever": 4716,
  "ty": 4717,
  "will": 4718,
  "\u258137.": 4719,
  "\u258138.": 4720,
  "\u2581Draw": 4721,
  "\u2581balance": 4722,
  "\u2581routine": 4723,
  "\u2581wondered": 4724,
  "m\u00e9": 4725,
  "r\u00ecnd\u00ednl\u00f3g\u00fan": 4726,
  "r\u00edk\u00f3": 4727,
  "\u25811998": 4728,
  "\u2581M\u00e1j\u00e8": 4729,
  "\u2581Union": 4730,
  "\u2581clothes": 4731,
  "\u2581diseases": 4732,
  "\u2581otherwise": 4733,
  "\u2581readily": 4734,
  "\u2581tin\u00fatin\u00fa": 4735,
  "\u2581accompany": 4736,
  "\u2581mention": 4737,
  "\u2581model": 4738,
  "\u2581remaining": 4739,
  "\u2581repeatedly": 4740,
  "\u2581ruling": 4741,
  "\u2581y\u00e1\u00e1f\u00ec": 4742,
  "\u2581\u00e0l\u00f9m": 4743,
  ">": 4744,
  "\u2581N\u00cdN\u00da": 4745,
  "\u2581Scripture": 4746,
  "\u2581Sovereign": 4747,
  "\u2581Zechariah": 4748,
  "\u2581attitudes": 4749,
  "\u2581audience": 4750,
  "\u2581empty": 4751,
  "\u2581invisible": 4752,
  "\u2581ought": 4753,
  "\u2581render": 4754,
  "\u2581represent": 4755,
  "\u2581size": 4756,
  "\u2581translations": 4757,
  "\u2581wild": 4758,
  "\u2581D\u00e0": 4759,
  "\u2581J\u1eb9": 4760,
  "\u2581TV": 4761,
  "\u2581add": 4762,
  "\u2581application": 4763,
  "\u2581choices": 4764,
  "\u2581conducted": 4765,
  "\u2581du": 4766,
  "\u2581g\u00f3\u0144g\u00f3": 4767,
  "\u2581lifestyle": 4768,
  "\u2581m\u00edt\u00e0": 4769,
  "\u2581recall": 4770,
  "\u2581window": 4771,
  "\u2581\u00f2t\u00fat\u00f9": 4772,
  "p\u00ect\u00e0n": 4773,
  "ver": 4774,
  "\u2581Columbia": 4775,
  "\u2581European": 4776,
  "\u2581THIS": 4777,
  "\u2581broke": 4778,
  "\u2581calm": 4779,
  "\u2581dar\u00fagb\u00f3": 4780,
  "\u2581m\u00e9j\u00ecd\u00ednl\u00f3g\u00fan": 4781,
  "\u2581possessions": 4782,
  "\u2581refuse": 4783,
  "\u2581scholar": 4784,
  "\u2581\u00c0p\u00e9j\u1ecd": 4785,
  "r\u00e1": 4786,
  "\u2581assignments": 4787,
  "\u2581b\u00edb\u00ed": 4788,
  "\u2581compare": 4789,
  "\u2581k\u00ed\u00e1": 4790,
  "\u2581rights": 4791,
  "\u2581rulers": 4792,
  "\u2581\u00ecdaj\u00ec": 4793,
  "\u2581\u00ecm\u1ecd": 4794,
  "for": 4795,
  "ure": 4796,
  "\u2581Pet": 4797,
  "\u2581Worship": 4798,
  "\u2581billion": 4799,
  "\u2581courageous": 4800,
  "\u2581et\u00edkun": 4801,
  "\u2581faithfulness": 4802,
  "\u2581f\u00ednra": 4803,
  "\u2581images": 4804,
  "\u2581preced": 4805,
  "\u2581referring": 4806,
  "\u2581services": 4807,
  "\u2581\u00c0l\u00e0\u00e1f\u00ed\u00e0": 4808,
  "n\u00edh\u00ecn": 4809,
  "\u2581AIDS": 4810,
  "\u2581K\u00e9\u00e8n\u00ec": 4811,
  "\u2581advance": 4812,
  "\u2581d\u00f3r\u00ed": 4813,
  "\u2581invite": 4814,
  "\u2581labor": 4815,
  "\u2581reasoning": 4816,
  "\u2581stars": 4817,
  "\u2581suggest": 4818,
  "\u2581Cain": 4819,
  "\u2581H\u00e0n": 4820,
  "\u2581Shortly": 4821,
  "\u2581Truth": 4822,
  "\u2581figurative": 4823,
  "\u2581slavery": 4824,
  "\u2581s\u00edta": 4825,
  "\u2581warns": 4826,
  "\u2581D\u00e1h\u00f9n": 4827,
  "\u2581Fo": 4828,
  "\u2581K\u00edr\u00f3n\u00edk\u00e0": 4829,
  "\u2581Stephen": 4830,
  "\u2581caught": 4831,
  "\u2581identity": 4832,
  "\u2581jiy\u00e0n": 4833,
  "\u2581union": 4834,
  "\u2581\u00ccw\u00e0\u00e1s\u00f9": 4835,
  "\u2581\u00e0p\u00e1ta": 4836,
  "\u2581\u00ec\u1e63\u00f3": 4837,
  "\u2581\u1eb9n\u00ed": 4838,
  "n\u00edr\u00faur\u00fa": 4839,
  "\u2581Chronicles": 4840,
  "\u2581H\u00e9b": 4841,
  "\u2581J\u00f9d\u00ed\u00e0": 4842,
  "\u2581Od\u00f2": 4843,
  "\u2581Upon": 4844,
  "\u2581conscious": 4845,
  "\u2581corruption": 4846,
  "\u2581officials": 4847,
  "\u2581skin": 4848,
  "\u258131,": 4849,
  "\u258136.": 4850,
  "\u2581foot": 4851,
  "\u2581holding": 4852,
  "\u2581science": 4853,
  "\u2581scientists": 4854,
  "\u2581tend": 4855,
  "\u2581\u00ccp\u00edn": 4856,
  "Mi": 4857,
  "at": 4858,
  "l\u00e1ti": 4859,
  "\u2581Close": 4860,
  "\u2581Says": 4861,
  "\u2581customs": 4862,
  "\u2581j\u00edjin": 4863,
  "\u2581played": 4864,
  "\u2581pleas": 4865,
  "\u2581struck": 4866,
  "\u2581style": 4867,
  "\u2581t\u00f3n\u00edt\u00f3n\u00ed": 4868,
  "\u2581witnesses": 4869,
  "\u2581\u1e62\u1eb9": 4870,
  "\u2581\u1e63\u00e0\u00ec": 4871,
  "\u2581\u1eb9k\u00fan": 4872,
  "\u2581below": 4873,
  "\u2581constant": 4874,
  "\u2581exercising": 4875,
  "\u2581literal": 4876,
  "\u2581persecuted": 4877,
  "\u2581reliable": 4878,
  "\u2581scene": 4879,
  "\u2581television": 4880,
  "\u2581\u1e63am": 4881,
  "\u00e8w\u00f2": 4882,
  "\u2581Concern": 4883,
  "\u2581NY": 4884,
  "\u2581abilities": 4885,
  "\u2581admonition": 4886,
  "\u2581affairs": 4887,
  "\u2581altar": 4888,
  "\u2581glorious": 4889,
  "\u2581s\u00f3de": 4890,
  "\u2581traits": 4891,
  "\u2581worthy": 4892,
  "\u2581\u1e62": 4893,
  "\u2581America": 4894,
  "\u2581al\u00e1\u00ecl\u00e9": 4895,
  "\u2581custom": 4896,
  "\u2581f\u1eb9nu": 4897,
  "\u2581habit": 4898,
  "\u2581hide": 4899,
  "\u2581outcome": 4900,
  "\u2581represented": 4901,
  "R\u00d2": 4902,
  "k\u00e0nl\u00e9": 4903,
  "\u25811997": 4904,
  "\u2581arrangements": 4905,
  "\u2581gb\u00edgb\u00e0": 4906,
  "\u2581hidden": 4907,
  "\u2581pressures": 4908,
  "\u2581sake": 4909,
  "\u2581wall": 4910,
  "\u2581\u00e8y\u00edin\u00ec": 4911,
  "\u2581Hesek\u00e1y\u00e0": 4912,
  "\u2581Lazarus": 4913,
  "\u2581North": 4914,
  "\u2581Ol\u00f9": 4915,
  "\u2581P\u00f2": 4916,
  "\u2581acting": 4917,
  "\u2581egungun": 4918,
  "\u2581f\u00ec": 4919,
  "\u2581ignore": 4920,
  "\u2581memory": 4921,
  "\u2581paragraph": 4922,
  "\u2581possess": 4923,
  "\u2581speaker": 4924,
  "\u2581visits": 4925,
  "\u2581volunteers": 4926,
  "ga": 4927,
  "ment": 4928,
  "\u2581MO": 4929,
  "\u2581T\u00f2": 4930,
  "\u2581anymore": 4931,
  "\u2581average": 4932,
  "\u2581begins": 4933,
  "\u2581brotherhood": 4934,
  "\u2581bu": 4935,
  "\u2581establish": 4936,
  "\u2581project": 4937,
  "\u2581rightly": 4938,
  "\u2581song": 4939,
  "\u2581street": 4940,
  "\u2581threat": 4941,
  "\u2581\u00e0t\u00e8": 4942,
  "\u2581\u00ecdar\u00ed": 4943,
  "\u2581\u1e63\u00e0n": 4944,
  "\u2581L\u00e1t\u00ecn": 4945,
  "\u2581Rutherford": 4946,
  "\u2581asks": 4947,
  "\u2581dress": 4948,
  "\u2581inclined": 4949,
  "\u2581lovingly": 4950,
  "\u2581screen": 4951,
  "\u2581s\u00edb\u00ec": 4952,
  "tal\u00f3": 4953,
  "\u00cc": 4954,
  "\u2581F\u00f3": 4955,
  "\u2581Martha": 4956,
  "\u2581attempt": 4957,
  "\u2581credit": 4958,
  "\u2581dark": 4959,
  "\u2581descendants": 4960,
  "\u2581ib\u00f2m\u00ed\u00ec": 4961,
  "\u2581involving": 4962,
  "\u2581located": 4963,
  "\u2581pioneering": 4964,
  "\u2581pursuing": 4965,
  "\u2581review": 4966,
  "\u2581temporary": 4967,
  "\u2581u": 4968,
  "\u2581won": 4969,
  "\u2581\u00ecj\u00edm\u00ecj\u00ed": 4970,
  "\u2581\u1e63\u00e0\u1e63\u00ec\u1e63e": 4971,
  "\u258172": 4972,
  "\u2581Naomi": 4973,
  "\u2581Service": 4974,
  "\u2581begotten": 4975,
  "\u2581differences": 4976,
  "\u2581generous": 4977,
  "\u2581impact": 4978,
  "\u2581k\u00edk\u1ecd": 4979,
  "\u2581limitations": 4980,
  "\u2581pre": 4981,
  "\u2581sustain": 4982,
  "\u2581tribe": 4983,
  "\u2581watching": 4984,
  "ary": 4985,
  "um": 4986,
  "\u00fal\u1eb9": 4987,
  "\u258110;": 4988,
  "\u258149": 4989,
  "\u2581Enoch": 4990,
  "\u2581adult": 4991,
  "\u2581doctors": 4992,
  "\u2581l\u00e1\u00ecfi": 4993,
  "\u2581ok\u00f9n": 4994,
  "\u2581s\u00f3j\u00e0": 4995,
  "ism": 4996,
  "\u2581Anna": 4997,
  "\u2581Court": 4998,
  "\u2581Source": 4999,
  "\u2581am\u00f2": 5000,
  "\u2581arms": 5001,
  "\u2581assurance": 5002,
  "\u2581bound": 5003,
  "\u2581completed": 5004,
  "\u2581oyin": 5005,
  "\u2581passing": 5006,
  "\u2581permanent": 5007,
  "\u2581scripture": 5008,
  "\u2581touch": 5009,
  "\u2581wipe": 5010,
  "langba": 5011,
  "\u25811940": 5012,
  "\u2581HOW": 5013,
  "\u2581Hitler": 5014,
  "\u2581Le": 5015,
  "\u2581Notice": 5016,
  "\u2581aged": 5017,
  "\u2581awake": 5018,
  "\u2581glad": 5019,
  "\u2581humbly": 5020,
  "\u00ectara": 5021,
  "\u258129]": 5022,
  "\u2581Following": 5023,
  "\u2581J\u00c9": 5024,
  "\u2581Republic": 5025,
  "\u2581brief": 5026,
  "\u2581covered": 5027,
  "\u2581forgiving": 5028,
  "\u2581instructed": 5029,
  "\u2581listeners": 5030,
  "\u2581paying": 5031,
  "\u2581pleasant": 5032,
  "\u2581possibly": 5033,
  "\u2581sold": 5034,
  "great": 5035,
  "j\u00e1ku": 5036,
  "\u00e1w\u00f2": 5037,
  "\u2581607": 5038,
  "\u2581Happy": 5039,
  "\u2581N\u00e1\u00f3m\u00ec": 5040,
  "\u2581adopt": 5041,
  "\u2581broken": 5042,
  "\u2581degree": 5043,
  "\u2581district": 5044,
  "\u2581increasing": 5045,
  "\u2581j\u1eb9j\u1eb9r\u1eb9": 5046,
  "\u2581limit": 5047,
  "\u2581medicine": 5048,
  "\u2581painful": 5049,
  "\u2581restored": 5050,
  "\u2581t\u00edta": 5051,
  "\u2581\u00ccy\u00e1": 5052,
  "\u2581\u00e8kej\u00ec": 5053,
  "\u258125]": 5054,
  "\u2581Netherlands": 5055,
  "\u2581Thomas": 5056,
  "\u2581g\u00e1g\u00e1": 5057,
  "\u2581ignored": 5058,
  "\u2581lowly": 5059,
  "\u2581removed": 5060,
  "\u2581soil": 5061,
  "\u2581strengthening": 5062,
  "\u2581tay\u00f2": 5063,
  "\u2581\u00ccw\u00f2ye": 5064,
  "g\u1eb9": 5065,
  "jooj\u00fam": 5066,
  "not": 5067,
  "\u2581De": 5068,
  "\u2581Marriage": 5069,
  "\u2581appeal": 5070,
  "\u2581chance": 5071,
  "\u2581contain": 5072,
  "\u2581conversations": 5073,
  "\u2581moves": 5074,
  "\u2581n\u00ed\u1e63\u00f2ro": 5075,
  "\u2581opinion": 5076,
  "\u2581opposers": 5077,
  "\u2581pictures": 5078,
  "\u2581r\u00edr\u1eb9": 5079,
  "\u2581smoking": 5080,
  "\u2581surface": 5081,
  "\u2581\u00cc\u1e63\u00e8": 5082,
  "\u1ecdw\u00f3": 5083,
  "\u258180": 5084,
  "\u2581Re": 5085,
  "\u2581River": 5086,
  "\u2581Switzerland": 5087,
  "\u2581T\u00edm": 5088,
  "\u2581foundation": 5089,
  "\u2581spending": 5090,
  "\u2581wisely": 5091,
  "\u2581\u00ccr\u00e0n": 5092,
  "ne": 5093,
  "\u2581Philippines": 5094,
  "\u2581arrested": 5095,
  "\u2581benefited": 5096,
  "\u2581depend": 5097,
  "\u2581fleshly": 5098,
  "\u2581midst": 5099,
  "\u2581ministeri": 5100,
  "\u2581ol\u00f9r\u00e0": 5101,
  "\u2581parable": 5102,
  "\u2581property": 5103,
  "\u2581shed": 5104,
  "\u2581souls": 5105,
  "\u2581\u00ecw\u00f2ye": 5106,
  "\u258116;": 5107,
  "\u2581B\u00e1\u00e1l\u00ec": 5108,
  "\u2581Italy": 5109,
  "\u2581M\u00e1l\u00e1k\u00ec": 5110,
  "\u2581Welcome": 5111,
  "\u2581access": 5112,
  "\u2581al\u00e1\u00eclera": 5113,
  "\u2581deliverance": 5114,
  "\u2581gather": 5115,
  "\u2581innocent": 5116,
  "\u2581j\u1ecdra": 5117,
  "\u2581literally": 5118,
  "\u2581lovers": 5119,
  "\u2581moon": 5120,
  "\u2581ol\u00f9\u1e63\u00f2": 5121,
  "\u2581sinners": 5122,
  "\u2581y\u00ecny\u00edn": 5123,
  "lo": 5124,
  "\u2581Dictionary": 5125,
  "\u2581Hezekiah": 5126,
  "\u2581Please": 5127,
  "\u2581admits": 5128,
  "\u2581associates": 5129,
  "\u2581cancer": 5130,
  "\u2581cell": 5131,
  "\u2581conviction": 5132,
  "\u2581depends": 5133,
  "\u2581error": 5134,
  "\u2581historian": 5135,
  "\u2581l\u00f3\u1e63\u00f9": 5136,
  "\u2581motives": 5137,
  "\u2581p": 5138,
  "\u2581pagan": 5139,
  "\u2581planet": 5140,
  "\u2581raising": 5141,
  "\u2581safety": 5142,
  "\u2581\u00f2w\u00f2": 5143,
  "with": 5144,
  "\u2581P\u00e9t": 5145,
  "\u2581oy\u00fan": 5146,
  "\u2581repentant": 5147,
  "\u2581suddenly": 5148,
  "\u2581s\u00edni": 5149,
  "\u2581tempted": 5150,
  "\u2581trusted": 5151,
  "k\u00e1ra": 5152,
  "\u0144b\u00e9": 5153,
  "\u2581Abel": 5154,
  "\u2581Malachi": 5155,
  "\u2581Prayer": 5156,
  "\u2581Use": 5157,
  "\u2581attacks": 5158,
  "\u2581cells": 5159,
  "\u2581claimed": 5160,
  "\u2581enable": 5161,
  "\u2581maintaining": 5162,
  "\u2581oy\u00e8": 5163,
  "\u2581rate": 5164,
  "\u2581texts": 5165,
  "\u2581\u00e0y\u00e0fi": 5166,
  "\u2581\u00ecy\u1ecdnu": 5167,
  "\u2581\u1ecdn\u00e0": 5168,
  "fun": 5169,
  "\u2581burden": 5170,
  "\u2581estimated": 5171,
  "\u2581finish": 5172,
  "\u2581grain": 5173,
  "\u2581healing": 5174,
  "\u2581imperfection": 5175,
  "\u2581l\u00e1k\u00f2": 5176,
  "\u2581merciful": 5177,
  "\u2581northern": 5178,
  "\u2581satisfied": 5179,
  "\u2581spirits": 5180,
  "ch": 5181,
  "im": 5182,
  "pe": 5183,
  "\u2581Death": 5184,
  "\u2581San": 5185,
  "\u2581belongs": 5186,
  "\u2581choosing": 5187,
  "\u2581discernment": 5188,
  "\u2581drawing": 5189,
  "\u2581d\u00e1n\u00e1": 5190,
  "\u2581enabled": 5191,
  "\u2581fundamental": 5192,
  "\u2581historical": 5193,
  "\u2581possession": 5194,
  "\u2581principal": 5195,
  "\u2581restore": 5196,
  "\u2581unclean": 5197,
  "\u2581\u00c0gb\u00e0": 5198,
  "\u2581\u1e63\u00e8t\u00ecl": 5199,
  "\u2581Human": 5200,
  "\u2581Passover": 5201,
  "\u2581Septuagint": 5202,
  "\u2581contained": 5203,
  "\u2581exposed": 5204,
  "\u2581games": 5205,
  "\u2581guided": 5206,
  "\u2581l\u00edlekoko": 5207,
  "\u2581prominent": 5208,
  "\u2581victory": 5209,
  "\u2581y\u00e0w\u00f2r\u00e1n": 5210,
  "\u2581\u00c1\u00e1r\u00f3n\u00ec": 5211,
  "\u2581\u1eb9h\u00e0nn\u00e0": 5212,
  "our": 5213,
  "tun": 5214,
  "\u2581Peace": 5215,
  "\u2581armies": 5216,
  "\u2581dor\u00ed": 5217,
  "\u2581intense": 5218,
  "\u2581oj\u00fas\u00e0\u00e1j\u00fa": 5219,
  "\u2581ol\u00f9dar\u00ed": 5220,
  "\u2581on\u00edj": 5221,
  "\u2581r\u1eb9y\u00ecn": 5222,
  "\u2581se": 5223,
  "\u2581stories": 5224,
  "W\u00f3": 5225,
  "\u00c9": 5226,
  "\u2581J\u00f3n\u00e1t\u00e1n\u00ec": 5227,
  "\u2581defend": 5228,
  "\u2581widely": 5229,
  "\u2581windows": 5230,
  "\u2581\u00ecd\u00e1nil": 5231,
  "\u258153": 5232,
  "\u2581Baal": 5233,
  "\u2581abandon": 5234,
  "\u2581corrupt": 5235,
  "\u2581ears": 5236,
  "\u2581leaves": 5237,
  "\u2581relate": 5238,
  "\u2581sorts": 5239,
  "\u2581yege": 5240,
  "\u2581\u00ecd\u00e8": 5241,
  "\u2581\u00f2\u01f9ror\u00f2": 5242,
  "li": 5243,
  "\u258117;": 5244,
  "\u2581Get": 5245,
  "\u2581G\u00e1l\u00edl\u00ec": 5246,
  "\u2581distance": 5247,
  "\u2581ib\u00f9gb\u00e9": 5248,
  "\u2581intended": 5249,
  "\u2581miraculous": 5250,
  "\u2581numbers": 5251,
  "\u2581ol\u00f9j": 5252,
  "\u2581royal": 5253,
  "\u2581stayed": 5254,
  "\u2581tut\u00f9": 5255,
  "\u2581\u1e62\u00e1\u00e1j\u00fa": 5256,
  "\u2581Ephesus": 5257,
  "\u2581Fara": 5258,
  "\u2581accepting": 5259,
  "\u2581calamity": 5260,
  "\u2581color": 5261,
  "\u2581commands": 5262,
  "\u2581gathering": 5263,
  "\u2581l\u00e1\u00ecn\u00ed": 5264,
  "\u2581n\u00edk\u1eb9y\u00ecn": 5265,
  "\u2581on\u00edgboy\u00e0": 5266,
  "\u2581running": 5267,
  "\u2581team": 5268,
  "\u2581welfare": 5269,
  "\u2581\u00e0k\u00e1j\u1ecd": 5270,
  "\u2581\u00f2gb\u00f3gi": 5271,
  "\u2581\u1ecdm\u1ecdd\u00e9k\u00f9nrin": 5272,
  "\u2581BY": 5273,
  "\u2581IS": 5274,
  "\u2581J\u00e1": 5275,
  "\u2581Pad\u00e0": 5276,
  "\u2581birds": 5277,
  "\u2581enjoying": 5278,
  "\u2581l\u00f3jij\u00ec": 5279,
  "\u2581n\u00edp\u00e0d\u00e9": 5280,
  "\u2581reign": 5281,
  "\u2581solid": 5282,
  "\u2581teenager": 5283,
  "\u2581theme": 5284,
  "\u2581\u00ecr\u00e1nnil\u00e9t\u00ed": 5285,
  "F": 5286,
  "K\u00ec": 5287,
  "k\u00e0nd\u00ednl\u00f3g\u00fan": 5288,
  "\u2581AND": 5289,
  "\u2581Heights": 5290,
  "\u2581Karen": 5291,
  "\u2581cared": 5292,
  "\u2581complex": 5293,
  "\u2581finished": 5294,
  "\u2581keje": 5295,
  "\u2581looks": 5296,
  "\u2581media": 5297,
  "\u2581n\u00edgb\u00e0kigb\u00e0": 5298,
  "\u2581on\u00edn\u00faure": 5299,
  "\u2581repentance": 5300,
  "\u2581s\u1ecdni": 5301,
  "\u2581\u00c0t\u00f2j\u1ecd": 5302,
  "\u2581\u00ccr\u00e9k\u1ecdj\u00e1": 5303,
  "\u2581\u00e0\u00e1r\u00f2": 5304,
  "\u2581\u00e1\u00e0k\u00ec": 5305,
  "6": 5306,
  "ian": 5307,
  "\u2581JEHOVAH": 5308,
  "\u2581Philip": 5309,
  "\u2581afterward": 5310,
  "\u2581charge": 5311,
  "\u2581dust": 5312,
  "\u2581endured": 5313,
  "\u2581jini": 5314,
  "\u2581primarily": 5315,
  "\u2581throw": 5316,
  "\u2581weaknesses": 5317,
  "\u2581wear": 5318,
  "\u2581\u00c1m\u00f3s\u00ec": 5319,
  "\u2581\u00ect\u00ecj\u00fa": 5320,
  "d\u00ed": 5321,
  "h": 5322,
  "os": 5323,
  "\u2581Amos": 5324,
  "\u2581Early": 5325,
  "\u2581K\u00e9ker\u00e9": 5326,
  "\u2581Rev": 5327,
  "\u2581ad\u00e1j": 5328,
  "\u2581depressed": 5329,
  "\u2581eliminate": 5330,
  "\u2581ew\u00far": 5331,
  "\u2581f\u00edf\u00fanni": 5332,
  "\u2581illustrations": 5333,
  "\u2581protected": 5334,
  "\u2581reminders": 5335,
  "\u2581w\u00fawo": 5336,
  "\u2581\u00ccpinnu": 5337,
  "B\u00f3": 5338,
  "d\u00fanr\u00fan": 5339,
  "\u2581Greece": 5340,
  "\u2581kod\u00f2": 5341,
  "\u2581k\u00ecnn\u00ec\u00fan": 5342,
  "\u2581l\u00e1\u00e0\u00e1n\u00fa": 5343,
  "\u2581partner": 5344,
  "\u2581preparing": 5345,
  "\u2581p\u00e9ye": 5346,
  "\u2581sacrificing": 5347,
  "\u2581suggests": 5348,
  "J\u00c9": 5349,
  "da": 5350,
  "d\u00e0\u00e0m\u00fa": 5351,
  "\u2581Y\u00cc\u00cd": 5352,
  "\u2581accord": 5353,
  "\u2581debt": 5354,
  "\u2581prisoners": 5355,
  "\u2581sor\u00ed": 5356,
  "\u2581\u00e0t\u1ecd": 5357,
  "Be": 5358,
  "ish": 5359,
  "tip\u00e9": 5360,
  "\u00e0k\u1ecds\u00edl": 5361,
  "\u25811945": 5362,
  "\u2581D\u00e1ra": 5363,
  "\u2581El": 5364,
  "\u2581N\u00cdGB\u00c0": 5365,
  "\u2581P\u00edl\u00e1t\u00f9": 5366,
  "\u2581l\u00e1t\u00f2k\u00e8": 5367,
  "\u2581tribes": 5368,
  "\u2581t\u00edt\u00f3bi": 5369,
  "\u2581wholesome": 5370,
  "\u2581\u00d2b\u00ed": 5371,
  "\u2581\u00e0b\u00f9d\u00e1": 5372,
  "\u2581\u1e63\u00f3k\u00ed": 5373,
  "To": 5374,
  "\u00e0\u00ecm\u00f3": 5375,
  "\u25811970": 5376,
  "\u2581Unlike": 5377,
  "\u2581approved": 5378,
  "\u2581b\u00e0t\u00e0": 5379,
  "\u2581gained": 5380,
  "\u2581k\u1eb9rin": 5381,
  "\u2581prejudice": 5382,
  "\u2581recreation": 5383,
  "\u2581residents": 5384,
  "\u2581rewarding": 5385,
  "\u2581r\u00ec": 5386,
  "\u2581tests": 5387,
  "s\u00edt\u00e9r\u00ec": 5388,
  "\u258151": 5389,
  "\u2581H\u00e1b\u00e1k\u00fak\u00f9": 5390,
  "\u2581Joel": 5391,
  "\u2581Museum": 5392,
  "\u2581Try": 5393,
  "\u2581alert": 5394,
  "\u2581b\u00e0l\u00e1g\u00e0": 5395,
  "\u2581clergy": 5396,
  "\u2581context": 5397,
  "\u2581contributed": 5398,
  "\u2581description": 5399,
  "\u2581isolated": 5400,
  "\u2581laid": 5401,
  "31]": 5402,
  "\u2581Bi": 5403,
  "\u2581B\u1ecd": 5404,
  "\u2581Richard": 5405,
  "\u2581UN": 5406,
  "\u2581Ukraine": 5407,
  "\u2581b\u00e1rak\u00fa": 5408,
  "\u2581campaign": 5409,
  "\u2581childhood": 5410,
  "\u2581d\u00eddi": 5411,
  "\u2581ew\u00e9ko": 5412,
  "\u2581i\u1e63an": 5413,
  "\u2581patiently": 5414,
  "\u2581perfection": 5415,
  "\u2581reduce": 5416,
  "\u2581ungodly": 5417,
  "\u2581win": 5418,
  "\u2581\u00d2j\u00ed": 5419,
  "ia": 5420,
  "\u2581Besides": 5421,
  "\u2581British": 5422,
  "\u2581Web": 5423,
  "\u2581Yunif\u00e1s\u00edt\u00ec": 5424,
  "\u2581emotionally": 5425,
  "\u2581famous": 5426,
  "\u2581k\u00e1\u00e0d\u00ec": 5427,
  "\u2581meek": 5428,
  "\u2581on\u00edd\u00e0\u00e1": 5429,
  "\u2581patients": 5430,
  "\u2581taratara": 5431,
  "drew": 5432,
  "n\u00e0k\u1ecdn\u00e0": 5433,
  "\u1eccm\u1ecd": 5434,
  "\u25811939": 5435,
  "\u258166": 5436,
  "\u2581cruel": 5437,
  "\u2581t\u00e1b\u00ecl\u00ec": 5438,
  "201": 5439,
  "K": 5440,
  "co": 5441,
  "ma": 5442,
  "m\u00ec\u00edl\u00f2": 5443,
  "\u2581Habakkuk": 5444,
  "\u2581K\u1ecc": 5445,
  "\u2581P\u00e1\u1e63\u00ed\u00e0": 5446,
  "\u2581acknowledged": 5447,
  "\u2581distant": 5448,
  "\u2581d\u00fad\u00fa": 5449,
  "\u2581extend": 5450,
  "\u2581fields": 5451,
  "\u2581meditation": 5452,
  "\u2581newly": 5453,
  "\u2581n\u00edy\u00e0": 5454,
  "\u2581p\u00e9r\u00e9p\u00e9r\u00e9": 5455,
  "\u2581tear": 5456,
  "\u2581\u00e8d\u00e8k\u00f2y\u00e9d\u00e8": 5457,
  "\u2581\u00ec\u1e63es\u00ed": 5458,
  "\u2581\u1eb9gb\u00e0aj\u00ec": 5459,
  "\u2581acquire": 5460,
  "\u2581divided": 5461,
  "\u2581odi": 5462,
  "\u2581quiet": 5463,
  "\u2581session": 5464,
  "\u2581theocratic": 5465,
  "\u2581\u00ccGB\u00c9S": 5466,
  "\u2581\u00cc\u1e63\u00ed": 5467,
  "ING": 5468,
  "ful": 5469,
  "\u2581California": 5470,
  "\u2581China": 5471,
  "\u2581Corinth": 5472,
  "\u2581J\u00edj": 5473,
  "\u2581Within": 5474,
  "\u2581al\u00e1": 5475,
  "\u2581features": 5476,
  "\u2581frequently": 5477,
  "\u2581inherited": 5478,
  "\u2581iron": 5479,
  "\u2581l\u00e1t": 5480,
  "\u2581mark": 5481,
  "\u2581ship": 5482,
  "\u2581threatened": 5483,
  "\u2581\u1e63\u00e0\u00e1n\u00fa": 5484,
  "\u1e63\u1eb9": 5485,
  "\u2581Egyptian": 5486,
  "\u2581M\u00e0t\u00e1": 5487,
  "\u2581Old": 5488,
  "\u2581Viewpoint": 5489,
  "\u2581cross": 5490,
  "\u2581d\u00e1ni": 5491,
  "\u2581leader": 5492,
  "\u2581middle": 5493,
  "\u2581price": 5494,
  "\u2581talks": 5495,
  "\u2581video": 5496,
  "\u2581\u00cclera": 5497,
  "\u2581\u1e63\u00e8t\u1ecdr\u1eb9": 5498,
  "\u1eccm\u1ecdb\u00ecnrin": 5499,
  "\u2581Fear": 5500,
  "\u2581L\u00edl": 5501,
  "\u2581Spiritual": 5502,
  "\u2581Titus": 5503,
  "\u2581dating": 5504,
  "\u2581or\u00f3": 5505,
  "\u2581profound": 5506,
  "\u2581pupa": 5507,
  "\u2581trade": 5508,
  "\u2581upbuilding": 5509,
  "\u2581visitors": 5510,
  "\u2581worker": 5511,
  "\u2581w\u00e1l\u00e9": 5512,
  "/": 5513,
  "\u2581HAVE": 5514,
  "\u2581Heart": 5515,
  "\u2581Henry": 5516,
  "\u2581Nazi": 5517,
  "\u2581d\u00f9": 5518,
  "\u2581finds": 5519,
  "\u2581foolish": 5520,
  "\u2581glorify": 5521,
  "\u2581igun": 5522,
  "\u2581ordered": 5523,
  "\u2581peer": 5524,
  "\u2581sets": 5525,
  "\u2581thanks": 5526,
  "\u2581unless": 5527,
  "\u2581\u00c9b\u00e9": 5528,
  "do": 5529,
  "lem": 5530,
  "\u00ecgb\u00e0": 5531,
  "\u2581Inc": 5532,
  "\u2581Things": 5533,
  "\u2581applies": 5534,
  "\u2581experts": 5535,
  "\u2581friendships": 5536,
  "\u2581grave": 5537,
  "\u2581income": 5538,
  "\u2581l\u00e1\u00e1r\u00ed": 5539,
  "\u2581marked": 5540,
  "\u2581obligation": 5541,
  "\u2581refreshing": 5542,
  "\u2581torture": 5543,
  "\u2581\u00ecf\u00f2yem": 5544,
  "\u2581\u00ecgb\u1ecdr\u00e0n": 5545,
  "\u0144d\u00e0": 5546,
  "\u2581Babylonian": 5547,
  "\u2581Right": 5548,
  "\u2581comment": 5549,
  "\u2581disasters": 5550,
  "\u2581initiative": 5551,
  "\u2581lips": 5552,
  "\u2581reads": 5553,
  "\u2581\u00e0j\u1ecdy": 5554,
  "483,": 5555,
  "faraw\u00e9": 5556,
  "\u258131]": 5557,
  "\u258142.": 5558,
  "\u2581Committee": 5559,
  "\u2581J\u00f2s\u00e1y\u00e0": 5560,
  "\u2581Ki": 5561,
  "\u2581Martin": 5562,
  "\u2581Pilate": 5563,
  "\u2581Trinity": 5564,
  "\u2581Y\u00e1l\u00e0": 5565,
  "\u2581burning": 5566,
  "\u2581ey\u00edn": 5567,
  "\u2581hot": 5568,
  "\u2581l\u00e1y\u00e0": 5569,
  "\u2581mine": 5570,
  "\u2581n\u00edw\u00e0": 5571,
  "\u2581peers": 5572,
  "\u2581river": 5573,
  "\u2581s\u00e1\u00e0m\u00f9": 5574,
  "\u2581w\u00e0l\u00e1\u00e0": 5575,
  "\u2581\u00e0\u00e0l\u00e0": 5576,
  "\u2581\u01f8": 5577,
  "N\u00c0": 5578,
  "RUN": 5579,
  "b\u00fa": 5580,
  "ine": 5581,
  "keep": 5582,
  "\u2581Congregation": 5583,
  "\u2581View": 5584,
  "\u2581abo": 5585,
  "\u2581attain": 5586,
  "\u2581everywhere": 5587,
  "\u2581extended": 5588,
  "\u2581fathers": 5589,
  "\u2581pariwo": 5590,
  "\u2581significance": 5591,
  "\u2581suggested": 5592,
  "\u2581t\u00f2un": 5593,
  "\u2581worry": 5594,
  "\u01f9b\u00f9": 5595,
  "\u2581Avoid": 5596,
  "\u2581Hope": 5597,
  "\u2581K\u00e8f\u00e8r\u00ed": 5598,
  "\u2581Making": 5599,
  "\u2581TI": 5600,
  "\u2581gets": 5601,
  "\u2581harsh": 5602,
  "\u2581mourning": 5603,
  "\u2581relevant": 5604,
  "\u2581serpent": 5605,
  "\u2581thankful": 5606,
  "\u2581wrath": 5607,
  "\u2581\u00ecw\u00e0kiw\u00e0": 5608,
  "Baba": 5609,
  "by": 5610,
  "k\u00e0\u00e1": 5611,
  "\u2581Galilee": 5612,
  "\u2581H\u00e9": 5613,
  "\u2581Jordan": 5614,
  "\u2581Way": 5615,
  "\u2581compassionate": 5616,
  "\u2581devoted": 5617,
  "\u2581f\u00ecw\u00e0": 5618,
  "\u2581gb\u00edgb\u00f3n\u00e1": 5619,
  "\u2581headquarters": 5620,
  "\u2581paper": 5621,
  "\u2581songs": 5622,
  "\u2581terrible": 5623,
  "\u2581unrighteous": 5624,
  "\u2581\u00ect\u00ecl": 5625,
  "\u25811943": 5626,
  "\u2581L\u00e9f\u00edt\u00edk\u00f9": 5627,
  "\u2581capable": 5628,
  "\u2581check": 5629,
  "\u2581m\u00edm\u1ecd": 5630,
  "\u2581officer": 5631,
  "\u2581reap": 5632,
  "\u2581ri": 5633,
  "\u2581storm": 5634,
  "\u2581table": 5635,
  "\u2581tendency": 5636,
  "\u2581\u00e0w\u00f3": 5637,
  "\u0143": 5638,
  "\u2581Russian": 5639,
  "\u2581adjust": 5640,
  "\u2581blame": 5641,
  "\u2581c": 5642,
  "\u2581condemned": 5643,
  "\u2581fighting": 5644,
  "\u2581guilty": 5645,
  "\u2581h\u00e1": 5646,
  "\u2581k\u1ecdbi": 5647,
  "\u2581losing": 5648,
  "\u2581mistake": 5649,
  "\u2581replaced": 5650,
  "\u2581safeguard": 5651,
  "\u2581tired": 5652,
  "\u2581\u00ecr\u00f3": 5653,
  "d\u00ec\u00ed": 5654,
  "\u25811930": 5655,
  "\u25812005": 5656,
  "\u2581Edo": 5657,
  "\u2581Leviticus": 5658,
  "\u2581L\u00e1t\u00e0": 5659,
  "\u2581cast": 5660,
  "\u2581guilt": 5661,
  "\u2581morally": 5662,
  "\u2581obtained": 5663,
  "\u2581scale": 5664,
  "\u2581walls": 5665,
  "\u2581y\u00edy\u1eb9": 5666,
  "\u2581\u00e0j\u00e0k\u00e1": 5667,
  "\u2581\u00e0muj\u00f9": 5668,
  "\u2581\u00ecje": 5669,
  "Al\u00e1y": 5670,
  "\u2581Dad": 5671,
  "\u2581NI": 5672,
  "\u2581Up": 5673,
  "\u2581civil": 5674,
  "\u2581existed": 5675,
  "\u2581fears": 5676,
  "\u2581l\u00f3ru": 5677,
  "\u2581obeying": 5678,
  "\u2581researchers": 5679,
  "\u2581smoke": 5680,
  "\u2581trusting": 5681,
  "\u2581yo": 5682,
  "\u2581\u00ecb\u00e9": 5683,
  "\u2581145": 5684,
  "\u25811960": 5685,
  "\u258154": 5686,
  "\u2581Encyclop\u00e6dia": 5687,
  "\u2581Josiah": 5688,
  "\u2581Need": 5689,
  "\u2581entrusted": 5690,
  "\u2581file": 5691,
  "\u2581ol\u00f9\u1e63\u00e8w\u00e1d\u00ec\u00ed": 5692,
  "\u2581programs": 5693,
  "\u2581sanw\u00f3": 5694,
  "\u2581shortly": 5695,
  "\u2581sitting": 5696,
  "\u2581w\u1eb9": 5697,
  "\u2581\u1e62\u00e1\u00edn\u00e0": 5698,
  "No": 5699,
  "ah": 5700,
  "d\u00far\u00f3": 5701,
  "\u01f9t\u00ec": 5702,
  "\u2581atmosphere": 5703,
  "\u2581execution": 5704,
  "\u2581feed": 5705,
  "\u2581female": 5706,
  "\u2581miracle": 5707,
  "\u2581opposed": 5708,
  "\u2581resolved": 5709,
  "\u2581rock": 5710,
  "\u2581surrounded": 5711,
  "\u2581survey": 5712,
  "\u2581temper": 5713,
  "\u2581\u00c0l\u00f9f\u00e1\u00e0": 5714,
  "\u2581\u1e63iy\u00e8m\u00e9j\u00ec": 5715,
  "U": 5716,
  "n\u01f9kan": 5717,
  "\u2581144,000": 5718,
  "\u2581Caesar": 5719,
  "\u2581Fa": 5720,
  "\u2581Three": 5721,
  "\u2581Which": 5722,
  "\u2581accident": 5723,
  "\u2581idolatry": 5724,
  "\u2581preserve": 5725,
  "\u2581printing": 5726,
  "\u2581regret": 5727,
  "\u2581warfare": 5728,
  "\u25811090,": 5729,
  "\u25811950": 5730,
  "\u25811995": 5731,
  "\u2581Living": 5732,
  "\u2581USED": 5733,
  "\u2581adopted": 5734,
  "\u2581citizens": 5735,
  "\u2581d\u00e1b\u00e0\u00e1": 5736,
  "\u2581executed": 5737,
  "\u2581j\u00edj\u00ecn": 5738,
  "\u2581l\u00e1\u00e9l\u00e1\u00e9": 5739,
  "\u2581origin": 5740,
  "\u2581outlook": 5741,
  "\u2581poured": 5742,
  "\u2581symbolic": 5743,
  "\u2581\u00e0k\u00f3so": 5744,
  "\u2581\u00f2we": 5745,
  "\u2581\u1e63\u00e0fih\u00e0n": 5746,
  "7": 5747,
  "\u258140.": 5748,
  "\u2581Chinese": 5749,
  "\u2581Year": 5750,
  "\u2581bitter": 5751,
  "\u2581capacity": 5752,
  "\u2581hell": 5753,
  "\u2581hospitality": 5754,
  "\u2581marital": 5755,
  "\u2581p\u00e0": 5756,
  "\u2581red": 5757,
  "\u2581stronger": 5758,
  "\u2581urges": 5759,
  "\u2581\u00e0r\u00edy\u00e0njiy\u00e0n": 5760,
  "W\u00f2": 5761,
  "tic": 5762,
  "\u00c0": 5763,
  "\u25811996": 5764,
  "\u2581Isa": 5765,
  "\u2581ab\u00f2": 5766,
  "\u2581changing": 5767,
  "\u2581dry": 5768,
  "\u2581encounter": 5769,
  "\u2581feature": 5770,
  "\u2581likened": 5771,
  "\u2581mass": 5772,
  "\u2581mates": 5773,
  "\u2581pregnant": 5774,
  "\u2581repeated": 5775,
  "\u2581y\u00e0g": 5776,
  "\u2581\u00c1s\u00edr\u00ed\u00e0": 5777,
  "ies": 5778,
  "\u2581Come": 5779,
  "\u2581OR\u00cd": 5780,
  "\u2581burned": 5781,
  "\u2581comfortable": 5782,
  "\u2581d\u00e9l\u00e9": 5783,
  "\u2581except": 5784,
  "\u2581fura": 5785,
  "\u2581happening": 5786,
  "\u2581k\u00e1\u00e0t\u00f3": 5787,
  "\u2581k\u00edgbe": 5788,
  "\u2581length": 5789,
  "\u2581l\u00f3ko": 5790,
  "\u2581pi": 5791,
  "\u2581promotes": 5792,
  "\u2581schools": 5793,
  "\u2581seventh": 5794,
  "\u2581\u00e0wo": 5795,
  "\u2581\u00ecp\u00e8s\u00e8": 5796,
  "\u2581\u00ec\u1e63\u00e8t\u00f2": 5797,
  "b\u00f3l\u00f3h\u00f9n": 5798,
  "id": 5799,
  "\u258183": 5800,
  "\u2581Gideon": 5801,
  "\u2581IW\u00c1J\u00da": 5802,
  "\u2581Judea": 5803,
  "\u2581S\u00e1": 5804,
  "\u2581achieve": 5805,
  "\u2581addressed": 5806,
  "\u2581believing": 5807,
  "\u2581camps": 5808,
  "\u2581conflicts": 5809,
  "\u2581ethnic": 5810,
  "\u2581gbani": 5811,
  "\u2581interesting": 5812,
  "\u2581l\u00f3r\u00ed\u1e63ir\u00ed\u1e63i": 5813,
  "\u2581meditating": 5814,
  "\u2581necessarily": 5815,
  "\u2581ol\u00f9\u1e63\u00e0k\u00f3so": 5816,
  "\u2581returning": 5817,
  "\u2581r\u00edr\u00ed": 5818,
  "\u2581searching": 5819,
  "\u2581spite": 5820,
  "\u2581tabernacle": 5821,
  "\u2581tradition": 5822,
  "\u2581unusual": 5823,
  "\u2581\u00e0for\u00edj\u00ec": 5824,
  "\u2581\u00e0\u00ec\u1e63\u00f2": 5825,
  "\u2581\u00ecgb\u00e1d\u00f9n": 5826,
  "\u2581\u00ecy\u00e0n": 5827,
  "\u2581\u1e63\u00e8p\u00e0d\u00e9": 5828,
  "5": 5829,
  "By": 5830,
  "l\u00fak\u00fal\u00f9k\u00f9": 5831,
  "\u258145.": 5832,
  "\u2581Empire": 5833,
  "\u2581L\u00c9": 5834,
  "\u2581Master": 5835,
  "\u2581Organization": 5836,
  "\u2581W\u00d3": 5837,
  "\u2581doctrine": 5838,
  "\u2581drive": 5839,
  "\u2581explanation": 5840,
  "\u2581faces": 5841,
  "\u2581fresh": 5842,
  "\u2581inherit": 5843,
  "\u2581mid": 5844,
  "\u2581murder": 5845,
  "\u2581observing": 5846,
  "\u2581readers": 5847,
  "\u2581reply": 5848,
  "\u2581schedule": 5849,
  "\u2581vow": 5850,
  "\u2581\u00c0\u00ecs\u00e0n": 5851,
  "\u2581\u00ccgb\u00e9y\u00e0w\u00f3": 5852,
  "\u2581\u00e0gb\u00e1": 5853,
  "\u2581\u00ecpal\u00e1ra": 5854,
  "ter": 5855,
  "\u258156": 5856,
  "\u2581Ar\u00e1": 5857,
  "\u2581Britannica": 5858,
  "\u2581Next": 5859,
  "\u2581Sermon": 5860,
  "\u2581engaging": 5861,
  "\u2581equal": 5862,
  "\u2581gaara": 5863,
  "\u2581n\u00edgb\u00e8": 5864,
  "\u2581silent": 5865,
  "\u2581treasures": 5866,
  "\u2581weakness": 5867,
  "\u2581whereas": 5868,
  "n\u00edf\u00e8": 5869,
  "p\u00e0t\u00e0k\u00ec": 5870,
  "\u2581IT": 5871,
  "\u2581convey": 5872,
  "\u2581j\u00edj\u00e0": 5873,
  "\u2581market": 5874,
  "\u2581method": 5875,
  "\u2581motive": 5876,
  "\u2581north": 5877,
  "\u2581peaceable": 5878,
  "\u2581rewarded": 5879,
  "\u2581urge": 5880,
  "\u2581weather": 5881,
  "\u2581\u00c0\u1e63\u00e0": 5882,
  "\u2581\u00c0\u1e63\u1eb9": 5883,
  "\u2581\u00ccy\u00e0w\u00f3": 5884,
  "\u2581\u00ecn\u00e1w\u00f3": 5885,
  "\u2581\u00ecs\u00ecnk\u00fa": 5886,
  "bo": 5887,
  "nin\u00ed\u1e63": 5888,
  "\u00e0\u00e0b\u00f2": 5889,
  "\u00f9r\u00f2": 5890,
  "\u00fan": 5891,
  "\u2581(4)": 5892,
  "\u258125,": 5893,
  "\u2581Yan": 5894,
  "\u2581delighted": 5895,
  "\u2581dying": 5896,
  "\u2581g\u00e8": 5897,
  "\u2581holds": 5898,
  "\u2581lower": 5899,
  "\u2581messages": 5900,
  "\u2581on\u00edtara": 5901,
  "\u2581sayings": 5902,
  "\u2581wheat": 5903,
  "\u2581\u1eccl\u1ecdrun": 5904,
  "\u2581D\u00far\u00f3": 5905,
  "\u2581Herod": 5906,
  "\u2581J\u00c8H\u00d3F\u00c0": 5907,
  "\u2581S\u00edr\u00ed\u00e0": 5908,
  "\u2581accompanie": 5909,
  "\u2581art": 5910,
  "\u2581creature": 5911,
  "\u2581expectations": 5912,
  "\u2581playing": 5913,
  "\u2581pur": 5914,
  "\u2581thrown": 5915,
  "\u2581turns": 5916,
  "\u2581\u00ecd\u00edje": 5917,
  "s\u00edt\u00e1\u01f9t\u00ec": 5918,
  "\u2581Library": 5919,
  "\u2581Published": 5920,
  "\u2581Religion": 5921,
  "\u2581beast": 5922,
  "\u2581depth": 5923,
  "\u2581enables": 5924,
  "\u2581figure": 5925,
  "\u2581fitting": 5926,
  "\u2581injury": 5927,
  "\u2581m\u00e8": 5928,
  "\u2581plants": 5929,
  "\u2581proceeded": 5930,
  "\u2581telephone": 5931,
  "\u2581\u00ec\u1e63er\u00e9": 5932,
  "ton": 5933,
  "\u2581O\u1e63\u00f9": 5934,
  "\u2581Rachel": 5935,
  "\u2581ad\u00e9": 5936,
  "\u2581dies": 5937,
  "\u2581eagerly": 5938,
  "\u2581extra": 5939,
  "\u2581farm": 5940,
  "\u2581firstborn": 5941,
  "\u2581flee": 5942,
  "\u2581proverb": 5943,
  "\u2581range": 5944,
  "\u2581remembered": 5945,
  "\u2581rescue": 5946,
  "\u2581strangers": 5947,
  "\u2581subjection": 5948,
  "\u2581traditional": 5949,
  "\u2581types": 5950,
  "\u2581universal": 5951,
  "\u2581\u00c0TI": 5952,
  "\u2581Ohio": 5953,
  "\u2581Were": 5954,
  "\u2581adjustments": 5955,
  "\u2581advancement": 5956,
  "\u2581al\u00e1d\u00e9": 5957,
  "\u2581commandment": 5958,
  "\u2581f\u00edf\u00fan": 5959,
  "\u2581gbay\u00ec": 5960,
  "\u2581judges": 5961,
  "\u2581sincerely": 5962,
  "\u2581sinim\u00e1": 5963,
  "\u2581symptoms": 5964,
  "\u2581\u00cct\u00f3": 5965,
  "\u2581\u00e0l\u00eck\u00e1m\u00e0": 5966,
  "\u2581\u00e1p": 5967,
  "\u2581\u00f3l\u00edf\u00ec": 5968,
  "Your": 5969,
  "m\u00edk\u00e0": 5970,
  "r\u00edn": 5971,
  "\u2581200": 5972,
  "\u2581Moscow": 5973,
  "\u2581WO": 5974,
  "\u2581appealing": 5975,
  "\u2581d\u00fak\u00ec\u00e1": 5976,
  "\u2581ends": 5977,
  "\u2581grand": 5978,
  "\u2581introduced": 5979,
  "\u2581modesty": 5980,
  "\u2581objective": 5981,
  "\u2581objects": 5982,
  "\u2581oj\u00fagb\u00e0": 5983,
  "\u2581scientific": 5984,
  "\u2581sell": 5985,
  "\u2581statements": 5986,
  "\u2581sufficient": 5987,
  "\u2581survived": 5988,
  "\u2581tent": 5989,
  "f\u00fat\u00e0": 5990,
  "up": 5991,
  "\u00ccgb\u00e0": 5992,
  "\u1e62\u00c9": 5993,
  "\u2581Ahab": 5994,
  "\u2581Fil\u00eds\u00edn\u00ec": 5995,
  "\u2581Happiness": 5996,
  "\u2581R\u00f2": 5997,
  "\u2581annual": 5998,
  "\u2581arrival": 5999,
  "\u2581author": 6000,
  "\u2581bank": 6001,
  "\u2581covering": 6002,
  "\u2581earnestly": 6003,
  "\u2581educational": 6004,
  "\u2581fallen": 6005,
  "\u2581heat": 6006,
  "\u2581k\u00ed\u00e1k\u00ed\u00e1": 6007,
  "\u2581maturity": 6008,
  "\u2581preserved": 6009,
  "\u2581priority": 6010,
  "\u2581typical": 6011,
  "\u2581widespread": 6012,
  "\u2581\u00e0b\u00f9k\u00f9": 6013,
  "\u25812007": 6014,
  "\u258127]": 6015,
  "\u2581Albert": 6016,
  "\u2581STUDY": 6017,
  "\u2581admit": 6018,
  "\u2581desirable": 6019,
  "\u2581discussions": 6020,
  "\u2581gb\u00f2\u01f9gb\u00f2": 6021,
  "\u2581greed": 6022,
  "\u2581initial": 6023,
  "\u2581l\u00e1t\u1ecdk\u00e0nw\u00e1": 6024,
  "\u2581l\u00f3ore": 6025,
  "\u2581p\u00e1": 6026,
  "\u2581summer": 6027,
  "\u2581\u00c1h\u00e1b\u00f9": 6028,
  "\u2581\u00ccr\u00ed": 6029,
  "\u2581\u00e0r\u00f2s\u1ecd": 6030,
  "\u2581\u00eck\u00e9s\u00edni": 6031,
  "d\u00e1n\u00ec": 6032,
  "t\u00e1n": 6033,
  "\u00e0k\u00f3k\u00f2": 6034,
  "\u2581300": 6035,
  "\u2581Again": 6036,
  "\u2581Evidently": 6037,
  "\u2581Ha": 6038,
  "\u2581Journal": 6039,
  "\u2581West": 6040,
  "\u2581black": 6041,
  "\u2581engaged": 6042,
  "\u2581f\u00e1": 6043,
  "\u2581minded": 6044,
  "\u2581prosperity": 6045,
  "\u2581smile": 6046,
  "\u2581s\u00edn\u00e1": 6047,
  "\u2581tested": 6048,
  "\u2581totally": 6049,
  "\u2581visible": 6050,
  "\u2581wealthy": 6051,
  "\u2581wrongdoing": 6052,
  "r\u00ecnl\u00e9l\u00f3g\u00fan": 6053,
  "\u0144b\u00e9l\u00e9": 6054,
  "\u25811947": 6055,
  "\u25812006": 6056,
  "\u2581Al\u00e9": 6057,
  "\u2581G\u00edd\u00ed\u00f3n\u00ec": 6058,
  "\u2581ad\u00f9n": 6059,
  "\u2581anxieties": 6060,
  "\u2581diet": 6061,
  "\u2581examination": 6062,
  "\u2581fourth": 6063,
  "\u2581j\u00f2j\u00f2l\u00f3": 6064,
  "\u2581reside": 6065,
  "\u2581w\u00fa\u0144d\u00ed\u00e1": 6066,
  "\u2581\u00d2\u01f9k": 6067,
  "\u2581\u1eb8gb": 6068,
  "\u2581\u1eccm\u1ecdd\u00e9": 6069,
  "b\u00f3fin": 6070,
  "of": 6071,
  "ol": 6072,
  "that": 6073,
  "w\u00e8\u00e9": 6074,
  "\u25811914.": 6075,
  "\u25811918": 6076,
  "\u2581Al": 6077,
  "\u2581A\u00eds\u00e1": 6078,
  "\u2581HIV": 6079,
  "\u2581Much": 6080,
  "\u2581claims": 6081,
  "\u2581enduring": 6082,
  "\u2581l\u00e1r\u00f2": 6083,
  "\u2581outset": 6084,
  "\u2581pursuit": 6085,
  "\u2581supplies": 6086,
  "\u2581y": 6087,
  "\u2581yunif\u00e1s\u00edt\u00ec": 6088,
  "\u2581\u00ecd\u00far\u00f3": 6089,
  "\u2581\u00eck\u00f3k\u00f3": 6090,
  "\u2581\u1eb9fol\u00fa\u1e63": 6091,
  "In\u00fa": 6092,
  "mej\u00ec": 6093,
  "ncient": 6094,
  "t\u00f3t\u00f3": 6095,
  "\u258132]": 6096,
  "\u2581Answered": 6097,
  "\u2581J\u00f2": 6098,
  "\u2581Millions": 6099,
  "\u2581accused": 6100,
  "\u2581exchange": 6101,
  "\u2581gb\u00e0fiy\u00e8s\u00ed": 6102,
  "\u2581hunger": 6103,
  "\u2581jobs": 6104,
  "\u2581limits": 6105,
  "\u2581l\u00e9t\u00f2l\u00e9t\u00f2": 6106,
  "\u2581participate": 6107,
  "\u2581patriarch": 6108,
  "\u2581p\u00e1lap\u00e0la": 6109,
  "\u2581satisfy": 6110,
  "\u2581singing": 6111,
  "\u2581title": 6112,
  "\u2581\u00c0j\u1ecd\u1e63e": 6113,
  "\u2581\u00c1\u0144g": 6114,
  "\u2581\u00ecgb\u00e8k\u00f9n": 6115,
  "b\u00ec": 6116,
  "y\u1eb9": 6117,
  "\u2581Austria": 6118,
  "\u2581Bo": 6119,
  "\u2581Korea": 6120,
  "\u2581Learning": 6121,
  "\u2581begun": 6122,
  "\u2581exciting": 6123,
  "\u2581floor": 6124,
  "\u2581iboj\u00ec": 6125,
  "\u2581imprisoned": 6126,
  "\u2581influences": 6127,
  "\u2581miss": 6128,
  "\u2581practiced": 6129,
  "\u2581products": 6130,
  "\u2581professor": 6131,
  "\u2581station": 6132,
  "\u2581\u00e8t\u00e8": 6133,
  "\u2581\u1e62\u00ec": 6134,
  "\u2581\u1e63\u00ed\u1e63eyeb\u00edye": 6135,
  "Why": 6136,
  "f\u00fan": 6137,
  "his": 6138,
  "n\u00e1": 6139,
  "t\u00f9": 6140,
  "\u2581Above": 6141,
  "\u2581Alexander": 6142,
  "\u2581Andrew": 6143,
  "\u2581Assembly": 6144,
  "\u2581Back": 6145,
  "\u2581Men": 6146,
  "\u2581amazing": 6147,
  "\u2581assume": 6148,
  "\u2581boat": 6149,
  "\u2581deeper": 6150,
  "\u2581doubts": 6151,
  "\u2581impression": 6152,
  "\u2581respected": 6153,
  "\u2581r\u00e9g\u00e9": 6154,
  "\u2581sanra": 6155,
  "\u2581\u00c0fi": 6156,
  "\u2581\u1eccD\u00daN": 6157,
  "9": 6158,
  "g\u00fan": 6159,
  "\u2581Ba": 6160,
  "\u2581B\u00f3j\u00fa": 6161,
  "\u2581K\u00e9r\u00e9s\u00ecmes\u00ec": 6162,
  "\u2581K\u00fa": 6163,
  "\u2581Mu": 6164,
  "\u2581Photo": 6165,
  "\u2581Professor": 6166,
  "\u2581Ruler": 6167,
  "\u2581al\u00e1\u00ecm": 6168,
  "\u2581burn": 6169,
  "\u2581disobedience": 6170,
  "\u2581hoped": 6171,
  "\u2581jal\u00e8": 6172,
  "\u2581l\u00e1t\u1ecd": 6173,
  "\u2581l\u00e1y\u00ec\u00edk\u00e1": 6174,
  "\u2581previously": 6175,
  "\u2581priorities": 6176,
  "\u2581similarly": 6177,
  "\u25811980": 6178,
  "\u2581Ex": 6179,
  "\u2581Little": 6180,
  "\u2581Long": 6181,
  "\u2581Red": 6182,
  "\u2581Sam": 6183,
  "\u2581T\u00edt\u00f9": 6184,
  "\u2581agreement": 6185,
  "\u2581approaching": 6186,
  "\u2581concentration": 6187,
  "\u2581detail": 6188,
  "\u2581hated": 6189,
  "\u2581nucle": 6190,
  "\u2581n\u00edgboy\u00e0": 6191,
  "\u2581possibility": 6192,
  "\u2581sentence": 6193,
  "\u2581sports": 6194,
  "agb\u00e1ra": 6195,
  "b\u1eb9": 6196,
  "ge": 6197,
  "rs": 6198,
  "r\u00f2y\u00ecn": 6199,
  "\u258147": 6200,
  "\u2581Any": 6201,
  "\u2581K\u00e9s\u00e1r\u00ec": 6202,
  "\u2581Y\u1ecd": 6203,
  "\u2581b\u00e1\u0144k\u00ec": 6204,
  "\u2581coast": 6205,
  "\u2581gambling": 6206,
  "\u2581honesty": 6207,
  "\u2581manuscripts": 6208,
  "\u2581opinions": 6209,
  "\u2581passage": 6210,
  "\u2581privileged": 6211,
  "\u2581reflects": 6212,
  "\u2581symbol": 6213,
  "\u2581willingness": 6214,
  "\u2581\u00ecw\u00e8": 6215,
  "\u2581\u00ec\u1e63\u00f9": 6216,
  "Ta": 6217,
  "\u25811941": 6218,
  "\u2581Judges": 6219,
  "\u2581N\u00edn\u00e9f\u00e8": 6220,
  "\u2581Quebec": 6221,
  "\u2581T\u1ecdk\u1ecdtaya": 6222,
  "\u2581Wisdom": 6223,
  "\u2581acquainted": 6224,
  "\u2581conducting": 6225,
  "\u2581elsewhere": 6226,
  "\u2581evolution": 6227,
  "\u2581expand": 6228,
  "\u2581heal": 6229,
  "\u2581l\u00e1lej\u00f2": 6230,
  "\u2581remnant": 6231,
  "\u2581ruled": 6232,
  "\u2581southern": 6233,
  "\u2581tragedy": 6234,
  "\u2581\u1e63\u00e1\u00e1j": 6235,
  "$": 6236,
  "age": 6237,
  "y\u00e0m": 6238,
  "\u2581AS": 6239,
  "\u2581Dead": 6240,
  "\u2581SUBJECT": 6241,
  "\u2581edition": 6242,
  "\u2581friendly": 6243,
  "\u2581heads": 6244,
  "\u2581meat": 6245,
  "\u2581planning": 6246,
  "\u2581twice": 6247,
  "\u2581\u00e0d\u00e1d\u00f3": 6248,
  "\u2581\u00e0ga": 6249,
  "\u2581\u00e0pap": 6250,
  "&": 6251,
  "Fi": 6252,
  "Y\u00ccN": 6253,
  "pp": 6254,
  "ru": 6255,
  "\u25811953": 6256,
  "\u2581Jos\u00e9": 6257,
  "\u2581Ol\u00f9\u1e63": 6258,
  "\u2581Sweden": 6259,
  "\u2581abroad": 6260,
  "\u2581ages": 6261,
  "\u2581f\u00edn": 6262,
  "\u2581gb\u00edgb\u00f3": 6263,
  "\u2581host": 6264,
  "\u2581humankind": 6265,
  "\u2581ooru": 6266,
  "\u2581rage": 6267,
  "\u2581represents": 6268,
  "\u2581rewards": 6269,
  "\u2581valid": 6270,
  "\u2581\u00c1b\u00far\u00e1m\u00f9": 6271,
  "\u2581\u00ecm\u00fara": 6272,
  "\u2581\u00ect\u00fam": 6273,
  "4": 6274,
  "\u00c0wa": 6275,
  "\u2581Child": 6276,
  "\u2581DO": 6277,
  "\u2581H\u00f3s\u00e9\u00e0": 6278,
  "\u2581Lamb": 6279,
  "\u2581arose": 6280,
  "\u2581diligent": 6281,
  "\u2581disorder": 6282,
  "\u2581grant": 6283,
  "\u2581l\u00f3pin": 6284,
  "\u2581pick": 6285,
  "\u2581reasoned": 6286,
  "\u2581sat": 6287,
  "\u2581sources": 6288,
  "\u2581s\u00e1nm\u00e0": 6289,
  "\u2581talked": 6290,
  "\u2581teens": 6291,
  "N\u00edn\u00fa": 6292,
  "b\u00e0\u00e1": 6293,
  "other": 6294,
  "\u258128]": 6295,
  "\u2581Abram": 6296,
  "\u2581Bethlehem": 6297,
  "\u2581End": 6298,
  "\u2581Knowing": 6299,
  "\u2581Saturday": 6300,
  "\u2581discussing": 6301,
  "\u2581d\u00e1\u0144g\u00e1j\u00ed\u00e1": 6302,
  "\u2581n\u00edgb\u00e8k\u00f9n": 6303,
  "\u2581oppression": 6304,
  "\u2581realm": 6305,
  "\u2581remote": 6306,
  "\u2581solve": 6307,
  "\u2581suitable": 6308,
  "\u2581supporting": 6309,
  "\u2581\u00c8n\u00ecy\u00e0n": 6310,
  "\u2581\u00ecp\u00edny\u00e0": 6311,
  "\u2581\u00f2r\u00f9l\u00e9": 6312,
  "Happy": 6313,
  "\u2581Additionally": 6314,
  "\u2581Al\u00e0gb\u00e0": 6315,
  "\u2581Frank": 6316,
  "\u2581J\u00fad\u00e1s\u00ec": 6317,
  "\u2581K\u00e9r\u00e9s\u00ec": 6318,
  "\u2581Lines": 6319,
  "\u2581Western": 6320,
  "\u2581badness": 6321,
  "\u2581bought": 6322,
  "\u2581crisis": 6323,
  "\u2581cultures": 6324,
  "\u2581deception": 6325,
  "\u2581demand": 6326,
  "\u2581driving": 6327,
  "\u2581ear": 6328,
  "\u2581elements": 6329,
  "\u2581fled": 6330,
  "\u2581hates": 6331,
  "\u2581j\u00ecnn\u00ecj\u00ecnn\u00ec": 6332,
  "\u2581k\u1eb9": 6333,
  "\u2581on\u00eds\u00ecn": 6334,
  "\u2581openly": 6335,
  "\u2581overwhelming": 6336,
  "\u2581publicly": 6337,
  "\u2581senses": 6338,
  "\u2581stones": 6339,
  "\u2581weekly": 6340,
  "\u2581\u00ccy\u00e8": 6341,
  "\u2581\u00e0g\u00e0b\u00e0geb\u00e8": 6342,
  "\u2581\u1e63\u00e8gb\u00e9": 6343,
  "K\u00d3": 6344,
  "Who": 6345,
  "ha": 6346,
  "\u2581Gen": 6347,
  "\u2581Jephthah": 6348,
  "\u2581K\u00d3K\u00d3": 6349,
  "\u2581Map": 6350,
  "\u2581Near": 6351,
  "\u2581R\u00e8b\u00e9k\u00e0": 6352,
  "\u2581desired": 6353,
  "\u2581donations": 6354,
  "\u2581experiencing": 6355,
  "\u2581gangan": 6356,
  "\u2581hit": 6357,
  "\u2581ij\u00f3": 6358,
  "\u2581immediate": 6359,
  "\u2581j\u1ecdj\u1ecd": 6360,
  "\u2581menu": 6361,
  "\u2581offerings": 6362,
  "\u2581overwhelmed": 6363,
  "\u2581realistic": 6364,
  "\u2581resort": 6365,
  "\u2581r\u00e9d\u00ed\u00f2": 6366,
  "\u2581tools": 6367,
  "\u2581unexpected": 6368,
  "\u2581witnessed": 6369,
  "\u2581\u00c8D\u00c8": 6370,
  "\u2581\u00cc\u1e63\u00e0k\u00f3so": 6371,
  "\u2581\u00ecrun\u00fa": 6372,
  "Go": 6373,
  "T\u00f3": 6374,
  "ie": 6375,
  "\u2581103": 6376,
  "\u2581Canaan": 6377,
  "\u2581Put": 6378,
  "\u2581Rebekah": 6379,
  "\u2581Report": 6380,
  "\u2581WHEN": 6381,
  "\u2581Years": 6382,
  "\u2581afternoon": 6383,
  "\u2581asleep": 6384,
  "\u2581at\u00f3": 6385,
  "\u2581iy\u00e8m\u00e9j\u00ec": 6386,
  "\u2581kinds": 6387,
  "\u2581missing": 6388,
  "\u2581obstacles": 6389,
  "\u2581on\u00edl\u00e9": 6390,
  "\u2581on\u00edn\u00fa": 6391,
  "\u2581portion": 6392,
  "\u2581pursuits": 6393,
  "\u2581r\u00e9r\u00e9": 6394,
  "\u2581settled": 6395,
  "\u2581\u00ectaj\u00e0": 6396,
  "for\u00fak\u1ecd": 6397,
  "ized": 6398,
  "\u258124;": 6399,
  "\u258127,": 6400,
  "\u2581Asa": 6401,
  "\u2581Ol\u00fa": 6402,
  "\u2581S\u00f2": 6403,
  "\u2581aj\u00edh\u00ecnrere": 6404,
  "\u2581calendar": 6405,
  "\u2581chronic": 6406,
  "\u2581commonly": 6407,
  "\u2581cultivating": 6408,
  "\u2581globe": 6409,
  "\u2581handed": 6410,
  "\u2581hardships": 6411,
  "\u2581identifie": 6412,
  "\u2581movement": 6413,
  "\u2581seeming": 6414,
  "p\u1ecd": 6415,
  "\u25811991": 6416,
  "\u2581Become": 6417,
  "\u2581B\u00f2": 6418,
  "\u2581Index": 6419,
  "\u2581Sefan\u00e1y\u00e0": 6420,
  "\u2581avoided": 6421,
  "\u2581bow": 6422,
  "\u2581declaring": 6423,
  "\u2581director": 6424,
  "\u2581discover": 6425,
  "\u2581effectively": 6426,
  "\u2581gb\u00e9y\u00e0w\u00f3": 6427,
  "\u2581l\u00e1k\u1ecd": 6428,
  "\u2581politics": 6429,
  "\u2581warnings": 6430,
  "\u2581\u1eb9k\u00f9n": 6431,
  "D\u00e1j\u00fad\u00e1j\u00fa": 6432,
  "\u2581B\u00f3\u00e1s\u00ec": 6433,
  "\u2581Everyone": 6434,
  "\u2581Josephus": 6435,
  "\u2581Numbers": 6436,
  "\u2581Simon": 6437,
  "\u2581Women": 6438,
  "\u2581Zion": 6439,
  "\u2581al\u00e1\u00ec\u1e63\u00f2": 6440,
  "\u2581ariwo": 6441,
  "\u2581commitment": 6442,
  "\u2581earnest": 6443,
  "\u2581farmers": 6444,
  "\u2581ibo": 6445,
  "\u2581intelligent": 6446,
  "\u2581k\u00e1nk\u00e1n": 6447,
  "\u2581lacking": 6448,
  "\u2581largest": 6449,
  "\u2581linked": 6450,
  "\u2581permission": 6451,
  "\u2581zealously": 6452,
  "\u2581\u1ecdd\u1ecd\u1ecdd\u00fan": 6453,
  "foh\u00f9n": 6454,
  "na": 6455,
  "t\u00edl\u00e9": 6456,
  "\u00ecgboy\u00e0": 6457,
  "\u25811993": 6458,
  "\u2581ID": 6459,
  "\u2581Polish": 6460,
  "\u2581delay": 6461,
  "\u2581disappointed": 6462,
  "\u2581ensure": 6463,
  "\u2581facilities": 6464,
  "\u2581helper": 6465,
  "\u2581l\u00e9\u1e63e": 6466,
  "\u2581memories": 6467,
  "\u2581shoulder": 6468,
  "\u2581specifically": 6469,
  "\u2581submit": 6470,
  "\u2581viewing": 6471,
  "\u2581voluntary": 6472,
  "men": 6473,
  "\u25811994": 6474,
  "\u2581Hosea": 6475,
  "\u2581N\u00fam\u00e9r\u00ec": 6476,
  "\u2581Ol\u00f3r\u00ed": 6477,
  "\u2581Ol\u00f9\u1e63\u00e0k\u00f3so": 6478,
  "\u2581bright": 6479,
  "\u2581equipped": 6480,
  "\u2581healed": 6481,
  "\u2581intimate": 6482,
  "\u2581journal": 6483,
  "\u2581l\u00f3un": 6484,
  "\u2581m\u1ecdw\u00f3": 6485,
  "\u2581press": 6486,
  "\u2581p\u00f3p\u00f3": 6487,
  "\u2581stumble": 6488,
  "\u2581testimony": 6489,
  "\u2581\u00e0j\u00e0": 6490,
  "\u2581\u00ec\u1e63\u00ecn\u00e0": 6491,
  "\u258152": 6492,
  "\u2581Judas": 6493,
  "\u2581Knowledge": 6494,
  "\u2581al\u00e1rinrin": 6495,
  "\u2581expects": 6496,
  "\u2581f\u00ed\u00ecf\u00ed\u00ec": 6497,
  "\u2581on\u00edm\u00ec\u00eds\u00ed": 6498,
  "\u2581paragraphs": 6499,
  "\u2581rendering": 6500,
  "\u2581volunteer": 6501,
  "\u2581\u00ecta": 6502,
  "good": 6503,
  "g\u00e1gun": 6504,
  "m\u1ecdk\u00f9nrin": 6505,
  "t\u00e0b\u00ed": 6506,
  "\u00ecm\u1ecdye": 6507,
  "\u1ecck\u00e0n": 6508,
  "\u2581Bibeli": 6509,
  "\u2581M\u00f3\u00e1b\u00f9": 6510,
  "\u2581Purpose": 6511,
  "\u2581Zephaniah": 6512,
  "\u2581catch": 6513,
  "\u2581central": 6514,
  "\u2581cup": 6515,
  "\u2581cure": 6516,
  "\u2581earn": 6517,
  "\u2581fulfilling": 6518,
  "\u2581gaining": 6519,
  "\u2581kudi\u1eb9": 6520,
  "\u2581k\u00e1nj\u00fak\u00e1nj\u00fa": 6521,
  "\u2581philosophy": 6522,
  "\u2581records": 6523,
  "\u2581salt": 6524,
  "\u2581shine": 6525,
  "\u2581sole": 6526,
  "\u2581upset": 6527,
  "\u2581\u00c8\u00c8Y\u00c0N": 6528,
  "\u2581\u1e63\u00e0j\u00e8j\u00ec": 6529,
  "r\u00e1y\u00e9": 6530,
  "s\u00e1": 6531,
  "\u2581F\u00e1w\u1ecdn": 6532,
  "\u2581L\u00e1y": 6533,
  "\u2581Nisan": 6534,
  "\u2581Orthodox": 6535,
  "\u2581Ran": 6536,
  "\u2581Rose": 6537,
  "\u2581admitted": 6538,
  "\u2581characters": 6539,
  "\u2581correction": 6540,
  "\u2581courageously": 6541,
  "\u2581despair": 6542,
  "\u2581famine": 6543,
  "\u2581fruits": 6544,
  "\u2581f\u00edf": 6545,
  "\u2581highlight": 6546,
  "\u2581informed": 6547,
  "\u2581miraculously": 6548,
  "\u2581p\u00ed": 6549,
  "\u2581sides": 6550,
  "\u2581status": 6551,
  "\u2581\u00c8kej\u00ec": 6552,
  "\u2581\u00ecw\u1ecdra": 6553,
  "\u25811958": 6554,
  "\u25812,000": 6555,
  "\u2581FI": 6556,
  "\u2581Milton": 6557,
  "\u2581N\u00eds\u00e0n": 6558,
  "\u2581abusive": 6559,
  "\u2581afflicted": 6560,
  "\u2581attractive": 6561,
  "\u2581character": 6562,
  "\u2581comparison": 6563,
  "\u2581errors": 6564,
  "\u2581footnote": 6565,
  "\u2581l\u00e1t\u00e0": 6566,
  "\u2581l\u00edl\u00e9": 6567,
  "\u2581n\u00e1w\u00f3": 6568,
  "\u2581p\u00edp\u00e8": 6569,
  "\u2581qualify": 6570,
  "\u2581repent": 6571,
  "\u2581replace": 6572,
  "\u2581teenagers": 6573,
  "\u2581t\u00edtay\u1ecd": 6574,
  "\u2581\u00ccr\u00e1n": 6575,
  "\u2581\u00f2p\u00f3p\u00f3n\u00e0": 6576,
  "\u2581\u1e63\u00e0k\u00f3": 6577,
  "il\u00e8": 6578,
  "k\u00e1n": 6579,
  "\u00e0b\u00f2": 6580,
  "\u1ecdk\u00e0n": 6581,
  "\u258173": 6582,
  "\u2581Ewu": 6583,
  "\u2581Levites": 6584,
  "\u2581al\u00e1\u00ec\u1e63\u00f2dodo": 6585,
  "\u2581attracted": 6586,
  "\u2581belongings": 6587,
  "\u2581b\u00e9b\u00e0": 6588,
  "\u2581conform": 6589,
  "\u2581demands": 6590,
  "\u2581deserve": 6591,
  "\u2581flood": 6592,
  "\u2581f\u00e0\u00e1j\u00ec": 6593,
  "\u2581loyally": 6594,
  "\u2581ol\u00fawa": 6595,
  "\u2581r\u00e1": 6596,
  "\u2581sending": 6597,
  "\u2581surrounding": 6598,
  "\u2581wood": 6599,
  "\u2581\u00cct": 6600,
  "\u2581\u00d2k\u00fa": 6601,
  "T\u00ed": 6602,
  "angelic": 6603,
  "kej\u00ec": 6604,
  "\u258161": 6605,
  "\u2581Institute": 6606,
  "\u2581Italian": 6607,
  "\u2581Lessons": 6608,
  "\u2581Maintain": 6609,
  "\u2581Modern": 6610,
  "\u2581R\u00e1h\u00e1b\u00f9": 6611,
  "\u2581boj\u00fa": 6612,
  "\u2581buildings": 6613,
  "\u2581defense": 6614,
  "\u2581design": 6615,
  "\u2581g": 6616,
  "\u2581h\u00f3": 6617,
  "\u2581kor\u00edko": 6618,
  "\u2581k\u1eb9f\u00e0": 6619,
  "\u2581mentions": 6620,
  "\u2581obvious": 6621,
  "\u2581selected": 6622,
  "\u2581shame": 6623,
  "\u2581tobacco": 6624,
  "\u2581understands": 6625,
  "P\u00d2": 6626,
  "W": 6627,
  "ant": 6628,
  "ul": 6629,
  "\u00e0b\u00f9k\u00f9": 6630,
  "\u2581500": 6631,
  "\u2581Answers": 6632,
  "\u2581Eph": 6633,
  "\u2581Faithful": 6634,
  "\u2581Grand": 6635,
  "\u2581Jean": 6636,
  "\u2581Leader": 6637,
  "\u2581Reflect": 6638,
  "\u2581arrive": 6639,
  "\u2581beat": 6640,
  "\u2581climate": 6641,
  "\u2581comforted": 6642,
  "\u2581exact": 6643,
  "\u2581extraordinary": 6644,
  "\u2581flow": 6645,
  "\u2581ib\u00e0": 6646,
  "\u2581islands": 6647,
  "\u2581lion": 6648,
  "\u2581l\u00f3r\u00f3": 6649,
  "\u2581measures": 6650,
  "\u2581olive": 6651,
  "\u2581rebellious": 6652,
  "\u2581sorrow": 6653,
  "\u2581steal": 6654,
  "\u2581streets": 6655,
  "\u2581teen": 6656,
  "\u2581temptations": 6657,
  "\u2581thoroughly": 6658,
  "\u2581\u00c1s\u00e0": 6659,
  "J\u00c1DE": 6660,
  "T\u00c8": 6661,
  "r\u00ed\u1e63ir\u00ed\u1e63i": 6662,
  "\u25812014": 6663,
  "\u2581MY": 6664,
  "\u2581Mom": 6665,
  "\u2581Sabbath": 6666,
  "\u2581Washington": 6667,
  "\u2581considerable": 6668,
  "\u2581forest": 6669,
  "\u2581f\u00f3un": 6670,
  "\u2581householder": 6671,
  "\u2581hungry": 6672,
  "\u2581increasingly": 6673,
  "\u2581marriages": 6674,
  "\u2581namely": 6675,
  "\u2581ol\u00f3\u1e63\u00e8l\u00fa": 6676,
  "\u2581prefer": 6677,
  "\u2581prize": 6678,
  "\u2581south": 6679,
  "\u2581surprising": 6680,
  "\u2581taxes": 6681,
  "\u2581whenever": 6682,
  "\u2581w\u00e9r\u00f2": 6683,
  "\u2581\u00e8b\u00fat\u00e9": 6684,
  "\u2581\u00ecm\u00eds\u00ed": 6685,
  "\u2581\u1e63\u00e8\u00e8\u1e63\u00ec": 6686,
  "J": 6687,
  "ical": 6688,
  "ist": 6689,
  "je": 6690,
  "my": 6691,
  "vi": 6692,
  "ward": 6693,
  "y\u00f3\u00f2": 6694,
  "\u258132,": 6695,
  "\u2581Ben": 6696,
  "\u2581D\u00e1d\u00ec": 6697,
  "\u2581Friday": 6698,
  "\u2581F\u1ecd": 6699,
  "\u2581Interestingly": 6700,
  "\u2581LIFE": 6701,
  "\u2581Orin": 6702,
  "\u2581S\u00e0n": 6703,
  "\u2581awuyewuye": 6704,
  "\u2581b\u00f3o": 6705,
  "\u2581commendation": 6706,
  "\u2581compromise": 6707,
  "\u2581dunj\u00fa": 6708,
  "\u2581endless": 6709,
  "\u2581jow\u00fa": 6710,
  "\u2581k\u00f9n": 6711,
  "\u2581maintained": 6712,
  "\u2581milk": 6713,
  "\u2581originally": 6714,
  "\u2581pieces": 6715,
  "\u2581positions": 6716,
  "\u2581reproach": 6717,
  "\u2581trustworthy": 6718,
  "\u2581\u00c0t": 6719,
  "\u2581\u00ecpolongo": 6720,
  "\u2581\u00ect\u00fa": 6721,
  "der": 6722,
  "ir\u00fa": 6723,
  "s\u00edn": 6724,
  "tion": 6725,
  "\u25811950,": 6726,
  "\u2581Boaz": 6727,
  "\u2581B\u00e1r\u00fak\u00f9": 6728,
  "\u2581L\u00f2": 6729,
  "\u2581M\u00e0\u00e1": 6730,
  "\u2581S\u00e1b\u00e1\u00e0t\u00ec": 6731,
  "\u2581assemblies": 6732,
  "\u2581billions": 6733,
  "\u2581deceived": 6734,
  "\u2581detailed": 6735,
  "\u2581devastating": 6736,
  "\u2581execute": 6737,
  "\u2581hesitate": 6738,
  "\u2581highest": 6739,
  "\u2581kingdoms": 6740,
  "\u2581l\u00e1t\u1ecdk\u00e0n": 6741,
  "\u2581ribiribi": 6742,
  "\u2581staff": 6743,
  "\u2581supposed": 6744,
  "\u2581uphold": 6745,
  "\u2581widows": 6746,
  "\u2581worldly": 6747,
  "\u2581\u1e63\u1ecd": 6748,
  "there": 6749,
  "\u1e63\u00e8d\u00edw": 6750,
  "\u258120;": 6751,
  "\u2581300001,": 6752,
  "\u2581Creation": 6753,
  "\u2581Power": 6754,
  "\u2581Ten": 6755,
  "\u2581backing": 6756,
  "\u2581bones": 6757,
  "\u2581bus": 6758,
  "\u2581crowds": 6759,
  "\u2581egb\u00f2ogi": 6760,
  "\u2581ekuru": 6761,
  "\u2581fed": 6762,
  "\u2581f\u00f2y\u00e0": 6763,
  "\u2581gb\u00e0r\u00e0": 6764,
  "\u2581governing": 6765,
  "\u2581joyfully": 6766,
  "\u2581k\u00e1y\u00e9": 6767,
  "\u2581l\u00e8mi": 6768,
  "\u2581manifested": 6769,
  "\u2581operation": 6770,
  "\u2581perfectly": 6771,
  "\u2581plenty": 6772,
  "\u2581president": 6773,
  "\u2581proclaimers": 6774,
  "\u2581produces": 6775,
  "\u2581roof": 6776,
  "\u2581stands": 6777,
  "\u2581strike": 6778,
  "\u2581strongly": 6779,
  "\u2581struggling": 6780,
  "\u2581\u00c0gb\u00e8gb\u00e8": 6781,
  "\u2581\u00c0r\u00edw\u00e1": 6782,
  "\u2581\u00ccp\u00e0d\u00e9": 6783,
  "\u2581\u00ecgb\u00e8": 6784,
  "ally": 6785,
  "b\u00f3j\u00fat\u00f3": 6786,
  "com": 6787,
  "was": 6788,
  "\u00e0\u00e1r\u00f2": 6789,
  "\u25811942": 6790,
  "\u2581B\u00e1n\u00e1b\u00e0": 6791,
  "\u2581GOD": 6792,
  "\u2581Potog\u00ed": 6793,
  "\u2581Pray": 6794,
  "\u2581classmates": 6795,
  "\u2581cried": 6796,
  "\u2581criminal": 6797,
  "\u2581era": 6798,
  "\u2581m\u00e1nigb\u00e0gb\u00e9": 6799,
  "\u2581party": 6800,
  "\u2581rejoicing": 6801,
  "\u2581respects": 6802,
  "\u2581r\u1ecdgb\u1ecd": 6803,
  "\u2581\u00cds": 6804,
  "W\u1eccN": 6805,
  "most": 6806,
  "n\u00edn\u00fa": 6807,
  "polongo": 6808,
  "rora": 6809,
  "\u25811944": 6810,
  "\u25811946": 6811,
  "\u2581Barnabas": 6812,
  "\u2581Jude": 6813,
  "\u2581Maya": 6814,
  "\u2581Office": 6815,
  "\u2581Or\u00edsun": 6816,
  "\u2581Reading": 6817,
  "\u2581Tyndale": 6818,
  "\u2581backgrounds": 6819,
  "\u2581base": 6820,
  "\u2581difficulty": 6821,
  "\u2581document": 6822,
  "\u2581duties": 6823,
  "\u2581east": 6824,
  "\u2581examining": 6825,
  "\u2581highlights": 6826,
  "\u2581iy\u00e8": 6827,
  "\u2581k\u00e0m\u00e0m\u00e0": 6828,
  "\u2581lines": 6829,
  "\u2581n\u00edb\u00ec": 6830,
  "\u2581presents": 6831,
  "\u2581professional": 6832,
  "\u2581prospects": 6833,
  "\u2581p\u1ecdndandan": 6834,
  "\u2581r\u00f3w\u00f3": 6835,
  "\u2581systems": 6836,
  "\u2581tragic": 6837,
  "\u2581\u1e62\u00ed": 6838,
  "\u2581\u1eb8nu": 6839,
  "ize": 6840,
  "s\u00edr\u00e0": 6841,
  "\u01f8j\u00e9": 6842,
  "\u2581Esau": 6843,
  "\u2581Illustrate": 6844,
  "\u2581K\u00eck\u00ec": 6845,
  "\u2581T\u1eb9": 6846,
  "\u2581akitiyan": 6847,
  "\u2581announced": 6848,
  "\u2581disappointment": 6849,
  "\u2581distinguish": 6850,
  "\u2581entirely": 6851,
  "\u2581foods": 6852,
  "\u2581happily": 6853,
  "\u2581ib\u00ed": 6854,
  "\u2581illustrated": 6855,
  "\u2581incident": 6856,
  "\u2581larger": 6857,
  "\u2581l\u00e1rinrin": 6858,
  "\u2581native": 6859,
  "\u2581perspective": 6860,
  "\u2581post": 6861,
  "\u2581sexually": 6862,
  "\u2581striving": 6863,
  "\u2581\u00ccK\u00c9": 6864,
  "\u2581\u1e63iy\u00e8": 6865,
  "\u2581\u1e63\u00e8k\u00e9": 6866,
  "\u2581\u1eb9yin": 6867,
  "f\u1eb9": 6868,
  "ists": 6869,
  "\u1ecdgb\u00f3": 6870,
  "\u25811952": 6871,
  "\u258133,": 6872,
  "\u258141.": 6873,
  "\u2581Aristotle": 6874,
  "\u2581Baruch": 6875,
  "\u2581Calvin": 6876,
  "\u2581Meanwhile": 6877,
  "\u2581adolescent": 6878,
  "\u2581associating": 6879,
  "\u2581concept": 6880,
  "\u2581declaration": 6881,
  "\u2581explaining": 6882,
  "\u2581mail": 6883,
  "\u2581meantime": 6884,
  "\u2581online": 6885,
  "\u2581photo": 6886,
  "\u2581producing": 6887,
  "\u2581p\u00e0\u00e0y\u00e0n": 6888,
  "\u2581teenage": 6889,
  "\u2581unbeliev": 6890,
  "\u2581w\u00e0r\u00e0": 6891,
  "L\u00e9": 6892,
  "ite": 6893,
  "me": 6894,
  "time": 6895,
  "\u258129;": 6896,
  "\u258162": 6897,
  "\u2581Association": 6898,
  "\u2581Car": 6899,
  "\u2581Col": 6900,
  "\u2581Ezra": 6901,
  "\u2581K\u00e9t": 6902,
  "\u2581K\u00ed\u00e1": 6903,
  "\u2581L\u00d3R\u00cd": 6904,
  "\u2581N\u00cdPA": 6905,
  "\u2581Rahab": 6906,
  "\u2581Speaking": 6907,
  "\u2581admonished": 6908,
  "\u2581boldness": 6909,
  "\u2581classes": 6910,
  "\u2581d\u00e0\u00e0m\u00fa": 6911,
  "\u2581exile": 6912,
  "\u2581expectation": 6913,
  "\u2581gb\u00e8r\u00f2": 6914,
  "\u2581occurs": 6915,
  "\u2581outcry": 6916,
  "\u2581presentation": 6917,
  "\u2581p\u00e9p\u00e9": 6918,
  "\u2581receives": 6919,
  "\u2581speed": 6920,
  "\u2581stage": 6921,
  "\u2581traditions": 6922,
  "\u2581vain": 6923,
  "\u2581weigh": 6924,
  "\u2581\u00c0w\u00f9j\u1ecd": 6925,
  "\u2581\u00e0l\u00e9\u00e9b\u00f9": 6926,
  "\u2581\u00ecb\u00e1k": 6927,
  "\u2581\u00ecd\u00e1\u01f9d\u00e8": 6928,
  "\u2581\u1e63en\u00fanib\u00edni": 6929,
  "J\u00d3": 6930,
  "ogunl": 6931,
  "\u2581ABOUT": 6932,
  "\u2581Al\u00e1y": 6933,
  "\u2581Care": 6934,
  "\u2581Far": 6935,
  "\u2581PA": 6936,
  "\u2581Sydney": 6937,
  "\u2581ban": 6938,
  "\u2581disposition": 6939,
  "\u2581distributed": 6940,
  "\u2581d\u00f3ko": 6941,
  "\u2581ease": 6942,
  "\u2581empire": 6943,
  "\u2581everyday": 6944,
  "\u2581hurtful": 6945,
  "\u2581minor": 6946,
  "\u2581obeyed": 6947,
  "\u2581periods": 6948,
  "\u2581resentment": 6949,
  "\u2581resident": 6950,
  "\u2581spiritism": 6951,
  "\u2581tempered": 6952,
  "\u2581utmost": 6953,
  "\u2581win\u00e1": 6954,
  "\u2581\u00d2p\u00ect\u00e0n": 6955,
  "\u2581\u00e8\u00e9f\u00edn": 6956,
  "gainst": 6957,
  "t\u00e0d\u00ednl\u00f3": 6958,
  "\u2581150": 6959,
  "\u2581Consequently": 6960,
  "\u2581Teacher": 6961,
  "\u2581Trust": 6962,
  "\u2581applet": 6963,
  "\u2581containing": 6964,
  "\u2581cycle": 6965,
  "\u2581metal": 6966,
  "\u2581m\u00fan\u00e1": 6967,
  "\u2581productive": 6968,
  "\u2581rid": 6969,
  "\u2581select": 6970,
  "\u2581shield": 6971,
  "\u2581steadfast": 6972,
  "\u2581virtual": 6973,
  "\u2581winter": 6974,
  "\u2581\u00ecf\u1ecdk\u00e0ns\u00ecn": 6975,
  "\u2581\u1e63a": 6976,
  "ably": 6977,
  "ir": 6978,
  "v": 6979,
  "\u25811948": 6980,
  "\u25811951": 6981,
  "\u2581Drama": 6982,
  "\u2581Jew": 6983,
  "\u2581P\u00c9": 6984,
  "\u2581Truly": 6985,
  "\u2581believer": 6986,
  "\u2581commented": 6987,
  "\u2581consult": 6988,
  "\u2581contentment": 6989,
  "\u2581continuing": 6990,
  "\u2581driver": 6991,
  "\u2581eternity": 6992,
  "\u2581expensive": 6993,
  "\u2581fought": 6994,
  "\u2581highlighted": 6995,
  "\u2581inspiring": 6996,
  "\u2581projects": 6997,
  "\u2581refrain": 6998,
  "\u2581surgery": 6999,
  "\u2581yoke": 7000,
  "\u2581y\u1eb9p\u1eb9r\u1eb9": 7001,
  "\u2581\u00e0\u00ec\u1e63\u00e8": 7002,
  "\u2581\u00ecfara": 7003,
  "\u2581\u1e63\u00f2w\u00f2": 7004,
  "8": 7005,
  "B\u00e9": 7006,
  "ROM": 7007,
  "ate": 7008,
  "son": 7009,
  "\u25811949": 7010,
  "\u2581Kiri": 7011,
  "\u2581M\u00ed": 7012,
  "\u2581N\u00edsins\u00ecny\u00ed": 7013,
  "\u2581W\u00e0y\u00ed": 7014,
  "\u2581board": 7015,
  "\u2581centered": 7016,
  "\u2581confronted": 7017,
  "\u2581crushed": 7018,
  "\u2581expose": 7019,
  "\u2581l\u00edl\u00f2": 7020,
  "\u2581m\u00e0n\u00e0m\u00e1n\u00e1": 7021,
  "\u2581neutral": 7022,
  "\u2581previous": 7023,
  "\u2581refugees": 7024,
  "\u2581sites": 7025,
  "\u2581thrilled": 7026,
  "\u2581x": 7027,
  "\u2581\u1e63\u00e1n": 7028,
  "\u2581\u25c6": 7029,
  "\u25c6": 7030,
  "L\u00f3": 7031,
  "\u258130,": 7032,
  "\u2581Egyptians": 7033,
  "\u2581Er\u00e9": 7034,
  "\u2581Joy": 7035,
  "\u2581Protestant": 7036,
  "\u2581Sodom": 7037,
  "\u2581S\u00f3d\u00f3m\u00f9": 7038,
  "\u2581alongside": 7039,
  "\u2581continually": 7040,
  "\u2581destructive": 7041,
  "\u2581documents": 7042,
  "\u2581d\u1ecdm\u1ecd": 7043,
  "\u2581enjoyable": 7044,
  "\u2581fiery": 7045,
  "\u2581gb\u00f2\u00f2": 7046,
  "\u2581generosity": 7047,
  "\u2581handling": 7048,
  "\u2581i\u1e63\u1eb9": 7049,
  "\u2581j\u00f3\u00f2": 7050,
  "\u2581k\u00e1p\u00e1": 7051,
  "\u2581manager": 7052,
  "\u2581resurrect": 7053,
  "\u2581settle": 7054,
  "\u2581starting": 7055,
  "\u2581technology": 7056,
  "\u2581translators": 7057,
  "\u2581\u00ecd\u00ec": 7058,
  "Young": 7059,
  "ck": 7060,
  "si": 7061,
  "\u2581Eastern": 7062,
  "\u2581Helen": 7063,
  "\u2581Imitate": 7064,
  "\u2581Likely": 7065,
  "\u2581M\u00cd\u00cc": 7066,
  "\u2581Real": 7067,
  "\u2581Secret": 7068,
  "\u2581Tak": 7069,
  "\u2581X": 7070,
  "\u2581badly": 7071,
  "\u2581d\u00edd\u00ec": 7072,
  "\u2581hoping": 7073,
  "\u2581idols": 7074,
  "\u2581imitating": 7075,
  "\u2581oppose": 7076,
  "\u2581permit": 7077,
  "\u2581p\u1eb9": 7078,
  "\u2581sing": 7079,
  "\u2581space": 7080,
  "\u2581version": 7081,
  "\u2581yield": 7082,
  "\u2581y\u00e1n": 7083,
  "\u2581\u00c9f\u00e9": 7084,
  "\u2581\u00e0k\u00f3j\u1ecd": 7085,
  "ial": 7086,
  "ph": 7087,
  "\u1ecdm\u1ecd": 7088,
  "\u25811931": 7089,
  "\u2581Persian": 7090,
  "\u2581Sandra": 7091,
  "\u2581Wise": 7092,
  "\u2581ad\u00e1g\u00fan": 7093,
  "\u2581agbani": 7094,
  "\u2581aj\u00e1": 7095,
  "\u2581associations": 7096,
  "\u2581a\u00e1j\u00f2": 7097,
  "\u2581bride": 7098,
  "\u2581clay": 7099,
  "\u2581commercial": 7100,
  "\u2581gb\u00e8r\u00fa": 7101,
  "\u2581improper": 7102,
  "\u2581independence": 7103,
  "\u2581lifetime": 7104,
  "\u2581materially": 7105,
  "\u2581or\u00edl\u00e9": 7106,
  "\u2581promoted": 7107,
  "\u2581p\u00f2\u00f3r\u00e1": 7108,
  "\u2581repair": 7109,
  "\u2581rivers": 7110,
  "\u2581tasks": 7111,
  "\u2581tongues": 7112,
  "\u2581urgency": 7113,
  "\u2581worst": 7114,
  "\u2581worthwhile": 7115,
  "\u00e3o": 7116,
  "\u1ecc": 7117,
  "\u2581Arthur": 7118,
  "\u2581Last": 7119,
  "\u2581Louis": 7120,
  "\u2581Serving": 7121,
  "\u2581bears": 7122,
  "\u2581dollars": 7123,
  "\u2581dramatic": 7124,
  "\u2581falling": 7125,
  "\u2581favorable": 7126,
  "\u2581filling": 7127,
  "\u2581funds": 7128,
  "\u2581homeland": 7129,
  "\u2581ife": 7130,
  "\u2581janjan": 7131,
  "\u2581l\u00e1\u00ecd\u00e1": 7132,
  "\u2581neglect": 7133,
  "\u2581ol\u00f9y": 7134,
  "\u2581owner": 7135,
  "\u2581roads": 7136,
  "\u2581r\u00edr\u00ecn": 7137,
  "\u2581sanctified": 7138,
  "\u2581sharp": 7139,
  "\u2581t\u00f9r\u00e0r\u00ed": 7140,
  "\u2581unknown": 7141,
  "\u2581virtue": 7142,
  "\u2581\u00e0fon\u00edfoj\u00ec": 7143,
  "\u2581\u00e0\u00e0fin": 7144,
  "\u2581\u00e0\u00ecd\u00e1a": 7145,
  "\u2581\u00ecd\u1eb9k\u00f9n": 7146,
  "\u2581\u00eck\u00e9de": 7147,
  "\u2581\u00ecy": 7148,
  "\u2581\u00ec\u1e63ir\u00f2": 7149,
  "\u2581\u1eb9nubod\u00e8": 7150,
  "\u25811955": 7151,
  "\u258122;": 7152,
  "\u2581Divine": 7153,
  "\u2581Psalms": 7154,
  "\u2581Tertullian": 7155,
  "\u2581WAS": 7156,
  "\u2581bore": 7157,
  "\u2581card": 7158,
  "\u2581cooperate": 7159,
  "\u2581domestic": 7160,
  "\u2581fat": 7161,
  "\u2581haughty": 7162,
  "\u2581ideal": 7163,
  "\u2581neutrality": 7164,
  "\u2581onto": 7165,
  "\u2581passages": 7166,
  "\u2581pity": 7167,
  "\u2581p\u00e1r\u00e1d\u00eds\u00e8": 7168,
  "\u2581references": 7169,
  "\u2581refreshment": 7170,
  "\u2581separated": 7171,
  "\u2581w\u00e9ra": 7172,
  "\u2581\u00ec\u1e63aras\u00edh\u00f9w\u00e0": 7173,
  "ca": 7174,
  "k\u00e0": 7175,
  "mo": 7176,
  "\u258114]": 7177,
  "\u2581Central": 7178,
  "\u2581Certainly": 7179,
  "\u2581Department": 7180,
  "\u2581Friend": 7181,
  "\u2581Gal": 7182,
  "\u2581Island": 7183,
  "\u2581accurately": 7184,
  "\u2581afford": 7185,
  "\u2581border": 7186,
  "\u2581f\u00ed": 7187,
  "\u2581f\u00edfara": 7188,
  "\u2581industry": 7189,
  "\u2581jealousy": 7190,
  "\u2581judged": 7191,
  "\u2581paraku": 7192,
  "\u2581requirement": 7193,
  "\u2581sleeping": 7194,
  "\u2581\u00ecn\u00eck\u00e0ngb\u00e9": 7195,
  "\u2581\u00ecp\u00e8n\u00edj\u00e0": 7196,
  "\u2581104": 7197,
  "\u258130:": 7198,
  "\u2581Middle": 7199,
  "\u2581N\u00e1s\u00e1r\u00e9t\u00ec": 7200,
  "\u2581Paulo": 7201,
  "\u2581WA": 7202,
  "\u2581awe": 7203,
  "\u2581a\u1e63\u00e1": 7204,
  "\u2581doors": 7205,
  "\u2581fuel": 7206,
  "\u2581improved": 7207,
  "\u2581lonely": 7208,
  "\u2581pin": 7209,
  "\u2581prais": 7210,
  "\u2581ranni": 7211,
  "\u2581romantic": 7212,
  "\u2581sensitive": 7213,
  "\u2581stable": 7214,
  "\u2581succeeded": 7215,
  "\u2581tool": 7216,
  "\u2581unwise": 7217,
  "\u2581wewu": 7218,
  "\u2581workspace": 7219,
  "\u2581\u00d2n\u00ed": 7220,
  "\u2581\u00ecmoore": 7221,
  "\u2581\u00ecpele": 7222,
  ":%": 7223,
  "ance": 7224,
  "jor\u00ed": 7225,
  "r\u00ecnd\u00ednl\u00f3": 7226,
  "\u258130]": 7227,
  "\u2581Elizabeth": 7228,
  "\u2581IYE": 7229,
  "\u2581Japanese": 7230,
  "\u2581K\u00e0": 7231,
  "\u2581P\u00f3\u00f2p\u00f9": 7232,
  "\u2581Teaching": 7233,
  "\u2581advanced": 7234,
  "\u2581bit": 7235,
  "\u2581code": 7236,
  "\u2581enhance": 7237,
  "\u2581headship": 7238,
  "\u2581height": 7239,
  "\u2581honestly": 7240,
  "\u2581hopes": 7241,
  "\u2581l\u00e0\u00e1k\u00e0y\u00e8": 7242,
  "\u2581preachers": 7243,
  "\u2581prior": 7244,
  "\u2581radio": 7245,
  "\u2581reflecting": 7246,
  "\u2581saving": 7247,
  "\u2581s\u00eds\u00e0": 7248,
  "\u2581target": 7249,
  "\u2581thorough": 7250,
  "\u2581thrilling": 7251,
  "\u2581t\u00eck\u00f2": 7252,
  "\u2581wash": 7253,
  "\u2581\u00e0r\u00f2": 7254,
  "\u2581\u00ecgb\u00e0l\u00f3d\u00e9": 7255,
  "\u2581\u00ecm\u00farat\u00e1n": 7256,
  "ci": 7257,
  "r\u00e9k\u00f9\u1e63\u00f9": 7258,
  "\u25812]": 7259,
  "\u2581Alex": 7260,
  "\u2581Food": 7261,
  "\u2581K\u00edk\u00f3": 7262,
  "\u2581Nebuchadnezzar": 7263,
  "\u2581Origen": 7264,
  "\u2581Theocratic": 7265,
  "\u2581clock": 7266,
  "\u2581communities": 7267,
  "\u2581edge": 7268,
  "\u2581emphasized": 7269,
  "\u2581employer": 7270,
  "\u2581extensive": 7271,
  "\u2581film": 7272,
  "\u2581follows": 7273,
  "\u2581foremost": 7274,
  "\u2581oldest": 7275,
  "\u2581ordinary": 7276,
  "\u2581pleasures": 7277,
  "\u2581prophesied": 7278,
  "\u2581rapidly": 7279,
  "\u2581restoration": 7280,
  "\u2581risks": 7281,
  "\u2581sentenced": 7282,
  "\u2581unfaithful": 7283,
  "\u2581warn": 7284,
  "\u2581waves": 7285,
  "\u2581\u00e0b\u00e1y\u1ecd": 7286,
  "\u2581\u00ecf\u00e8": 7287,
  "\u2581\u00ecj\u00f3k\u00f2\u00f3": 7288,
  "\u2581\u1e63ay\u1eb9y\u1eb9": 7289,
  "\u2581\u1eb8NI": 7290,
  "L\u00c9": 7291,
  "L\u00cc": 7292,
  "nr\u00e1n": 7293,
  "w\u00f2r\u00e0": 7294,
  "\u25811957": 7295,
  "\u258143.": 7296,
  "\u258197": 7297,
  "\u2581Nebukadin\u00e9s\u00e1r\u00ec": 7298,
  "\u2581Nineveh": 7299,
  "\u2581Studies": 7300,
  "\u2581Worldwide": 7301,
  "\u2581attempts": 7302,
  "\u2581b\u1eb9nu": 7303,
  "\u2581creative": 7304,
  "\u2581diabetes": 7305,
  "\u2581fair": 7306,
  "\u2581favorably": 7307,
  "\u2581j\u00ed\u01f9k\u00ed": 7308,
  "\u2581loud": 7309,
  "\u2581manage": 7310,
  "\u2581shadow": 7311,
  "\u2581tiraka": 7312,
  "\u2581waste": 7313,
  "\u2581\u00c0y\u00e0": 7314,
  "\u2581\u00c0\u00ecn\u00ed": 7315,
  "\u2581\u00ecd\u00e8n\u00e0": 7316,
  "\u2581\u00ec\u1e63\u00e1\u00e1j\u00fa": 7317,
  "they": 7318,
  "\u2581Convention": 7319,
  "\u2581Eric": 7320,
  "\u2581Listen": 7321,
  "\u2581Ma": 7322,
  "\u2581Sa": 7323,
  "\u2581Science": 7324,
  "\u2581adversity": 7325,
  "\u2581bottom": 7326,
  "\u2581buy\u00ec": 7327,
  "\u2581feast": 7328,
  "\u2581forgotten": 7329,
  "\u2581grows": 7330,
  "\u2581illustrates": 7331,
  "\u2581infant": 7332,
  "\u2581ir\u00ednw\u00f3": 7333,
  "\u2581k\u00edkank\u00edkan": 7334,
  "\u2581l\u00e9\u00e8r\u00e8": 7335,
  "\u2581oj\u00fak\u00f2k\u00f2r\u00f2": 7336,
  "\u2581ol\u00f9w\u00e1": 7337,
  "\u2581pan\u00e1": 7338,
  "\u2581parental": 7339,
  "\u2581practicing": 7340,
  "\u2581r\u1eb9w\u00e0": 7341,
  "\u2581soldier": 7342,
  "\u2581somewhat": 7343,
  "\u2581upper": 7344,
  "\u2581wishes": 7345,
  "\u2581w\u00e9w\u00e8\u00e9": 7346,
  "\u2581y\u00e9ni": 7347,
  "\u2581\u00c0\u00e0y\u00e8": 7348,
  "\u2581\u00e0\u00e0r\u1eb9": 7349,
  "\u2581\u00eclara": 7350,
  "\u2581\u01f9": 7351,
  "Our": 7352,
  "doubtedly": 7353,
  "\u258157": 7354,
  "\u2581Giving": 7355,
  "\u2581Judge": 7356,
  "\u2581S\u00e1m\u00fas\u00ecn\u00ec": 7357,
  "\u2581Vatican": 7358,
  "\u2581ashamed": 7359,
  "\u2581co": 7360,
  "\u2581damaged": 7361,
  "\u2581desperate": 7362,
  "\u2581d\u00ecd\u00e0kud\u00e0": 7363,
  "\u2581graduates": 7364,
  "\u2581g\u00f3m\u00ecn\u00e0": 7365,
  "\u2581horse": 7366,
  "\u2581k\u00edk\u1ecdy\u1ecdy\u1ecd": 7367,
  "\u2581memorial": 7368,
  "\u2581n\u00edbik\u00edbi": 7369,
  "\u2581ol\u00f3": 7370,
  "\u2581on\u00edm\u1ecd": 7371,
  "\u2581paths": 7372,
  "\u2581rebel": 7373,
  "\u2581roll": 7374,
  "\u2581rooms": 7375,
  "\u2581siblings": 7376,
  "\u2581sorry": 7377,
  "\u2581spreading": 7378,
  "\u2581\u00c1b\u00fas\u00e1l\u00f3m\u00f9": 7379,
  "\u2581\u00ecl\u00f2": 7380,
  "\u2581\u00ec\u1e63\u00fann\u00e1": 7381,
  "disfellowshipped": 7382,
  "x": 7383,
  "y\u00fan": 7384,
  "\u1e63\u00f9": 7385,
  "\u2581Absalom": 7386,
  "\u2581Eti\u00f3p\u00ed\u00e0": 7387,
  "\u2581Minor": 7388,
  "\u2581Story": 7389,
  "\u2581Tom": 7390,
  "\u2581Volume": 7391,
  "\u2581absolutely": 7392,
  "\u2581actively": 7393,
  "\u2581ad\u00far\u00f3\u1e63\u00e1n\u1e63\u00e1n": 7394,
  "\u2581appointment": 7395,
  "\u2581chaste": 7396,
  "\u2581cherish": 7397,
  "\u2581confirmed": 7398,
  "\u2581cutting": 7399,
  "\u2581deaths": 7400,
  "\u2581ik\u00f9n": 7401,
  "\u2581m\u00e9j\u00ecd\u00ednl\u00f3": 7402,
  "\u2581narrow": 7403,
  "\u2581ol\u00f3j\u00fa": 7404,
  "\u2581ongoing": 7405,
  "\u2581priesthood": 7406,
  "\u2581recognition": 7407,
  "\u2581reminder": 7408,
  "\u2581slowly": 7409,
  "\u2581snow": 7410,
  "\u2581strange": 7411,
  "\u2581taste": 7412,
  "\u2581towns": 7413,
  "\u2581welcomed": 7414,
  "\u2581\u00e0r\u00edy\u00e1": 7415,
  "\u2581\u00e8\u00e9b\u00fa": 7416,
  "\u2581\u00ecr\u00ec": 7417,
  "\u2581\u00ecr\u00fab\u1ecd": 7418,
  "\u2581\u00ecs\u00e8": 7419,
  "V": 7420,
  "sh": 7421,
  "\u258175": 7422,
  "\u2581B\u1eb9": 7423,
  "\u2581Money": 7424,
  "\u2581Na": 7425,
  "\u2581Phil": 7426,
  "\u2581Run": 7427,
  "\u2581Shepherd": 7428,
  "\u2581Thessalonica": 7429,
  "\u2581aim": 7430,
  "\u2581armed": 7431,
  "\u2581commended": 7432,
  "\u2581corner": 7433,
  "\u2581exercised": 7434,
  "\u2581feeding": 7435,
  "\u2581frustration": 7436,
  "\u2581f\u00edfani": 7437,
  "\u2581gb\u00edgb\u00e0d\u00far\u00e0": 7438,
  "\u2581gentle": 7439,
  "\u2581imperfections": 7440,
  "\u2581implies": 7441,
  "\u2581initially": 7442,
  "\u2581k\u00e0nga": 7443,
  "\u2581locations": 7444,
  "\u2581l\u00f3dindi": 7445,
  "\u2581organizations": 7446,
  "\u2581respectful": 7447,
  "\u2581route": 7448,
  "\u2581seeds": 7449,
  "\u2581s\u00e1n": 7450,
  "\u2581\u00c0m\u00ec": 7451,
  "\u2581\u1eb8gb\u1eb9\u1eb9gb": 7452,
  "if": 7453,
  "proving": 7454,
  "\u2581120": 7455,
  "\u2581Golde": 7456,
  "\u2581Igi": 7457,
  "\u2581N\u00e1b\u00e1l\u00ec": 7458,
  "\u2581Obviously": 7459,
  "\u2581await": 7460,
  "\u2581commissioned": 7461,
  "\u2581composed": 7462,
  "\u2581cultural": 7463,
  "\u2581generations": 7464,
  "\u2581k\u00e9r\u00e9je": 7465,
  "\u2581l\u00e1\u00e1": 7466,
  "\u2581moments": 7467,
  "\u2581normally": 7468,
  "\u2581plain": 7469,
  "\u2581psalm": 7470,
  "\u2581stumbling": 7471,
  "\u2581trap": 7472,
  "\u2581vary": 7473,
  "\u2581\u00e0gb\u00e0do": 7474,
  "\u2581\u00e0\u1e63ej\u00f9": 7475,
  "\u2581\u00ecy\u00e0nj\u00fa": 7476,
  "\u2581\u1e62\u00c9": 7477,
  "\u2581\u1ecdr\u00f9n": 7478,
  "AL": 7479,
  "G\u00c9": 7480,
  "Ol\u00fawa": 7481,
  "RIN": 7482,
  "ig": 7483,
  "now": 7484,
  "t\u1ecd": 7485,
  "yege": 7486,
  "\u2581Daily": 7487,
  "\u2581K\u00fan": 7488,
  "\u2581SEE": 7489,
  "\u2581Yearbook": 7490,
  "\u2581al\u00e1\u00e0b\u00f2": 7491,
  "\u2581b\u00e0b\u00e0": 7492,
  "\u2581b\u00ec": 7493,
  "\u2581conquered": 7494,
  "\u2581convince": 7495,
  "\u2581crying": 7496,
  "\u2581define": 7497,
  "\u2581fifth": 7498,
  "\u2581forgiven": 7499,
  "\u2581game": 7500,
  "\u2581garments": 7501,
  "\u2581guarantee": 7502,
  "\u2581hears": 7503,
  "\u2581incense": 7504,
  "\u2581intentions": 7505,
  "\u2581j\u00edh\u00ecn": 7506,
  "\u2581l\u00e1fiw\u00e9": 7507,
  "\u2581l\u00e1\u00e0\u00e1r": 7508,
  "\u2581meals": 7509,
  "\u2581movies": 7510,
  "\u2581n\u00edta": 7511,
  "\u2581ol\u00f3n\u00ec\u00ed": 7512,
  "\u2581piece": 7513,
  "\u2581pol\u00f3w\u00f3": 7514,
  "\u2581product": 7515,
  "\u2581p\u00e0b\u00f3": 7516,
  "\u2581standpoint": 7517,
  "\u2581tremendous": 7518,
  "\u2581\u00c1t\u00e9n\u00ec": 7519,
  "\u2581\u00cck\u00ecl": 7520,
  "\u2581\u00e0j\u00e0g\u00e0": 7521,
  "\u2581\u00e0p\u00e9r\u00f2": 7522,
  "\u2581\u00ecgb\u00e8r\u00edko": 7523,
  "\u2581\u00ecy\u00f3k\u00f9": 7524,
  "am": 7525,
  "\u258163": 7526,
  "\u258186": 7527,
  "\u2581Bad": 7528,
  "\u2581Catholics": 7529,
  "\u2581Insight": 7530,
  "\u2581Samson": 7531,
  "\u2581Set": 7532,
  "\u2581Toronto": 7533,
  "\u2581actual": 7534,
  "\u2581belonging": 7535,
  "\u2581blow": 7536,
  "\u2581concludes": 7537,
  "\u2581contribution": 7538,
  "\u2581crown": 7539,
  "\u2581falls": 7540,
  "\u2581fault": 7541,
  "\u2581happier": 7542,
  "\u2581l\u00e1re": 7543,
  "\u2581occasionally": 7544,
  "\u2581pregnancy": 7545,
  "\u2581protects": 7546,
  "\u2581rarely": 7547,
  "\u2581villages": 7548,
  "\u2581\u00c0p\u00e8j\u00fawe": 7549,
  "\u2581\u00ccran": 7550,
  "\u2581\u00ecd\u00fa": 7551,
  "\u2581\u1e63\u00e8pal\u00e1ra": 7552,
  "let": 7553,
  "new": 7554,
  "ngb\u00f2": 7555,
  "upreme": 7556,
  "ut": 7557,
  "\u258137,": 7558,
  "\u2581Elders": 7559,
  "\u2581Had": 7560,
  "\u2581Priest": 7561,
  "\u2581P\u00fap": 7562,
  "\u2581Ro": 7563,
  "\u2581cloud": 7564,
  "\u2581deliberately": 7565,
  "\u2581double": 7566,
  "\u2581g\u1ecdb\u1ecdi": 7567,
  "\u2581hypocrisy": 7568,
  "\u2581killing": 7569,
  "\u2581leadership": 7570,
  "\u2581m\u00e1s\u00f9nm\u00e1wo": 7571,
  "\u2581m\u00e8rem\u00e8re": 7572,
  "\u2581on\u00edh\u00f2\u00f2h\u00f2": 7573,
  "\u2581permitted": 7574,
  "\u2581phrase": 7575,
  "\u2581recommended": 7576,
  "\u2581s\u00edsun": 7577,
  "\u2581urgent": 7578,
  "\u2581\u00c0j\u00ed\u01f9de": 7579,
  "\u2581\u00c1b\u00ed": 7580,
  "\u2581\u00c8r\u00e8": 7581,
  "\u2581\u00ccm\u00f3": 7582,
  "\u2581\u1ecdm\u1ecdl\u00e9\u00e8w\u00e9": 7583,
  "m\u1ecdb\u00ecnrin": 7584,
  "w\u00e1d\u00fan": 7585,
  "\u01f9b\u00e1y\u00e9": 7586,
  "\u2581Abigail": 7587,
  "\u2581Age": 7588,
  "\u2581Eli": 7589,
  "\u2581Ga": 7590,
  "\u2581J\u00fa\u00fad\u00e0": 7591,
  "\u2581R\u00cd": 7592,
  "\u2581R\u00e0": 7593,
  "\u2581Samaria": 7594,
  "\u2581Samaritan": 7595,
  "\u2581Sanhedrin": 7596,
  "\u2581Words": 7597,
  "\u2581aging": 7598,
  "\u2581amazed": 7599,
  "\u2581banned": 7600,
  "\u2581defined": 7601,
  "\u2581discouragement": 7602,
  "\u2581empathy": 7603,
  "\u2581forbidden": 7604,
  "\u2581f\u00edf\u1ecd": 7605,
  "\u2581gatherings": 7606,
  "\u2581gbo": 7607,
  "\u2581goats": 7608,
  "\u2581h\u00e1n": 7609,
  "\u2581immortal": 7610,
  "\u2581inspiration": 7611,
  "\u2581kar\u00f9n": 7612,
  "\u2581loneliness": 7613,
  "\u2581needy": 7614,
  "\u2581originate": 7615,
  "\u2581rare": 7616,
  "\u2581span": 7617,
  "\u2581staying": 7618,
  "\u2581stupid": 7619,
  "\u2581transferred": 7620,
  "\u2581t\u00e1gb\u00e1ra": 7621,
  "\u2581unscriptural": 7622,
  "\u2581valley": 7623,
  "\u2581wholeheartedly": 7624,
  "\u2581ype": 7625,
  "\u2581\u00c0\u1e63\u00ec\u1e63e": 7626,
  "\u2581\u00e0gb\u00e0l\u00e1": 7627,
  "\u2581\u00ecd\u00e0gb\u00e0s\u00f3k\u00e8": 7628,
  "h\u00e0n": 7629,
  "\u2581139": 7630,
  "\u258146.": 7631,
  "\u2581Belgium": 7632,
  "\u2581Bor\u00ed": 7633,
  "\u2581Gentiles": 7634,
  "\u2581ISSUE": 7635,
  "\u2581Neither": 7636,
  "\u2581Nothing": 7637,
  "\u2581Start": 7638,
  "\u2581adding": 7639,
  "\u2581commend": 7640,
  "\u2581constitute": 7641,
  "\u2581esteem": 7642,
  "\u2581feared": 7643,
  "\u2581garment": 7644,
  "\u2581heartwarming": 7645,
  "\u2581infected": 7646,
  "\u2581managed": 7647,
  "\u2581materials": 7648,
  "\u2581nurse": 7649,
  "\u2581port": 7650,
  "\u2581pour": 7651,
  "\u2581proclaim": 7652,
  "\u2581silence": 7653,
  "\u2581tako": 7654,
  "\u2581touching": 7655,
  "\u2581tract": 7656,
  "\u2581t\u00e1y\u00e9": 7657,
  "\u2581t\u00ecd\u00ed": 7658,
  "\u2581weeds": 7659,
  "\u2581\u00e0ti\u1e63e": 7660,
  "N\u00edpa": 7661,
  "b\u00ecy\u00e0nj\u00fa": 7662,
  "gb\u00e0kigb\u00e0": 7663,
  "op": 7664,
  "r\u00ecnl\u00e9l\u00f3": 7665,
  "\u25811956": 7666,
  "\u2581Ever": 7667,
  "\u2581ON": 7668,
  "\u2581armor": 7669,
  "\u2581ew\u00ec": 7670,
  "\u2581exclaimed": 7671,
  "\u2581exemplary": 7672,
  "\u2581fixed": 7673,
  "\u2581founded": 7674,
  "\u2581inclination": 7675,
  "\u2581judicial": 7676,
  "\u2581lean": 7677,
  "\u2581naturally": 7678,
  "\u2581offended": 7679,
  "\u2581on\u00ed\u1e63ek\u00fa\u1e63e": 7680,
  "\u2581p\u00e0\u00e0r": 7681,
  "\u2581reduced": 7682,
  "\u2581rob": 7683,
  "\u2581shape": 7684,
  "\u2581sounds": 7685,
  "\u2581spring": 7686,
  "\u2581tak\u1ecdtabo": 7687,
  "\u2581transform": 7688,
  "\u2581university": 7689,
  "\u2581w\u1ecdni": 7690,
  "\u2581\u00e0fiw\u00e9": 7691,
  "\u2581\u00e0\u00ecs\u00ed": 7692,
  "\u2581\u00e8d\u00ecd\u00ec": 7693,
  "0": 7694,
  "day": 7695,
  "et": 7696,
  "from": 7697,
  "p\u00e0": 7698,
  "\u00ecb\u00edn\u00fa": 7699,
  "\u2581Benjamin": 7700,
  "\u2581Evening": 7701,
[...]
