{
  "</s>": 0,
  "<unk>": 1,
  ",": 2,
  ".": 3,
  "\u2581the": 4,
  "\u2581a": 5,
  "\u2581to": 6,
  "\u2581of": 7,
  "\u2581na": 8,
  "\u2019": 9,
  "\u2581and": 10,
  "\u2581\u201d": 11,
  "?": 12,
  "\u2581\u201c": 13,
  "\u0323": 14,
  "\u2581in": 15,
  "s": 16,
  ":": 17,
  "\u2581ti": 18,
  "\u2581ku": 19,
  "\u2581that": 20,
  "\u2581-": 21,
  "\u2581ya": 22,
  "\u2581": 23,
  "\u2581is": 24,
  "\u2581\u2014": 25,
  "\u2581for": 26,
  "\u2581be": 27,
  "\u2581mu": 28,
  "\u2581I": 29,
  "\u2581n": 30,
  "\u2581so": 31,
  "\u2581we": 32,
  "\u2581you": 33,
  "\u2581God": 34,
  "a": 35,
  "\u2581his": 36,
  "\u2581wa": 37,
  "\u2581Jehovah": 38,
  "\u2581with": 39,
  "\u2581not": 40,
  "\u2581was": 41,
  "\u2581ni": 42,
  "\u2581e": 43,
  "\u2581va": 44,
  "\u2581he": 45,
  "\u2581i": 46,
  "\u2581as": 47,
  "\u2581on": 48,
  "\u2581will": 49,
  "\u2581are": 50,
  "\u2581ba": 51,
  "\u2581it": 52,
  "\u2581The": 53,
  "\u2581have": 54,
  ";": 55,
  "\u2581ka": 56,
  "\u2581u": 57,
  "\u2581(": 58,
  "\u2581\u2019": 59,
  "\u2581kuti": 60,
  ">>sna<<": 61,
  ">>lin<<": 62,
  ">>toi_Latn<<": 63,
  ">>run<<": 64,
  ">>sag<<": 65,
  ">>nya<<": 66,
  ">>tso<<": 67,
  ">>ewe<<": 68,
  ">>yor<<": 69,
  ">>zul<<": 70,
  ">>ibo<<": 71,
  ">>umb<<": 72,
  ">>lug<<": 73,
  ">>xho<<": 74,
  ">>kin<<": 75,
  "\u2581by": 76,
  "n": 77,
  "\u2581A": 78,
  "\u2581o": 79,
  "\u2581nga": 80,
  "\u2581ko": 81,
  "\u2581ye": 82,
  "\u2581from": 83,
  "\u2581oku": 84,
  "\u2581they": 85,
  "\u2581ci": 86,
  "i": 87,
  "\u2581Jesus": 88,
  "\u2581who": 89,
  "\u2581\u2018": 90,
  ")": 91,
  "!": 92,
  "\u2581our": 93,
  "\u2581their": 94,
  "\u2581Bible": 95,
  "\u2581[": 96,
  "\u2581this": 97,
  "\u2581can": 98,
  ">>wol<<": 99,
  "\u2581him": 100,
  "\u2581lo": 101,
  "\u2581or": 102,
  "\u2581us": 103,
  "\u2581ma": 104,
  "\u2581all": 105,
  "\u2581me": 106,
  "\u2581them": 107,
  "\u2581do": 108,
  "\u2581your": 109,
  "\u2581ne": 110,
  "e": 111,
  "\u2581what": 112,
  "\u2581What": 113,
  "\u2581were": 114,
  "\u2581ndi": 115,
  "\u2581la": 116,
  "\u2581one": 117,
  "ka": 118,
  "\u2581hi": 119,
  "\u2581at": 120,
  "\u2581had": 121,
  "ing": 122,
  "\u2581an": 123,
  "ni": 124,
  "\u2581no": 125,
  "\u2581Yehova": 126,
  "\u2581si": 127,
  "\u2581te": 128,
  "na": 129,
  "\u25811": 130,
  "\u2581people": 131,
  "\u2581when": 132,
  "\u2581m": 133,
  "\u2581t\u00f3": 134,
  "la": 135,
  "\u2581In": 136,
  "\u2581oyo": 137,
  "]": 138,
  "\u2581ha": 139,
  "\u2581ayeke": 140,
  "\u2581has": 141,
  "\u2581my": 142,
  "\u2581about": 143,
  "\u2581but": 144,
  "\u2581may": 145,
  "\u2581yi": 146,
  "\u2581tu": 147,
  "\u2581How": 148,
  "\u2581would": 149,
  "-": 150,
  "\u2581bi": 151,
  "u": 152,
  "\u2581nd\u1ecb": 153,
  "ko": 154,
  "\u2581time": 155,
  "\u2581did": 156,
  "\u2581ca": 157,
  "\u2581ala": 158,
  "\u2581yo": 159,
  "li": 160,
  "\u2581wo": 161,
  "\u2581life": 162,
  "\u2581He": 163,
  "\u2581li": 164,
  "\u2581le": 165,
  "\u2581mpe": 166,
  "\u2581Na": 167,
  "le": 168,
  "\u2581Ku": 169,
  "\u2581ta": 170,
  "\u2581\u00e0w\u1ecdn": 171,
  "\u2581\u0144": 172,
  "\u2581those": 173,
  "\u2581man": 174,
  "\u2581U": 175,
  "ra": 176,
  "ma": 177,
  "\u2581also": 178,
  "wo": 179,
  "\u2581t\u00ed": 180,
  "\u2581p\u00e9": 181,
  "\u2581E": 182,
  "t": 183,
  "lo": 184,
  "\u2581out": 185,
  "m": 186,
  "\u2581kwa": 187,
  "yo": 188,
  "\u2581said": 189,
  "\u2581ga": 190,
  "\u2581\u1ecd": 191,
  "\u2581yeke": 192,
  "\u2581bu": 193,
  "\u2581ri": 194,
  "nga": 195,
  "\u2581which": 196,
  "\u2581more": 197,
  "\u2581ihe": 198,
  "\u2581Yesu": 199,
  "mu": 200,
  "y": 201,
  "o": 202,
  "\u2581her": 203,
  "re": 204,
  "\u2581mi": 205,
  "\u2581O": 206,
  "\u2581some": 207,
  "si": 208,
  "\u2581things": 209,
  "\u2581ak": 210,
  "\u2581up": 211,
  "\u2581b": 212,
  "\u2581pa": 213,
  "ku": 214,
  "\u2581N": 215,
  "\u2581zo": 216,
  "\u2581And": 217,
  "\u2581been": 218,
  "\u2581mo": 219,
  "wa": 220,
  "zi": 221,
  "'": 222,
  "\u2581\u1e63e": 223,
  "\u2581n\u00ed": 224,
  "\u2581there": 225,
  "\u2581how": 226,
  "\u2581if": 227,
  "\u2581But": 228,
  "\u2581di": 229,
  "\u2581We": 230,
  "ba": 231,
  "\u2581good": 232,
  "\u2581into": 233,
  "\u2581aba": 234,
  "ri": 235,
  "\u2581Paul": 236,
  "\u2581It": 237,
  "\u2581should": 238,
  "\u2581many": 239,
  "\u2581Mu": 240,
  "\u2581help": 241,
  "\u2581nke": 242,
  "\u2581such": 243,
  "ta": 244,
  "\u2581\u00f2": 245,
  "\u2581For": 246,
  "ro": 247,
  "ti": 248,
  "\u2581Christ": 249,
  "ne": 250,
  "\u2581ete": 251,
  "\u2581love": 252,
  "\u2581zi": 253,
  "\u2581swi": 254,
  "ki": 255,
  "\u2581way": 256,
  "ya": 257,
  "\u2581does": 258,
  "te": 259,
  "\u2581_": 260,
  "sa": 261,
  "ngo": 262,
  "\u2581world": 263,
  "...": 264,
  "\u2581ah\u1ee5": 265,
  "\u2581okuti": 266,
  "ke": 267,
  "\u2581day": 268,
  "\u2581even": 269,
  "\u2581other": 270,
  "\u2581mingi": 271,
  "\u2581yango": 272,
  "\u2581these": 273,
  "\u2581m\u00e1a": 274,
  "\u2581make": 275,
  "\u2581nti": 276,
  "\u2581When": 277,
  "\u2581work": 278,
  "\u2581leswaku": 279,
  "\u2581ndo": 280,
  "\u2581%": 281,
  "d": 282,
  "ga": 283,
  "\u2581za": 284,
  "\u2581/": 285,
  "\u2581than": 286,
  "\u2581This": 287,
  "I": 288,
  "\u2581d\u1ecb": 289,
  "\u2581Why": 290,
  "\u2581s\u00ed": 291,
  "\u2581aka": 292,
  "the": 293,
  "E": 294,
  "\u2581any\u1ecb": 295,
  "se": 296,
  "\u25812": 297,
  "\u2581They": 298,
  "\u2581could": 299,
  "\u2581Jehova": 300,
  "\u2581Witnesses": 301,
  "\u2581leen": 302,
  "\u2581y": 303,
  "\u201c": 304,
  "we": 305,
  "\u2581\u00f1u": 306,
  "\u2581w\u00f3": 307,
  "\u2581If": 308,
  "za": 309,
  "\u2581Y\u00e0lla": 310,
  "\u2581earth": 311,
  "pa": 312,
  "\u2581Christian": 313,
  "\u2581because": 314,
  "\u2581first": 315,
  "\u2581b\u00e1": 316,
  "\u2581mpo": 317,
  "yi": 318,
  "\u2581\"": 319,
  "di": 320,
  "\u2581azo": 321,
  "\u2581she": 322,
  "\u2581faith": 323,
  "\u2581fi": 324,
  "\u2581You": 325,
  "\u2581M": 326,
  "ed": 327,
  "\u2581uku": 328,
  "\u2581years": 329,
  "\u2581Christians": 330,
  "mi": 331,
  "\u2581children": 332,
  "va": 333,
  "\u2581ngo": 334,
  "\u2581spirit": 335,
  "\u2581made": 336,
  "\u2581Kingdom": 337,
  "\u2581others": 338,
  "to": 339,
  "\u2581l\u00f3": 340,
  "no": 341,
  "\u2581come": 342,
  "\u2581ezi": 343,
  "\u2581ki": 344,
  "\u2581mbeni": 345,
  "\u2581ama": 346,
  "r": 347,
  "\u2581lu": 348,
  "\u2581only": 349,
  "\u2581need": 350,
  "ye": 351,
  "\u2581know": 352,
  "be": 353,
  "\u2581am": 354,
  "\u2581t\u00ebn\u00eb": 355,
  "zo": 356,
  "wana": 357,
  "\u2581then": 358,
  "\u2581being": 359,
  "\u2581y\u00e2": 360,
  "\u2581page": 361,
  "\u2581b\u1ee5": 362,
  "\u2581says": 363,
  "\u2581s\u00ec": 364,
  "l": 365,
  "\u2581must": 366,
  "ly": 367,
  "\u2581sara": 368,
  "\u2581like": 369,
  "\u2581p\u00ebpe": 370,
  "\u2581As": 371,
  "\u2581see": 372,
  "\u2581abantu": 373,
  "\u2022": 374,
  "\u2581example": 375,
  "\u2581fa": 376,
  "me": 377,
  "\u2581\u00ab": 378,
  "\u2581Ma": 379,
  "\u2581j\u00e9": 380,
  "\u2581\u00f3": 381,
  "\u2581Ba": 382,
  "\u2581family": 383,
  "l\u00e8": 384,
  "\u2581gi": 385,
  "\u2581nda": 386,
  "\u2581over": 387,
  "A": 388,
  "\u00e8": 389,
  "kwa": 390,
  "\u2581eka": 391,
  "\u2581ra": 392,
  "\u2581ana": 393,
  "\u2581alimwi": 394,
  "\u2581seen": 395,
  "\u25813:": 396,
  "\u2581before": 397,
  "\u2581ukuba": 398,
  "\u2581name": 399,
  "\u2581kan": 400,
  "bu": 401,
  "tu": 402,
  "\u2581true": 403,
  "\u2581men": 404,
  "\u2581spiritual": 405,
  "\u2581own": 406,
  "\u2581uye": 407,
  "\u2581n\u00e1\u00e0": 408,
  "\u2581sa": 409,
  "\u2581kuenda": 410,
  "\u2581take": 411,
  "mo": 412,
  "\u2581kwe": 413,
  "nye": 414,
  "\u2581two": 415,
  "\u2581So": 416,
  "so": 417,
  "k": 418,
  "\u2581ari": 419,
  "\u2581To": 420,
  "\u2581kue": 421,
  "\u2581aye": 422,
  "\u2581bato": 423,
  "\u2581Nzapa": 424,
  "\u2581lege": 425,
  "\u2581l\u00e8": 426,
  "\u2581mbi": 427,
  "\u2581kuba": 428,
  "\u2581f\u00fan": 429,
  "\u2581congregation": 430,
  "\u2581C": 431,
  "\u2581any": 432,
  "lu": 433,
  "\u2581era": 434,
  "\u2581words": 435,
  "\u2581heart": 436,
  "\u25812:": 437,
  "\u2581its": 438,
  "\u2581new": 439,
  "\u2581say": 440,
  "\u2581now": 441,
  "\u2581after": 442,
  "\u2581J\u00e9hovah": 443,
  "\u2581bo": 444,
  "\u2581well": 445,
  "\u2581tene": 446,
  "ha": 447,
  "\u2581death": 448,
  "\u2581ezali": 449,
  "S": 450,
  "\u2581moko": 451,
  "\u2581another": 452,
  "\u2581give": 453,
  "ndi": 454,
  "\u2581might": 455,
  "de": 456,
  "\u2581become": 457,
  "nu": 458,
  "\u00e9": 459,
  "\u2581just": 460,
  "\u2581vi": 461,
  "\u2581muri": 462,
  "bi": 463,
  "\u2581through": 464,
  "\u2581Yeesu": 465,
  "ho": 466,
  "\u2581tongana": 467,
  "\u2581se": 468,
  "b": 469,
  "\u2581l\u00e1ti": 470,
  "\u258115": 471,
  "\u2581use": 472,
  "\u2581cha": 473,
  "\u2581k\u00ed": 474,
  "\u2581oko": 475,
  "\u25814:": 476,
  "\u2581John": 477,
  "run": 478,
  "\u2581bango": 479,
  "\u2581ones": 480,
  "\u2581leswi": 481,
  "g": 482,
  "\u2581xa": 483,
  "da": 484,
  "nya": 485,
  "\u25811:": 486,
  "\u2581came": 487,
  "\u2581gu": 488,
  "\u2581Do": 489,
  "\u2581bwa": 490,
  "\u2581That": 491,
  "\u2581lava": 492,
  "\u2581s\u1ecd": 493,
  "\u2581B": 494,
  "mba": 495,
  "\u2581great": 496,
  "\u2581r\u00e8": 497,
  "\u2581leyi": 498,
  "\u25815:": 499,
  "po": 500,
  "\u2581shall": 501,
  "\u2581Ni": 502,
  "\u2581b\u00ea": 503,
  "\u2581bya": 504,
  "\u2581kandi": 505,
  "\u2581xi": 506,
  "\u2581w\u1ecdn": 507,
  "\u2581wu": 508,
  "\u2581Yakuwa": 509,
  "\u2581go": 510,
  "\u2581aku": 511,
  "\u2581truth": 512,
  "\u2581David": 513,
  "\u2581vanhu": 514,
  "\u2581Satan": 515,
  "\u2581\u00e8": 516,
  "\u2581\u00e0ti": 517,
  "\u2581esi": 518,
  "\u2581w": 519,
  "\u2581much": 520,
  "\u2581unto": 521,
  "_": 522,
  "\u2581against": 523,
  "\u2581T": 524,
  "\u2581\u0192e": 525,
  "\u2581very": 526,
  "\u0303": 527,
  "bo": 528,
  "\u2581ngi": 529,
  "\u2581kwi": 530,
  "\u2581found": 531,
  "\u2581times": 532,
  "\u2581nzoni": 533,
  "\u2581Israel": 534,
  "\u25816:": 535,
  "\u2581lingbi": 536,
  "\u2581parents": 537,
  "\u2581Ka": 538,
  "\u2581biso": 539,
  "\u2581himself": 540,
  "\u2581k\u00f3": 541,
  "\u2581where": 542,
  "\u2581Va": 543,
  "\u2581Leza": 544,
  "\u2581bw": 545,
  "\u2581*": 546,
  "\u2581nde": 547,
  "\u2581person": 548,
  "ru": 549,
  "\u2581Word": 550,
  "\u00f3": 551,
  "\u2581mwa": 552,
  "\u2581ike": 553,
  "\u2581find": 554,
  "\u2581Kuri": 555,
  "\u2581anthu": 556,
  "\u2581ng": 557,
  "\u2581today": 558,
  "ve": 559,
  "\u2581brothers": 560,
  "N": 561,
  "\u2581Katonda": 562,
  "\u2581Father": 563,
  "\u2581w\u00e0": 564,
  "\u2581ndzi": 565,
  "al": 566,
  "\u2581Peter": 567,
  "\u2581nu": 568,
  "\u2581Suku": 569,
  "\u2581nge": 570,
  "nda": 571,
  "\u2581same": 572,
  "\u2581n\u00edn\u00fa": 573,
  "\u2581\u014bu": 574,
  "wu": 575,
  "\u2581set": 576,
  "\u2581Lo": 577,
  "\u2581du": 578,
  "\u2581via": 579,
  "\u2581bwe": 580,
  "\u2581kala": 581,
  "\u25817": 582,
  "ze": 583,
  "\u2581part": 584,
  "\u2581\u1eccl\u00f3": 585,
  "\u2581word": 586,
  "\u2581study": 587,
  "\u2581naa": 588,
  "\u2581m\u00fb": 589,
  "\u2581let": 590,
  "\u2581used": 591,
  "\u0301": 592,
  "\u2581k\u00f2": 593,
  "\u2581yoku": 594,
  "\u2581\u1ecc": 595,
  "\u2581S": 596,
  "\u2581each": 597,
  "C": 598,
  "\u2581show": 599,
  ".\u00bb": 600,
  "\u2581down": 601,
  "\u2581linga": 602,
  "\u2581place": 603,
  "\u2581Lord": 604,
  "\u2581ji": 605,
  "\u2581keep": 606,
  "\u2581isi": 607,
  "\u2581most": 608,
  "vo": 609,
  "\u2581Nzambe": 610,
  "\u2581No": 611,
  "\u2581feel": 612,
  "\u2581end": 613,
  "\u2581One": 614,
  "\u2581apostle": 615,
  "\u2581young": 616,
  "\u2581every": 617,
  "ngu": 618,
  "\u2581wax": 619,
  "\u2581ukuthi": 620,
  "\u2581upon": 621,
  "\u2581right": 622,
  "r\u00f2": 623,
  "\u2581\u00f1i": 624,
  "\u2581ohun": 625,
  "\u2581nini": 626,
  "\u2581away": 627,
  "ngi": 628,
  "ci": 629,
  "\u258120": 630,
  "\u2581Me": 631,
  "nge": 632,
  "\u2581among": 633,
  "\u2581J\u00e8h\u00f3f\u00e0": 634,
  "\u2581ke": 635,
  "\u2581Picture": 636,
  "\u2581human": 637,
  "\u2581\u0256e": 638,
  "\u25811,": 639,
  "\u2581means": 640,
  "\u2581Bi": 641,
  "\u2581eme": 642,
  "\u2581why": 643,
  "\u2581b\u00fa": 644,
  "\u2581However": 645,
  "\u2581days": 646,
  "\u2581futhi": 647,
  "\u2581nag": 648,
  "\u2581Ya": 649,
  "\u2581put": 650,
  "\u0300": 651,
  "\u2581Jesu": 652,
  "\u2581want": 653,
  "\u2581sala": 654,
  "\u2581b\u00ed": 655,
  "fu": 656,
  "\u2581learn": 657,
  "vi": 658,
  "\u2581though": 659,
  "\u2581called": 660,
  "\u2581hati": 661,
  "\u2581never": 662,
  "\u2581Is": 663,
  "\u2581ntango": 664,
  "\u2581kasi": 665,
  "\u2581home": 666,
  "\u2581disciples": 667,
  "\u2581Mulungu": 668,
  "\u2581chi": 669,
  "\u2581ngoi": 670,
  "\u2581wrote": 671,
  "\u2581ngeen": 672,
  "U": 673,
  "\u2581loko": 674,
  "rwa": 675,
  "\u2581noku": 676,
  "go": 677,
  "\u2581long": 678,
  "\u2581ay": 679,
  "ca": 680,
  "\u2581year": 681,
  "\u2581given": 682,
  "\u2581whom": 683,
  "\u2581Xikwembu": 684,
  "lwa": 685,
  "\u2581Some": 686,
  "\u2581under": 687,
  "\u25813": 688,
  "\u2581faithful": 689,
  "\u2581get": 690,
  "\u2581book": 691,
  "p": 692,
  "\"": 693,
  "\u2581read": 694,
  "vu": 695,
  "\u2581Then": 696,
  "\u2581nye": 697,
  "w\u00f3": 698,
  "\u2581w\u00e1": 699,
  "\u2581onye": 700,
  "\u2581kuli": 701,
  "M": 702,
  "\u2581Wa": 703,
  "\u2581worship": 704,
  "\u2581Read": 705,
  "\u2581house": 706,
  "\u2581amene": 707,
  "\u258113": 708,
  "wi": 709,
  "\u2581Chineke": 710,
  "\u2581nwere": 711,
  "\u2581aga": 712,
  "\u2581wife": 713,
  "\u2581holy": 714,
  "\u2581yu": 715,
  "chi": 716,
  "\u2581l\u00e9": 717,
  "\u2581course": 718,
  "\u2581Hi": 719,
  "\u2581important": 720,
  "\u2581too": 721,
  "\u2581Be": 722,
  "\u2581loku": 723,
  "\u2581Ti": 724,
  "sha": 725,
  "\u2581nyonso": 726,
  "\u2581nyen": 727,
  "\u2581vo": 728,
  "\u2581hope": 729,
  "do": 730,
  "\u2581bantu": 731,
  "\u2581\u201d?": 732,
  "\u2581view": 733,
  "\u2581ndipo": 734,
  "\u2581ngir": 735,
  "\u2581There": 736,
  "\u2581b\u00e2": 737,
  "\u2581Paulo": 738,
  "\u2581Biblia": 739,
  "\u2581became": 740,
  "\u2581power": 741,
  "\u2581news": 742,
  "\u2581At": 743,
  "\u2581told": 744,
  "\u2581makambo": 745,
  "\u2581K": 746,
  "\u2581ngangu": 747,
  "\u2581Ye": 748,
  "\u00f2": 749,
  "O": 750,
  "\u258112": 751,
  "\u2581live": 752,
  "\u2581Mo": 753,
  "\u25815": 754,
  "in": 755,
  "\u2581gave": 756,
  "\u2581back": 757,
  "\u2581mind": 758,
  "\u2581By": 759,
  "\u2581often": 760,
  "\u2581saying": 761,
  "\u2581ministry": 762,
  "\u2581r\u00ed": 763,
  "mbi": 764,
  "\u2581kugira": 765,
  "\u2581son": 766,
  "\u2581peace": 767,
  "\u2581hand": 768,
  "\u25818": 769,
  "\u2581y\u00ec\u00ed": 770,
  "\u2581alingbi": 771,
  "\u2581mosusu": 772,
  "\u2581Le": 773,
  "\u2581After": 774,
  "\u2581vona": 775,
  "\u2581without": 776,
  "\u2581lia": 777,
  "\u2581kana": 778,
  "\u2581eci": 779,
  "\u2581preaching": 780,
  "\u2581themselves": 781,
  "\u2581asi": 782,
  "\u2581ati": 783,
  "\u258121": 784,
  "\u2581Ha": 785,
  "\u2581Kodi": 786,
  "\u2581Oku": 787,
  "he": 788,
  "\u2581Son": 789,
  "\u2581Tu": 790,
  "\u2581went": 791,
  "\u2581l\u1ecd": 792,
  "\u2581three": 793,
  "\u2581Imana": 794,
  "\u2581pe": 795,
  "\u2581ngu": 796,
  "\u2581New": 797,
  "\u2581Psalm": 798,
  "\u2581iki": 799,
  "\u2581old": 800,
  "\u2581mere": 801,
  "\u2581oco": 802,
  "\u2581mgbe": 803,
  "mbo": 804,
  "\u258110": 805,
  "\u2581ot\u00fa": 806,
  "\u2581Te": 807,
  "c": 808,
  "oku": 809,
  "\u2581still": 810,
  "\u2581serve": 811,
  "\u2581began": 812,
  "\u2581father": 813,
  "\u2581service": 814,
  "\u2581knowledge": 815,
  "\u2581swa": 816,
  "\u2581Matthew": 817,
  "\u2581co": 818,
  "\u2581Yehovha": 819,
  "\u2581during": 820,
  "\u2581sin": 821,
  "\u258111": 822,
  "th": 823,
  "\u2581ata": 824,
  "ce": 825,
  "\u2581while": 826,
  "\u2581took": 827,
  "\u258118": 828,
  "\u258119": 829,
  "\u2581eye": 830,
  "\u2581able": 831,
  "\u2581doing": 832,
  "The": 833,
  "\u2581heaven": 834,
  "\u2581Jerusalem": 835,
  "\u2581mmad\u1ee5": 836,
  "l\u00e9": 837,
  "\u2581both": 838,
  "\u2581ndenge": 839,
  "\u2581living": 840,
  "\u2581Pa": 841,
  "\u2581wara": 842,
  "\u2581Bibiliya": 843,
  "\u2581She": 844,
  "er": 845,
  "\u2581child": 846,
  "\u2581iri": 847,
  "nde": 848,
  "\u2581\u00e8\u00e8y\u00e0n": 849,
  "\u2581having": 850,
  "\u2581servants": 851,
  "\u2581ways": 852,
  "\u2581article": 853,
  "\u2581Noonu": 854,
  "\u2581k": 855,
  "\u2581yari": 856,
  "nso": 857,
  "\u2581lwa": 858,
  "\u258112:": 859,
  "\u2581abo": 860,
  "\u2581again": 861,
  "\u2581wana": 862,
  "\u2581here": 863,
  "\u2581atene": 864,
  "\u2581always": 865,
  "\u2581Yes": 866,
  "\u2581eli": 867,
  "\u2581His": 868,
  "\u2581\u00ec": 869,
  "\u2581size": 870,
  "\u2581later": 871,
  "\u2581Our": 872,
  "\u2581With": 873,
  "\u2581Bya": 874,
  "\u2581together": 875,
  "\u25816": 876,
  "nyi": 877,
  "\u2581On": 878,
  "tha": 879,
  "\u2581Ko": 880,
  "\u2581ara": 881,
  "\u2581un": 882,
  "\u2581King": 883,
  "\u25814": 884,
  "pe": 885,
  "\u2581n\u00e1": 886,
  "\u2581century": 887,
  "Imana": 888,
  "\u2581twa": 889,
  "su": 890,
  "\u2581ngai": 891,
  "\u2581lani": 892,
  "\u2581Waaye": 893,
  "aba": 894,
  "\u2581Scriptures": 895,
  "fa": 896,
  "hu": 897,
  "\u2581Si": 898,
  "gi": 899,
  "\u2581Ino": 900,
  "B": 901,
  "\u2581gihe": 902,
  "\u2581city": 903,
  "\u2581lekisa": 904,
  "\u2581full": 905,
  "\u2581consider": 906,
  "\u2581making": 907,
  "gu": 908,
  "dzi": 909,
  "\u2581c": 910,
  "\u2581asked": 911,
  "\u2581mpenza": 912,
  "\u2581lowu": 913,
  "\u2581vana": 914,
  "\u2581kota": 915,
  "\u2581Bu": 916,
  "\u2581brother": 917,
  "\u2581think": 918,
  "\u2581n\u00edpa": 919,
  "\u2581lya": 920,
  "thi": 921,
  "\u2581however": 922,
  "\u2581law": 923,
  "\u2581Wo": 924,
  "ge": 925,
  "\u2581k\u00e1": 926,
  "\u2581between": 927,
  "\u2581obi": 928,
  "pi": 929,
  "\u2581Li": 930,
  "\u2581yena": 931,
  "\u2581m\u00fa": 932,
  "),": 933,
  "\u2581Moses": 934,
  "\u2581fact": 935,
  "\u2581loving": 936,
  "\u2581malamu": 937,
  "\u2581waaye": 938,
  "\u2581ngoku": 939,
  "\u2581message": 940,
  "\u2581order": 941,
  "\u2581marriage": 942,
  "\u2581woman": 943,
  "\u2581J\u00e9sus": 944,
  "\u2581\u25a1": 945,
  "\u2581nit": 946,
  "\u2581war": 947,
  "\u2581done": 948,
  "\u2581kwambiri": 949,
  "T": 950,
  "kho": 951,
  "\u2581vy": 952,
  "\u2581g\u1ecb": 953,
  "\u2581mother": 954,
  "\u2581kati": 955,
  "\u2581lexi": 956,
  "\u2581toward": 957,
  "\u2581bazali": 958,
  "\u2581Abraham": 959,
  "\u258110:": 960,
  "\u2581saw": 961,
  "\u2581waka": 962,
  "\u2581fellow": 963,
  "\u2581moto": 964,
  "\u2581reason": 965,
  "\u2581waye": 966,
  "\u2581joy": 967,
  "\u2581ibi": 968,
  "\u2581humans": 969,
  "\u2581naswona": 970,
  "\u2581bring": 971,
  "\u2581L": 972,
  "\u2581left": 973,
  "\u2581dal": 974,
  "\u2581nzi": 975,
  "\u2581omanu": 976,
  "\u2581Yet": 977,
  "\u2581Many": 978,
  "\u2581something": 979,
  "\u2581Even": 980,
  "\u2581really": 981,
  "\u2581yini": 982,
  "ndo": 983,
  "\u2581\u00c0w\u1ecdn": 984,
  "\u2581cannot": 985,
  "shi": 986,
  "\u2581purpose": 987,
  "tsa": 988,
  "\u2581number": 989,
  "\u2581yuko": 990,
  "kwe": 991,
  "\u2581izi": 992,
  "\u258111:": 993,
  "\u2581munhu": 994,
  "\u2581bana": 995,
  "zwa": 996,
  "\u2581t\u00e1": 997,
  "\u2581Let": 998,
  "\u25819": 999,
  "\u2581nk": 1000,
  "hi": 1001,
  "\u2581mankind": 1002,
  "ng": 1003,
  "\u2581wala": 1004,
  "\u2581ze": 1005,
  "\u2581result": 1006,
  "\u2581eku": 1007,
  "mbe": 1008,
  "\u2581ii": 1009,
  "\u25814.": 1010,
  "\u2581kuata": 1011,
  "je": 1012,
  "\u2581All": 1013,
  "\u2581personal": 1014,
  "\u2581Ci": 1015,
  "\u2581G": 1016,
  "\u2581;": 1017,
  "\u2581buryo": 1018,
  "\u2581olu": 1019,
  "\u2581questions": 1020,
  "\u2581kuri": 1021,
  "\u2581prayer": 1022,
  "\u2581husband": 1023,
  "n\u00e0": 1024,
  "\u2581cho": 1025,
  "\u2581future": 1026,
  "\u2581face": 1027,
  "\u2581La": 1028,
  "\u2581ru": 1029,
  "\u2581kapati": 1030,
  "\u2581nor": 1031,
  "\u2581look": 1032,
  "\u2581Nd\u1ecb": 1033,
  "\u2581ivyo": 1034,
  "\u2581ry": 1035,
  "\u2581little": 1036,
  "\u25812.": 1037,
  "\u2581elders": 1038,
  "h": 1039,
  "\u2581last": 1040,
  "\u2581moom": 1041,
  "\u2581\u1ecdz\u1ecd": 1042,
  "\u2581anya": 1043,
  "\u2581heard": 1044,
  "\u2581iye": 1045,
  "kha": 1046,
  "\u2581anointed": 1047,
  "\u2581ask": 1048,
  "cha": 1049,
  "\u2581po": 1050,
  "\u2581dead": 1051,
  "\u2581My": 1052,
  "\u2581Mawu": 1053,
  "\u2581eyes": 1054,
  "\u2581afa": 1055,
  "\u2581kw": 1056,
  "\u2581ebi": 1057,
  "\u2581yet": 1058,
  "\u2581woku": 1059,
  "\u258125": 1060,
  "\u2581speak": 1061,
  "\u2581From": 1062,
  "\u2581ime": 1063,
  "mbu": 1064,
  "\u2581fear": 1065,
  "\u2581de": 1066,
  "\u2581therefore": 1067,
  "\u2581Jews": 1068,
  "\u2581vaka": 1069,
  "\u2581wisdom": 1070,
  "uko": 1071,
  "\u2581hinga": 1072,
  "\u2581These": 1073,
  "\u2581following": 1074,
  "\u2581Isaiah": 1075,
  "\u2581endla": 1076,
  "\u2581tala": 1077,
  "\u2581gbogbo": 1078,
  "\u2581sent": 1079,
  "\u2581igihe": 1080,
  "\u2581body": 1081,
  "\u2581Yezu": 1082,
  "\u2581naye": 1083,
  "\u2581sukila": 1084,
  "\u2581ndlela": 1085,
  "\u2581kua": 1086,
  "\u2581ever": 1087,
  "\u2581king": 1088,
  "w": 1089,
  "\u2581Nga": 1090,
  "\u2581believe": 1091,
  "\u2581counsel": 1092,
  "\u2581\u1ecb": 1093,
  "\u2581ntchito": 1094,
  "\u2581someone": 1095,
  "\u2581P": 1096,
  "\u2581Mi": 1097,
  "\u2581nations": 1098,
  "tsi": 1099,
  "\u2581off": 1100,
  "\u2581system": 1101,
  "\u2581kuatisa": 1102,
  "D": 1103,
  "\u2581ve": 1104,
  "\u2581known": 1105,
  "\u2581wicked": 1106,
  "\u2581meetings": 1107,
  "hla": 1108,
  "\u2581file": 1109,
  "\u2581Nda": 1110,
  "\u2581religious": 1111,
  ".\"": 1112,
  "\u2581zimene": 1113,
  "\u2581b\u1ee5r\u1ee5": 1114,
  "\u2581close": 1115,
  "\u2581duti": 1116,
  "\u2581food": 1117,
  "\u2581anali": 1118,
  "\u258114.": 1119,
  "\u2581baka": 1120,
  "\u258110.": 1121,
  "\u2581Who": 1122,
  "\u2581sama": 1123,
  "\u2581blood": 1124,
  "\u2581maboko": 1125,
  "\u2581needed": 1126,
  "\u2581popia": 1127,
  "\u2581Job": 1128,
  "\u2581brought": 1129,
  "\u2581certain": 1130,
  "\u2581t\u00e2": 1131,
  "\u2581Uku": 1132,
  "\u2581asara": 1133,
  "nzi": 1134,
  "\u2581Tongana": 1135,
  "p\u00f2": 1136,
  "\u2581water": 1137,
  "\u2581possible": 1138,
  "\u2581Can": 1139,
  "\u2581B\u00edb\u00e9l\u00ec": 1140,
  "\u2581kosala": 1141,
  "pha": 1142,
  "\u2581s": 1143,
  "\u2581few": 1144,
  "x": 1145,
  "ja": 1146,
  "\u2581helped": 1147,
  "\u2581kye": 1148,
  "\u2581free": 1149,
  "\u2581experience": 1150,
  "\u2581receive": 1151,
  "nze": 1152,
  "y\u00ecn": 1153,
  "\u2581care": 1154,
  "\u2581kple": 1155,
  "\u2581temple": 1156,
  "\u2581land": 1157,
  "\u2581m\u00f3": 1158,
  "\u2581\u1ecdm\u1ecd": 1159,
  "\u2581Israelites": 1160,
  "\u2581ambeni": 1161,
  "\u2581da": 1162,
  "\u2581kya": 1163,
  "\u2581Ta": 1164,
  "\u2581Jehovha": 1165,
  "\u2581yali": 1166,
  "\u258130": 1167,
  "\u2581\u00cc": 1168,
  "\u2581omu": 1169,
  "du": 1170,
  "\u2581\u00d2": 1171,
  "\u2581better": 1172,
  "\u2581wake": 1173,
  "\u2581poku": 1174,
  "\u258114": 1175,
  "\u2581def": 1176,
  "\u2581\u00d3": 1177,
  "\u2581lives": 1178,
  "\u2581D": 1179,
  "\u2581learned": 1180,
  "\u2581umuntu": 1181,
  "\u2581received": 1182,
  "\u2581azali": 1183,
  "\u2581answer": 1184,
  "\u2581maka": 1185,
  "\u2581Now": 1186,
  "\u2581leri": 1187,
  "\u2581ovina": 1188,
  "\u2581Aba": 1189,
  "\u2581different": 1190,
  "\u2581understand": 1191,
  "\u2581ali": 1192,
  "z": 1193,
  "\u25818.": 1194,
  "\u2581Adam": 1195,
  "\u2581righteous": 1196,
  "\u2581next": 1197,
  "\u2581felt": 1198,
  "\u2581until": 1199,
  "\u2581liaco": 1200,
  "\u2581\u00e0": 1201,
  "\u2581heavenly": 1202,
  "\u258116": 1203,
  "\u2581ourselves": 1204,
  "dza": 1205,
  "\u2581ebe": 1206,
  "\u2581teaching": 1207,
  "\u2581far": 1208,
  "\u2581kuete": 1209,
  "\u2581problems": 1210,
  "\u2581ake": 1211,
  "\u2581happy": 1212,
  "\u2581\u00ed": 1213,
  "\u2581z": 1214,
  "ihi": 1215,
  "\u2581matter": 1216,
  "\u2581women": 1217,
  "\u2581zinthu": 1218,
  "fe": 1219,
  "\u2581vu": 1220,
  "k\u00f3": 1221,
  "leen": 1222,
  "\u2581best": 1223,
  "\u2581mabe": 1224,
  "k\u00f2": 1225,
  "/": 1226,
  "\u2581ino": 1227,
  "\u2581relationship": 1228,
  "\u2581noma": 1229,
  "\u2581desire": 1230,
  "\u2581bye": 1231,
  "\u2581f\u00e9": 1232,
  "\u2581fine": 1233,
  "zu": 1234,
  "\u2581continue": 1235,
  "\u2581nekk": 1236,
  "\u2581\u00e1": 1237,
  "\u2581loolu": 1238,
  "\u2581Your": 1239,
  "\u2581share": 1240,
  "\u2581ena": 1241,
  "\u2581siata": 1242,
  "\u2581near": 1243,
  "shobora": 1244,
  "\u2581zia": 1245,
  "\u2581vya": 1246,
  "\u2581nnyo": 1247,
  "\u2581friends": 1248,
  "\u2581ubu": 1249,
  "mwe": 1250,
  "\u2581Kristu": 1251,
  "\u2581support": 1252,
  "\u2581am\u00fb": 1253,
  "\u2581baptized": 1254,
  "\u2581yourself": 1255,
  "isi": 1256,
  "\u2581J\u00e9s\u00f9": 1257,
  "\u25818:": 1258,
  "\u2581light": 1259,
  "\u25817.": 1260,
  "\u258112.": 1261,
  "bona": 1262,
  "\u2581case": 1263,
  "\u2581works": 1264,
  "\u2581gb\u00e9": 1265,
  "\u2581lie": 1266,
  "\u2581Ne": 1267,
  "\u2581ukuze": 1268,
  "....": 1269,
  "\u2581b\u00e9": 1270,
  "am": 1271,
  "\u2581bari": 1272,
  "\u25813.": 1273,
  "\u2581tell": 1274,
  "\u2581azalaki": 1275,
  "G": 1276,
  "\u2581mean": 1277,
  "fi": 1278,
  "\u2581avoid": 1279,
  "lt": 1280,
  "\u2581Timothy": 1281,
  "\u2581kiri": 1282,
  "\u2581language": 1283,
  "hose": 1284,
  "\u258111.": 1285,
  "\u2581bad": 1286,
  "\u2581\u00ecw\u00e9": 1287,
  "\u2581tua": 1288,
  "\u2581hard": 1289,
  "\u25815.": 1290,
  "f": 1291,
  "\u2581Because": 1292,
  "\u2581cause": 1293,
  "\u2581xam": 1294,
  "\u2581Xana": 1295,
  "\u2581w\u00f2": 1296,
  "omu": 1297,
  "\u2581since": 1298,
  "\u2581soki": 1299,
  "tse": 1300,
  "\u2581sure": 1301,
  "\u2581whole": 1302,
  "\u2581ay\u00e9": 1303,
  "\u2581Consider": 1304,
  "\u2581bara": 1305,
  "\u2581iyi": 1306,
  "nyu": 1307,
  "\u2581hina": 1308,
  "\u2581World": 1309,
  "\u2581bazalaki": 1310,
  "P": 1311,
  "\u2581ano": 1312,
  "\u2581present": 1313,
  "\u2581Boroom": 1314,
  "\u2581wise": 1315,
  "\u2581Luke": 1316,
  "\u2581Proverbs": 1317,
  "\u258115,": 1318,
  "\u2581self": 1319,
  "\u2581re": 1320,
  "\u2581high": 1321,
  "funa": 1322,
  "\u258115:": 1323,
  "\u2581kapena": 1324,
  "\u2581Are": 1325,
  "\u2581teti": 1326,
  "\u2581members": 1327,
  "co": 1328,
  "\u2581ngati": 1329,
  "\u2581\"%": 1330,
  "\u2581nya": 1331,
  "\u2581n\u00edgb\u00e0": 1332,
  "\u2581mw": 1333,
  "\u2581Corinthians": 1334,
  "\u2581Not": 1335,
  "\u2581ezalaki": 1336,
  "\u25819.": 1337,
  "\u2581obu": 1338,
  "\u2581Kirist": 1339,
  "\u2581s\u1ecb": 1340,
  "\u258113.": 1341,
  "\u258116.": 1342,
  "ji": 1343,
  "\u2581\u2014\u2060": 1344,
  "\u2581account": 1345,
  "\u2581pondola": 1346,
  "\u2581n\u01f9kan": 1347,
  "\u2581nkarhi": 1348,
  "\u2581thought": 1349,
  "\u25813,": 1350,
  "\u2581\u1eb9": 1351,
  "\u2581benefit": 1352,
  "\u2581Ama": 1353,
  "\u2581Of": 1354,
  "\u258117.": 1355,
  "\u2581fini": 1356,
  "\u2581wi": 1357,
  "\u2581prophet": 1358,
  "\u2581Ca": 1359,
  "\u2581zya": 1360,
  "\u2581situation": 1361,
  "r\u00e9": 1362,
  "yu": 1363,
  "\u2581ico": 1364,
  "aka": 1365,
  "\u258115.": 1366,
  "\u2581according": 1367,
  "\u2581Omo": 1368,
  "\u2581around": 1369,
  "\u2581enjoy": 1370,
  "\u2581kind": 1371,
  "\u2581muntu": 1372,
  "\u2581money": 1373,
  "\u2581lokola": 1374,
  "\u2581&": 1375,
  "\u2581nothing": 1376,
  "\u2581iyo": 1377,
  "\u2581kuna": 1378,
  "\u2581tax": 1379,
  "\u2581\u1eb9ni": 1380,
  "\u2581giving": 1381,
  "\u2581mwana": 1382,
  "\u1ecd": 1383,
  "\u2581y\u00e9en": 1384,
  "\u2581righteousness": 1385,
  "\u2581knew": 1386,
  "\u2581follow": 1387,
  "\u2581thing": 1388,
  "\u2581lakue": 1389,
  "\u2581ndaxte": 1390,
  "\u2581baba": 1391,
  "\u2581thus": 1392,
  "\u2581tongaso": 1393,
  "\u2581bata": 1394,
  "\u2581kingdom": 1395,
  "\u2581okuba": 1396,
  "\u2581Sa": 1397,
  "\u2581Loko": 1398,
  "K": 1399,
  "\u2581glory": 1400,
  "\u2581Daniel": 1401,
  "\u2581information": 1402,
  "\u2581change": 1403,
  "\u2581i\u1e63\u00e9": 1404,
  "\u2581kwuru": 1405,
  "r\u00e8": 1406,
  "\u25816.": 1407,
  "\u2581respect": 1408,
  "abantu": 1409,
  "\u2581Thus": 1410,
  "\u1eb9": 1411,
  "\u2581eri": 1412,
  "\u2581Mwari": 1413,
  "\u2581zina": 1414,
  "\u2581\u00d0e": 1415,
  "lela": 1416,
  "\u2581n\u1ecd": 1417,
  "\u2581lwe": 1418,
  "\u258114:": 1419,
  "\u2581early": 1420,
  "\u2581ciindi": 1421,
  "\u2581whether": 1422,
  "\u2581kuva": 1423,
  "\u2581d\u00e4": 1424,
  "\u2581kukhala": 1425,
  "\u2581age": 1426,
  "\u2581gis": 1427,
  "\u258124:": 1428,
  "sho": 1429,
  "\u2581ancient": 1430,
  "\u2581kona": 1431,
  "\u2581um": 1432,
  "\u2581ame": 1433,
  "\u2581Joseph": 1434,
  "\u2581wrong": 1435,
  "\u2581James": 1436,
  "\u2581died": 1437,
  "\u2581conduct": 1438,
  "pu": 1439,
  "\u2581kuma": 1440,
  "\u2581\u1ecdr\u1ee5": 1441,
  "ndu": 1442,
  "\u2581sese": 1443,
  "\u2581going": 1444,
  "\u2581gute": 1445,
  "\u2581ale": 1446,
  "st": 1447,
  "\u2581kusala": 1448,
  "\u2581kumbe": 1449,
  "bwa": 1450,
  "\u2581Acts": 1451,
  "\u2581lead": 1452,
  "\u2581special": 1453,
  "gt": 1454,
  "\u2581yona": 1455,
  "\u2581turn": 1456,
  "\u2581serving": 1457,
  "\u2581canke": 1458,
  "\u2581J": 1459,
  "\u2581woon": 1460,
  "\u2581kindness": 1461,
  "\u2581sunu": 1462,
  "\u2581Revelation": 1463,
  "\u2581open": 1464,
  "\u2581Chi": 1465,
  "\u2581attention": 1466,
  "\u2581sense": 1467,
  "\u2581difficult": 1468,
  "\u2581ju": 1469,
  "\u2581ozi": 1470,
  "khu": 1471,
  "en": 1472,
  "\u2581United": 1473,
  "\u2581Pawulo": 1474,
  "\u2581K\u00ed": 1475,
  "\u2581written": 1476,
  "\u2581See": 1477,
  "F": 1478,
  "\u2581awa": 1479,
  "\u2581zvino": 1480,
  "\u2581point": 1481,
  "\u2581Law": 1482,
  "w\u00f2": 1483,
  "\u2581koku": 1484,
  "r\u00ed": 1485,
  "cu": 1486,
  "\u2581needs": 1487,
  "\u2581gba": 1488,
  "\u2581attitude": 1489,
  "\u2581\u00f1\u00ebw": 1490,
  "\u2581mosala": 1491,
  "\u2581umu": 1492,
  "\u2581t\u00e0b\u00ed": 1493,
  "\u2581question": 1494,
  "\u2581gye": 1495,
  "\u2581buyo": 1496,
  "\u258117": 1497,
  "\u2581religion": 1498,
  "\u2581Does": 1499,
  "\u2581trust": 1500,
  "\u2581strong": 1501,
  "\u2581Kristo": 1502,
  "she": 1503,
  "ana": 1504,
  "\u2581moved": 1505,
  "\u2581school": 1506,
  "\u2581especially": 1507,
  "gh\u1ecb": 1508,
  "\u2581bwo": 1509,
  "\u2581nation": 1510,
  "kulu": 1511,
  "\u2581pray": 1512,
  "\u2581real": 1513,
  "\u2581Watchtower": 1514,
  "dwa": 1515,
  "\u2581night": 1516,
  "\u2581reading": 1517,
  "\u2581Bbaibbele": 1518,
  "es": 1519,
  "\u2581iche": 1520,
  "\u2581along": 1521,
  "\u2581oba": 1522,
  "\u2581Pole": 1523,
  "ona": 1524,
  "\u2581Ndi": 1525,
  "\u2581coming": 1526,
  "\u2581y\u00f3\u00f2": 1527,
  "\u25819:": 1528,
  "\u2581Romans": 1529,
  "\u2581p\u1ee5r\u1ee5": 1530,
  "\u2581gb\u00e0": 1531,
  "\u2581key": 1532,
  "\u2581feelings": 1533,
  "\u2581nta": 1534,
  "\u258117:": 1535,
  "\u2581su": 1536,
  "v": 1537,
  "\u2581four": 1538,
  "\u2581taught": 1539,
  "\u2581m\u00eda": 1540,
  "\u2581false": 1541,
  "\u2581sons": 1542,
  "\u2581teach": 1543,
  "\u2581liboso": 1544,
  "\u2581likambo": 1545,
  "\u2581taken": 1546,
  "\u2581comes": 1547,
  "ime": 1548,
  "nwa": 1549,
  "\u2581Although": 1550,
  "\u2581Ihe": 1551,
  "\u2581epai": 1552,
  "\u2581flesh": 1553,
  "\u2581states": 1554,
  "\u2581Jiz\u1ecds": 1555,
  "\u2581apostles": 1556,
  "\u2581azi": 1557,
  "\u2581Bibele": 1558,
  "\u2581States": 1559,
  "\u2581anga": 1560,
  "\u2581THE": 1561,
  "\u2581makes": 1562,
  "\u2581Greek": 1563,
  "\u2581tere": 1564,
  "\u2581'%": 1565,
  "\u2581soon": 1566,
  "\u2581small": 1567,
  "L": 1568,
  "\u2581H": 1569,
  "\u1ecb": 1570,
  "\u2581thou": 1571,
  "\u2581Se": 1572,
  "\u2581remain": 1573,
  "\u2581principles": 1574,
  "\u2581suffering": 1575,
  "\u2581allow": 1576,
  "\u25818,": 1577,
  "\u2581sia": 1578,
  "\u2581provide": 1579,
  "\u2581banyere": 1580,
  "\u2581already": 1581,
  "\u2581value": 1582,
  "\u2581resurrection": 1583,
  "\u2581t\u00fan": 1584,
  "\u2581\u1eb8": 1585,
  "\u2581vyo": 1586,
  "\u2581likely": 1587,
  "\u2581yaye": 1588,
  "\u25819,": 1589,
  "\u2581otu": 1590,
  "\u2581ab": 1591,
  "\u2581dina": 1592,
  "\u2581lama": 1593,
  "\u2581l\u00f3r\u00ed": 1594,
  "\u2581\u00c0": 1595,
  "\u2581lapho": 1596,
  "\u2581baa": 1597,
  "\u2581talk": 1598,
  "\u2581chifukwa": 1599,
  "\u2581act": 1600,
  "\u2581hear": 1601,
  "\u2581move": 1602,
  "\u2581p\u00e8": 1603,
  "\u2581certainly": 1604,
  "\u2581rero": 1605,
  "\u2581Would": 1606,
  "\u2581dem": 1607,
  "\u2581kakhulu": 1608,
  "\u2581group": 1609,
  "\u2581sheep": 1610,
  "\u2581ntina": 1611,
  "\u2581try": 1612,
  "\u2581bomoi": 1613,
  "\u2581sacrifice": 1614,
  "\u2581eby": 1615,
  "\u2581perfect": 1616,
  "\u2581including": 1617,
  "kira": 1618,
  "gb\u00f3": 1619,
  "\u2581don": 1620,
  "\u258133": 1621,
  "\u2581yingo": 1622,
  "ama": 1623,
  "\u25815,": 1624,
  "ebe": 1625,
  "\u2581Since": 1626,
  "\u2581mba": 1627,
  "\u2581thinking": 1628,
  "\u2581control": 1629,
  "\u2581a\u0256e": 1630,
  "\u2581moyo": 1631,
  "\u2581kwiinda": 1632,
  "\u2581wanted": 1633,
  "\u2581kaka": 1634,
  "lisa": 1635,
  "\u2581using": 1636,
  "\u2581loved": 1637,
  "\u2581Such": 1638,
  "\u2581married": 1639,
  "\u2581loyi": 1640,
  "\u2581eya": 1641,
  "\u2581everlasting": 1642,
  "\u2581wena": 1643,
  "sobola": 1644,
  "d\u00f2": 1645,
  "\u2581ahon": 1646,
  "\u2581followers": 1647,
  "\u25816,": 1648,
  "kwi": 1649,
  "\u2581Asi": 1650,
  "\u258118.": 1651,
  "\u2581ekyo": 1652,
  "\u2581forth": 1653,
  "nyo": 1654,
  "\u2581taking": 1655,
  "\u2581amu": 1656,
  "\u2581Creator": 1657,
  "\u2581hands": 1658,
  "\u2581R": 1659,
  "\u2581b\u00f3": 1660,
  "\u2581second": 1661,
  "\u2581matters": 1662,
  "\u2581makasi": 1663,
  "\u2581gives": 1664,
  "\u258126": 1665,
  "\u2581health": 1666,
  "\u2581ky": 1667,
  "\u2581image": 1668,
  "\u2581ibintu": 1669,
  "\u2581F": 1670,
  "\u2581umue": 1671,
  "tya": 1672,
  "nza": 1673,
  "nji": 1674,
  "m\u00ed": 1675,
  "\u2581ape": 1676,
  "\u2581cane": 1677,
  "\u2581rya": 1678,
  "\u2581kodwa": 1679,
  "\u2581Ki": 1680,
  "\u2581Could": 1681,
  "\u2581yara": 1682,
  "l\u00fa": 1683,
  "\u2581bare": 1684,
  "\u2581While": 1685,
  "\u2581rwa": 1686,
  "\u2581swinene": 1687,
  "\u2581bokk": 1688,
  "zvi": 1689,
  "\u2581d\u00e1": 1690,
  "\u2581neither": 1691,
  "\u2581nd\u1ee5": 1692,
  "\u2581divine": 1693,
  "\u2581Solomon": 1694,
  "\u2581mbuli": 1695,
  "\u2581byi": 1696,
  "mwa": 1697,
  "thu": 1698,
  "\u2581hearts": 1699,
  "\u2581anyone": 1700,
  "\u2581Baibulo": 1701,
  "\u258140": 1702,
  "You": 1703,
  "us": 1704,
  "\u2581mina": 1705,
  "\u2581neza": 1706,
  "\u2581Footnote": 1707,
  "lakonzya": 1708,
  "\u2581moo": 1709,
  "\u2581Therefore": 1710,
  "\u2581Gu": 1711,
  "\u2581shows": 1712,
  "\u2581munthu": 1713,
  "\u2581fanele": 1714,
  "\u2581k\u00ec": 1715,
  "\u2581stand": 1716,
  "\u258122": 1717,
  "\u2581boye": 1718,
  "kan": 1719,
  "lwe": 1720,
  "\u2581happiness": 1721,
  "\u2581iji": 1722,
  "\u2581r\u1eb9": 1723,
  "\u2581slave": 1724,
  "l\u00ec": 1725,
  "\u00e1": 1726,
  "\u2581spiritually": 1727,
  "Ku": 1728,
  "Y": 1729,
  "\u2581Nye": 1730,
  "\u25814,": 1731,
  "\u2581wakali": 1732,
  "k\u1ecd": 1733,
  "\u2581Will": 1734,
  "\u2581involved": 1735,
  "\u2581similar": 1736,
  "\u2581kumu": 1737,
  "\u2581once": 1738,
  "\u2581authority": 1739,
  "\u2581gb\u00f3": 1740,
  "rira": 1741,
  "\u2581na\u00f1u": 1742,
  "\u2581People": 1743,
  "\u2581lika": 1744,
  "\u2581Today": 1745,
  "\u2581individuals": 1746,
  "\u2581lioku": 1747,
  "\u2581soul": 1748,
  "\u2581omo": 1749,
  "\u2581judgment": 1750,
  "\u2581call": 1751,
  "\u2581yanga": 1752,
  "\u2581qualities": 1753,
  "or": 1754,
  "\u2581l\u00e1ra": 1755,
  "\u2581\u1ecdma": 1756,
  "gwa": 1757,
  "\u2581babe": 1758,
  "\u2581gue": 1759,
  "\u2581sei": 1760,
  "\u2581truly": 1761,
  "\u2581Devil": 1762,
  "\u2581evil": 1763,
  "\u2581country": 1764,
  "\u2581prophecy": 1765,
  "\u2581onwe": 1766,
  "\u2581mee": 1767,
  "\u2581h\u00e0n": 1768,
  "\u2581h\u00e3": 1769,
  "\u2581naan": 1770,
  "s\u00ed": 1771,
  "\u2581wali": 1772,
  "\u2581Eye": 1773,
  "\u2581An": 1774,
  "\u2581Lu": 1775,
  "\u2581kuenje": 1776,
  "\u2581greater": 1777,
  "\u2581strength": 1778,
  "\u2581Ariko": 1779,
  "\u2581clear": 1780,
  "\u2581witness": 1781,
  "\u2581gift": 1782,
  "\u258114,": 1783,
  "\u2581kenn": 1784,
  "\u2581Ndaxte": 1785,
  "\u2581past": 1786,
  "kile": 1787,
  "\u2581yose": 1788,
  "\u2581nje": 1789,
  "nje": 1790,
  "\u2581ande": 1791,
  "\u2581oj\u00fa": 1792,
  "ul": 1793,
  "\u2581forever": 1794,
  "\u2581text": 1795,
  "\u2581draw": 1796,
  "\u2581uko": 1797,
  "\u2581Genesis": 1798,
  "\u2581yaka": 1799,
  "\u2581sisters": 1800,
  "\u2581\u1ee5m\u1ee5": 1801,
  "\u2581eat": 1802,
  "\u2581Rather": 1803,
  "\u2581y\u1eb9n": 1804,
  "\u2581kept": 1805,
  "\u2581angels": 1806,
  "nene": 1807,
  "\u2581Olee": 1808,
  "\u2581buli": 1809,
  "\u2581uwo": 1810,
  "\u258116:": 1811,
  "Na": 1812,
  "\u2581\u00f2un": 1813,
  "\u2581h\u1ebd": 1814,
  "\u2581ro": 1815,
  "\u2581provided": 1816,
  "\u2581dee": 1817,
  "\u2581Ke": 1818,
  "\u2581sax": 1819,
  "\u258120.": 1820,
  "\u2581return": 1821,
  "\u2581material": 1822,
  "\u2581kubera": 1823,
  "\u2581sioni": 1824,
  "\u2581site": 1825,
  "\u258132": 1826,
  "dze": 1827,
  "\u2581rather": 1828,
  "\u2581zvi": 1829,
  "\u2581answered": 1830,
  "\u2581okanye": 1831,
  "swa": 1832,
  "\u2581Yo": 1833,
  "\u2581ako": 1834,
  "\u2581ekoki": 1835,
  "\u2581leave": 1836,
  "\u2581'": 1837,
  "\u2581Kra\u1ecbst": 1838,
  "\u2581promise": 1839,
  "\u2581fade": 1840,
  "\u00e0": 1841,
  "\u2581abe": 1842,
  "\u2581OYA": 1843,
  "\u2581kozala": 1844,
  "\u2581Momo": 1845,
  "l\u00e1": 1846,
  "\u2581af\u1ecd": 1847,
  "dzo": 1848,
  "\u2581Kwa": 1849,
  "\u2581l\u00ea": 1850,
  "\u2581\u00f1\u00e9pp": 1851,
  "\u2581awe": 1852,
  "\u2581leti": 1853,
  "\u2581Kasi": 1854,
  "\u25812,": 1855,
  "\u2581gan": 1856,
  "\u2581ngeri": 1857,
  "\u2581understanding": 1858,
  "\u2581lost": 1859,
  "\u2581akati": 1860,
  "\u2581simply": 1861,
  "\u2581mbere": 1862,
  "\u2581\u00e8d\u00e8": 1863,
  "\u258119.": 1864,
  "\u2581accept": 1865,
  "\u2581rule": 1866,
  "nd": 1867,
  "\u2581spoke": 1868,
  "Ma": 1869,
  "\u2581y\u1eb9": 1870,
  "\u2581local": 1871,
  "\u2581sister": 1872,
  "\u2581kugirango": 1873,
  "\u2581inga": 1874,
  "\u2581large": 1875,
  "\u2581maa": 1876,
  "\u2581born": 1877,
  "\u2581Did": 1878,
  "\u2581\u1ecdt\u1ee5t\u1ee5": 1879,
  "\u2581m\u00f2": 1880,
  "\u2581mentioned": 1881,
  "\u2581fully": 1882,
  "\u2581enda": 1883,
  "\u2581sins": 1884,
  "\u2581ndax": 1885,
  "\u2581solo": 1886,
  "\u2581changed": 1887,
  "\u258124": 1888,
  "\u2581organization": 1889,
  "\u2581Hebrews": 1890,
  "kisa": 1891,
  "\u2581comfort": 1892,
  "\u2581\u2019?": 1893,
  "oon": 1894,
  "\u2581die": 1895,
  "\u2581based": 1896,
  "jja": 1897,
  "\u2581g\u00ebm": 1898,
  "\u2581anything": 1899,
  "\u2581ho": 1900,
  "\u2581\u1ee5z\u1ecd": 1901,
  "\u2581Aleke": 1902,
  "\u2581Hebrew": 1903,
  "\u2581Their": 1904,
  "\u2581imitate": 1905,
  "\u2581nsima": 1906,
  "\u2581\u00e0ddina": 1907,
  "\u2581problem": 1908,
  "\u2581ngia": 1909,
  "lenge": 1910,
  "\u2581vano": 1911,
  "\u2581Dur": 1912,
  "\u2581Zi": 1913,
  "\u2581\u00ecgb\u00e0": 1914,
  "\u2581viosi": 1915,
  "\u2581babo": 1916,
  "\u2581meaning": 1917,
  "\u2581inspired": 1918,
  "\u2581bongo": 1919,
  "\u2581preach": 1920,
  "\u2581Eci": 1921,
  "\u2581action": 1922,
  "\u2581evidence": 1923,
  "\u2581Mary": 1924,
  "\u0192e": 1925,
  "\u2581examples": 1926,
  "\u2581longer": 1927,
  "\u2581within": 1928,
  "\u2581folder": 1929,
  "\u2581circumstances": 1930,
  "\u2581imi": 1931,
  "\u2581interest": 1932,
  "\u25817,": 1933,
  "\u2581ndali": 1934,
  "\u2581kambe": 1935,
  "\u2581form": 1936,
  "\u2581mara": 1937,
  "m\u00f2": 1938,
  "\u2581basi": 1939,
  "\u258111,": 1940,
  "\u2581field": 1941,
  "\u2581Scriptural": 1942,
  "\u2581hold": 1943,
  "xi": 1944,
  "\u258131": 1945,
  "\u2581m\u00ed": 1946,
  "\u2581history": 1947,
  "\u2581whose": 1948,
  "\u2581further": 1949,
  "\u2581head": 1950,
  "2": 1951,
  "\u2581heavens": 1952,
  "\u2581motema": 1953,
  "twa": 1954,
  "R": 1955,
  "\u2581walk": 1956,
  "dwe": 1957,
  "\u2581prayers": 1958,
  "cho": 1959,
  "\u2581uu": 1960,
  "umu": 1961,
  "\u2581swilo": 1962,
  "\u2581seek": 1963,
  "\u2581Noah": 1964,
  "\u2581lived": 1965,
  "\u2581window": 1966,
  "\u2581kutegwa": 1967,
  "\u2581Satana": 1968,
  "\u258123": 1969,
  "\u2581van": 1970,
  "\u2581alone": 1971,
  "\u2581\u1ecdd\u00fan": 1972,
  "\u2581command": 1973,
  "\u2581Mpo": 1974,
  "awo": 1975,
  "che": 1976,
  "\u2581speaking": 1977,
  "xa": 1978,
  "\u2581started": 1979,
  "\u2581happened": 1980,
  "\u2581ina": 1981,
  "\u2581showed": 1982,
  "\u2581effect": 1983,
  "\u2581mma": 1984,
  "fo": 1985,
  "tso": 1986,
  "\u2581ago": 1987,
  "\u2581doon": 1988,
  "\u258137": 1989,
  "phi": 1990,
  "\u2581voice": 1991,
  "oge": 1992,
  "\u2581fu": 1993,
  "nti": 1994,
  "\u2581mtima": 1995,
  "\u2581honor": 1996,
  "jisi": 1997,
  "\u2581\u00e8y\u00ed": 1998,
  "\u2581nile": 1999,
  "tanga": 2000,
  "\u2581boobo": 2001,
  "\u2581Samuel": 2002,
  "\u2581Embimbiliya": 2003,
  "ll": 2004,
  "\u2581physical": 2005,
  "\u2581Ga": 2006,
  "\u2581zva": 2007,
  "\u2581wonderful": 2008,
  "\u2581friend": 2009,
  "\u2581b\u00ebgg": 2010,
  "\u2581kaw": 2011,
  "tho": 2012,
  "\u2581aha": 2013,
  "\u2581ndati": 2014,
  "\u2581olw": 2015,
  "\u2581nna": 2016,
  "\u1e63\u00e9": 2017,
  "\u2581Koma": 2018,
  "\u2581available": 2019,
  "ngwa": 2020,
  "\u2581named": 2021,
  "\u2581kabotu": 2022,
  "b\u00e8": 2023,
  "ukuri": 2024,
  "leke": 2025,
  "\u2581ndiponso": 2026,
  "\u2581mokili": 2027,
  "\u2581please": 2028,
  "el": 2029,
  "\u2581\u0256o": 2030,
  "\u258112,": 2031,
  "\u2581public": 2032,
  "\u2581peko": 2033,
  "\u2581koma": 2034,
  "\u2581biani": 2035,
  "\u2581five": 2036,
  "\u2581Nu": 2037,
  "on": 2038,
  "\u2581meeting": 2039,
  "xe": 2040,
  "\u2581Like": 2041,
  "\u2581monga": 2042,
  "\u2581paper": 2043,
  "\u2581or\u00ed": 2044,
  "\u2581serious": 2045,
  "j\u00fa": 2046,
  "phu": 2047,
  "\u2581tey": 2048,
  "\u2581nsi": 2049,
  "\u2581blessing": 2050,
  "H": 2051,
  "\u2581loyal": 2052,
  "\u2581confidence": 2053,
  "\u2581m\u1ecd": 2054,
  "\u2581lio": 2055,
  "\u258122:": 2056,
  "\u2581Luka": 2057,
  "\u258127": 2058,
  "\u2581kucita": 2059,
  "\u2581akaambo": 2060,
  "\u2581remember": 2061,
  "phe": 2062,
  "\u2581d\u00e9": 2063,
  "\u2581Petro": 2064,
  "\u2581oge": 2065,
  "\u258121.": 2066,
  "\u2581l\u00e9pp": 2067,
  "\u258110,": 2068,
  "\u2581blessings": 2069,
  "\u2581Bo": 2070,
  "\u2581kwes\u1ecbr\u1ecb": 2071,
  "\u2581According": 2072,
  "\u2581calua": 2073,
  "\u2581seven": 2074,
  "\u2581d\u00ebkk": 2075,
  "\u25817:": 2076,
  "\u2581gain": 2077,
  "ala": 2078,
  "\u2581perhaps": 2079,
  "\u2581effort": 2080,
  "\u2581powerful": 2081,
  "\u2581\u25aa": 2082,
  "\u2581kujatikizya": 2083,
  "\u2581Jewish": 2084,
  "t\u0254": 2085,
  "gira": 2086,
  "\u2581b\u1ee5la": 2087,
  "\u2581Or": 2088,
  "nt": 2089,
  "zya": 2090,
  "\u2581deep": 2091,
  "\u2581Nokuba": 2092,
  "l\u00f3": 2093,
  "\u2581eki": 2094,
  "\u2581maze": 2095,
  "\u2581baax": 2096,
  "\u2581eca": 2097,
  "\u2581Igihe": 2098,
  "\u2581vali": 2099,
  "anya": 2100,
  "\u2581hari": 2101,
  "\u258150": 2102,
  "\u2581Su": 2103,
  "\u2581Iye": 2104,
  "\u2581promises": 2105,
  "\u2581itself": 2106,
  "kazi": 2107,
  "\u258113:": 2108,
  "\u2581mbala": 2109,
  "zwe": 2110,
  "\u2581okwu": 2111,
  "\u2581covenant": 2112,
  "\u2581mooy": 2113,
  "\u2581Mark": 2114,
  "\u2581start": 2115,
  "\u2581led": 2116,
  "\u2581ngayo": 2117,
  "\u2581above": 2118,
  "\u2581everything": 2119,
  "\u2581nyika": 2120,
  "\u2581True": 2121,
  "\u2581common": 2122,
  "\u2581apply": 2123,
  "\u2581muy": 2124,
  ",...": 2125,
  "\u2581enye": 2126,
  "\u2581niile": 2127,
  "\u2581indeed": 2128,
  "\u2581servant": 2129,
  "\u2581koli": 2130,
  "\u2581muku": 2131,
  "\u2581May": 2132,
  "\u2581siwo": 2133,
  "\u2581regarding": 2134,
  "cita": 2135,
  "\u2581awo": 2136,
  "\u2581Re": 2137,
  "ita": 2138,
  "\u2581church": 2139,
  "\u2581Bwe": 2140,
  "\u2581got": 2141,
  "\u2581position": 2142,
  "\u2581Spirit": 2143,
  "\u258116,": 2144,
  "?\u00bb": 2145,
  "\u2581pioneer": 2146,
  "\u2581\u201c[": 2147,
  "\u2581helps": 2148,
  "\u2581opportunity": 2149,
  "\u2581dze": 2150,
  "\u2581De": 2151,
  "\u2581\u00c0m\u00f3": 2152,
  "\u2581g": 2153,
  "\u2581Yi": 2154,
  "\u2581privilege": 2155,
  "\u2581Instead": 2156,
  "\u2581rest": 2157,
  "\u2581ngb\u00e2": 2158,
  "\u2581affect": 2159,
  "\u2581events": 2160,
  "\u2581Mbi": 2161,
  "\u2581kuka": 2162,
  "\u2581prove": 2163,
  "\u2581listen": 2164,
  "\u2581older": 2165,
  "\u2581willing": 2166,
  "\u2581m\u00e9": 2167,
  "ihe": 2168,
  "\u2581congregations": 2169,
  "\u2581doubt": 2170,
  "\u2581W": 2171,
  "\u2581Still": 2172,
  "\u2581pamene": 2173,
  "\u2581Y": 2174,
  "\u258128": 2175,
  "\u2581standards": 2176,
  "bha": 2177,
  "bala": 2178,
  "\u2581koy": 2179,
  "\u2581efforts": 2180,
  "\u2581Indeed": 2181,
  "\u2581wakwe": 2182,
  "\u2581l\u00e2": 2183,
  "\u2581offer": 2184,
  "mela": 2185,
  "\u2581godly": 2186,
  "\u2581months": 2187,
  "\u2581sea": 2188,
  "\u2581dund": 2189,
  "\u2581lebyi": 2190,
  "\u2581basa": 2191,
  "kela": 2192,
  "\u2581k\u1ecd": 2193,
  "\u2581mmene": 2194,
  "\u2581raised": 2195,
  "\u2581aho": 2196,
  "\u2581anka": 2197,
  "\u2581Roman": 2198,
  "\u2581zvikuru": 2199,
  "\u2581appointed": 2200,
  "\u2581Po": 2201,
  "\u2581maintain": 2202,
  "kuba": 2203,
  "\u2581t": 2204,
  "\u2581akanga": 2205,
  "\u2581\u00f1oom": 2206,
  "\u2581esika": 2207,
  "\u2581Egypt": 2208,
  "\u2581X": 2209,
  "\u2581kutani": 2210,
  "\u2581pole": 2211,
  "\u2581continued": 2212,
  "\u2581tele": 2213,
  "isa": 2214,
  "\u2581fire": 2215,
  "\u2581vula": 2216,
  "leka": 2217,
  "\u2581Yawut": 2218,
  "\u2581Kambe": 2219,
  "kuti": 2220,
  "\u2581Da": 2221,
  "\u2581lay": 2222,
  "\u2581regard": 2223,
  "\u2581Life": 2224,
  "pho": 2225,
  "\u2581makani": 2226,
  "\u2581none": 2227,
  "p\u1ee5": 2228,
  "\u2581Pictures": 2229,
  "\u2581mbage": 2230,
  "3": 2231,
  "\u2581akw\u1ee5kw\u1ecd": 2232,
  "\u2581poor": 2233,
  "\u2581NW": 2234,
  "\u2581dara": 2235,
  "\u2581write": 2236,
  "\u2060": 2237,
  "\u2581Aka": 2238,
  "\u2581en": 2239,
  "\u2581k\u00ebr": 2240,
  "\u2581source": 2241,
  "\u25aa": 2242,
  "\u2581area": 2243,
  "\u2581gusa": 2244,
  "\u2581Eve": 2245,
  "\u2581\u014au": 2246,
  "\u2581Jeremiah": 2247,
  "\u2581elimo": 2248,
  "\u2581viaco": 2249,
  "\u2581ey": 2250,
  "\u2581Ba\u1ecbb\u1ee5l": 2251,
  "\u2581display": 2252,
  "Mu": 2253,
  "\u2581list": 2254,
  "\u2581letter": 2255,
  "tuma": 2256,
  "\u2581uma": 2257,
  "ee": 2258,
  "\u2581ate": 2259,
  "\u2581direction": 2260,
  "\u2581iba": 2261,
  "\u2581salvation": 2262,
  "\u2581bakali": 2263,
  "\u2581in\u00fa": 2264,
  "\u2581Holy": 2265,
  "\u2581decisions": 2266,
  "\u2581Krist\u1eb9ni": 2267,
  "\u2581eky": 2268,
  "\u2581conscience": 2269,
  "\u2581pekoni": 2270,
  "bwe": 2271,
  "\u2581Mgbe": 2272,
  "\u2581served": 2273,
  "\u2581tapande": 2274,
  "4": 2275,
  "\u2581believers": 2276,
  "\u2581Go": 2277,
  "God": 2278,
  "\u2581Have": 2279,
  "hlo": 2280,
  "n\u0254": 2281,
  "\u2581Kodwa": 2282,
  "\u2581zintu": 2283,
  "\u2581issue": 2284,
  "\u2581considered": 2285,
  "\u2581explained": 2286,
  "\u2581angel": 2287,
  "\u2581aya": 2288,
  "\u2581determined": 2289,
  "\u2581uru": 2290,
  "\u2581yoon": 2291,
  "\u2581hath": 2292,
  "\u2581yaco": 2293,
  "paper": 2294,
  "\u2581feet": 2295,
  "\u2581bali": 2296,
  "is": 2297,
  "\u2581myself": 2298,
  "\u2581moya": 2299,
  "\u2581else": 2300,
  "\u258113,": 2301,
  "\u2581Sena": 2302,
  "\u2581vital": 2303,
  "\u2581Hence": 2304,
  "\u2581York": 2305,
  "\u2581bino": 2306,
  "\u2581decision": 2307,
  "\u2581side": 2308,
  "\u2581T\u00f3": 2309,
  "\u2581karhi": 2310,
  "\u2581kahle": 2311,
  "\u2581thee": 2312,
  "\u2581pele": 2313,
  "\u2581Etenu\u014b\u0254\u014bl": 2314,
  "\u2581asala": 2315,
  "one": 2316,
  "\u2581laha": 2317,
  "\u2581stated": 2318,
  "\u2581clean": 2319,
  "\u2581priest": 2320,
  "gera": 2321,
  "\u2581Saul": 2322,
  "an": 2323,
  "\u2581thoughts": 2324,
  "\u2581enwe": 2325,
  "\u2581priests": 2326,
  "\u2581Nya": 2327,
  "\u2581ten": 2328,
  "\u2581First": 2329,
  "g\u00e9": 2330,
  "\u2581ambiri": 2331,
  "\u2581praise": 2332,
  "6": 2333,
  "\u2581ebyo": 2334,
  "\u2581held": 2335,
  "\u2581Whether": 2336,
  "\u2581easy": 2337,
  "kora": 2338,
  "\u2581v": 2339,
  "ur": 2340,
  "\u2581Kon": 2341,
  "\u2581everyone": 2342,
  "\u2581complete": 2343,
  "\u2581Most": 2344,
  "\u2581nkaambo": 2345,
  "nta": 2346,
  "\u2581enough": 2347,
  "r\u00e0n": 2348,
  "\u2581lisusu": 2349,
  "as": 2350,
  "Jehovah": 2351,
  "mwo": 2352,
  "\u2581nzela": 2353,
  "tali": 2354,
  "\u2581t\u00e8": 2355,
  "\u2581swo": 2356,
  "\u2581nguva": 2357,
  "5": 2358,
  "\u2581Witness": 2359,
  "ic": 2360,
  "lele": 2361,
  "siya": 2362,
  "\u2581chapter": 2363,
  "\u2581ukuntu": 2364,
  "\u2581ransom": 2365,
  "\u2581tozali": 2366,
  "nja": 2367,
  "\u2581bintu": 2368,
  "\u2581izinto": 2369,
  "\u2581kete": 2370,
  "\u258123.": 2371,
  "\u2581popo": 2372,
  "\u2581working": 2373,
  "\u2581Ame": 2374,
  "\u2581build": 2375,
  "\u2581yourselves": 2376,
  "\u2581zimenezi": 2377,
  "\u2581kopesa": 2378,
  "\u2581biir": 2379,
  "k\u00e0n": 2380,
  "\u2581yabo": 2381,
  "\u2581wina": 2382,
  "\u2581meet": 2383,
  "\u2581tanihi": 2384,
  "1": 2385,
  "\u2581kuita": 2386,
  "\u2581various": 2387,
  "\u2581promised": 2388,
  "\u2581couple": 2389,
  "\u2581answers": 2390,
  "\u2581tree": 2391,
  "\u2581recorded": 2392,
  "\u2581government": 2393,
  "\u2581mkpa": 2394,
  "khe": 2395,
  "\u2581abana": 2396,
  "\u2581integrity": 2397,
  "\u2581created": 2398,
  "\u2581baptism": 2399,
  "ubu": 2400,
  "\u2581\u00e0nd": 2401,
  "\u2581accepted": 2402,
  "ju": 2403,
  "\u2581role": 2404,
  "dde": 2405,
  "l\u00f9": 2406,
  "\u2581pages": 2407,
  "\u2581ndomo": 2408,
  "nsi": 2409,
  "\u258117,": 2410,
  "\u2581wants": 2411,
  "\u2581bala": 2412,
  "\u2581zvinhu": 2413,
  "\u2581che": 2414,
  "\u2581mate": 2415,
  "\u2581visit": 2416,
  "\u2581strengthen": 2417,
  "\u2581changes": 2418,
  "\u2581b\u00e8": 2419,
  "\u258119,": 2420,
  "\u2581yake": 2421,
  "\u2581Pele": 2422,
  "\u2581foretold": 2423,
  "\u2581instance": 2424,
  "\u2581kuku": 2425,
  "\u2581activities": 2426,
  "\u2581influence": 2427,
  "\u2581line": 2428,
  "swe": 2429,
  "%": 2430,
  "\u2581offered": 2431,
  "yinza": 2432,
  "nka": 2433,
  "\u2581unu": 2434,
  "\u2581ability": 2435,
  "\u2581B\u00ed": 2436,
  "\u2581obey": 2437,
  "\u2581limbuka": 2438,
  "\u2581mercy": 2439,
  "son": 2440,
  "\u2581period": 2441,
  "\u2581advice": 2442,
  "\u2581selected": 2443,
  "\u2581uri": 2444,
  "vela": 2445,
  "\u2581modern": 2446,
  "\u2581places": 2447,
  "\u2581stay": 2448,
  "\u2581daughter": 2449,
  "\u2581doom": 2450,
  "\u2581N\u00ed": 2451,
  "\u2581Africa": 2452,
  "\u2581Man": 2453,
  "\u2581Gake": 2454,
  "\u2581Show": 2455,
  "\u2581N\u00edgb\u00e0": 2456,
  "\u2581pain": 2457,
  "\u2581proved": 2458,
  "\u2581pita": 2459,
  "buka": 2460,
  "\u2581kwo": 2461,
  "\u2581dzi": 2462,
  "\u2581ntha\u0175i": 2463,
  "\u2581ayi": 2464,
  "\u2581bungbi": 2465,
  "\u2581seem": 2466,
  "\u2581p\u00f2": 2467,
  "\u2581Swi": 2468,
  "\u00ec": 2469,
  "\u2581Judah": 2470,
  "\u2581clearly": 2471,
  "\u2581fulfilled": 2472,
  "\u2581sungula": 2473,
  "\u2581uya": 2474,
  "\u2581tontu": 2475,
  "\u2581door": 2476,
  "\u2581type": 2477,
  "\u2581Xi": 2478,
  "\u2581\u1ee5f\u1ecdd\u1ee5": 2479,
  "\u2581b\u00e0kkaar": 2480,
  "\u2581earthly": 2481,
  "\u2581pokati": 2482,
  "\u2581ariko": 2483,
  "\u2581psalmist": 2484,
  "\u2581bamwi": 2485,
  "\u2581ndoye": 2486,
  "\u2581precious": 2487,
  "\u2581Jacob": 2488,
  "\u2581mbooloo": 2489,
  "\u2581monene": 2490,
  "\u2581Zo": 2491,
  "\u2581mumwe": 2492,
  "\u2581expression": 2493,
  "\u2581less": 2494,
  "\u2581uNkulunkulu": 2495,
  "tsha": 2496,
  "\u2581appreciation": 2497,
  "\u2581ibe": 2498,
  "\u2581Abantu": 2499,
  "ry": 2500,
  "\u2581kubona": 2501,
  "\u2581thy": 2502,
  "\u2581rich": 2503,
  "\u2581zonke": 2504,
  "\u2581bear": 2505,
  "\u258122.": 2506,
  "\u2581followed": 2507,
  "\u2581shown": 2508,
  "\u2581indlela": 2509,
  "\u2581Israyeli": 2510,
  "\u2581turned": 2511,
  "\u2581Bayibuli": 2512,
  "\u2581Ra": 2513,
  "\u2581countries": 2514,
  "\u2581hunda": 2515,
  "\u2581bwino": 2516,
  "\u258170": 2517,
  "\u2581single": 2518,
  "\u2581choose": 2519,
  "\u2581save": 2520,
  "\u2581class": 2521,
  "\u2581explains": 2522,
  "\u2581suffer": 2523,
  "\u2581ngbanga": 2524,
  "\u2581eji": 2525,
  "\u2581adza": 2526,
  "ers": 2527,
  "\u2581met": 2528,
  "\u2581hour": 2529,
  "\u2581ngopfu": 2530,
  "yanda": 2531,
  "eth": 2532,
  "\u2581ema": 2533,
  "\u2581freedom": 2534,
  "\u2581Just": 2535,
  "\u2581creation": 2536,
  "\u2581described": 2537,
  "\u2581moral": 2538,
  "\u2581regular": 2539,
  "\u2581Ana": 2540,
  "\u2581Isi": 2541,
  "\u2581worldwide": 2542,
  "\u2581Musa": 2543,
  "\u2581allowed": 2544,
  "\u2581d\u00e0": 2545,
  "\u2581Ala": 2546,
  "\u2581program": 2547,
  "\u2581achi": 2548,
  "We": 2549,
  "\u2581m\u00e4": 2550,
  "\u2581tano": 2551,
  "\u2581Footnotes": 2552,
  "\u2581reach": 2553,
  "\u2581Eli": 2554,
  "hle": 2555,
  "\u2581nka": 2556,
  "\u2581reasons": 2557,
  "\u2581blessed": 2558,
  "yamba": 2559,
  "\u2581zonse": 2560,
  "\u2581returned": 2561,
  "\u258124.": 2562,
  "\u2581spoken": 2563,
  "\u00b7": 2564,
  "genda": 2565,
  "\u2581Moreover": 2566,
  "\u2581fruit": 2567,
  "\u2581ad\u1ecbgh\u1ecb": 2568,
  "\u2581destruction": 2569,
  "\u2581experienced": 2570,
  "wini": 2571,
  "\u2581byo": 2572,
  "\u2581ir\u00fa": 2573,
  "\u2581six": 2574,
  "7": 2575,
  "nyama": 2576,
  "\u2581alobaki": 2577,
  "\u2581grow": 2578,
  "\u2581Vu": 2579,
  "gwe": 2580,
  "\u2581several": 2581,
  "\u2581activity": 2582,
  "\u2581tried": 2583,
  "\u2581deal": 2584,
  "\u2581leke": 2585,
  "\u2581birth": 2586,
  "\u2581ja": 2587,
  "\u2581responsibility": 2588,
  "\u2581takes": 2589,
  "\u258129": 2590,
  "\u2581nthawi": 2591,
  "\u2581Love": 2592,
  "\u2581fango": 2593,
  "\u2581sexual": 2594,
  "tara": 2595,
  "\u2581teachings": 2596,
  "s\u00e8": 2597,
  "\u2581published": 2598,
  "\u2581carry": 2599,
  "kolo": 2600,
  "\u2581\u00d1u": 2601,
  "\u2581ba\u00f1": 2602,
  "\u2581sign": 2603,
  "\u2581Awake": 2604,
  "\u2581abandi": 2605,
  "\u2581subject": 2606,
  "\u2581waco": 2607,
  "\u2581Ri": 2608,
  "\u2581hu": 2609,
  "\u2581filled": 2610,
  "singa": 2611,
  "kanga": 2612,
  "\u2581kwaku": 2613,
  "\u2581Ng": 2614,
  "ine": 2615,
  "\u2581actually": 2616,
  "\u2581bread": 2617,
  "\u2581daily": 2618,
  "kana": 2619,
  "\u2581uJehova": 2620,
  "nse": 2621,
  "\u2581respond": 2622,
  "\u2581sound": 2623,
  "\u2581nyene": 2624,
  "\u00ed": 2625,
  "\u2581Babylon": 2626,
  "\u2581ava": 2627,
  "\u2581g\u00ebn": 2628,
  "\u2581force": 2629,
  "ar": 2630,
  "\u2581harmony": 2631,
  "\u2581Another": 2632,
  "\u2581gbu": 2633,
  "mpa": 2634,
  "\u2581kozwa": 2635,
  "\u2581mama": 2636,
  "\u2581t\u00e9": 2637,
  "\u2581t\u00e1w\u1ecdn": 2638,
  "\u2581throughout": 2639,
  "hlala": 2640,
  "\u2581olo": 2641,
  "\u2581millions": 2642,
  "\u2581\u00f1aar": 2643,
  "n\u00ec": 2644,
  "\u2581beginning": 2645,
  "\u2581students": 2646,
  "j\u00e9": 2647,
  "\u2581Ntango": 2648,
  "ness": 2649,
  "\u2581buti": 2650,
  "\u2581concern": 2651,
  "\u2581mbeti": 2652,
  "\u2581gw": 2653,
  "\u2581mm\u1ee5\u1ecd": 2654,
  "gara": 2655,
  "\u2581million": 2656,
  "He": 2657,
  "\u2581\u00c8": 2658,
  "\u2581Credit": 2659,
  "pfu": 2660,
  "\u258160": 2661,
  "\u2581muli": 2662,
  "\u2581enter": 2663,
  "\u258134": 2664,
  "org": 2665,
  "khulu": 2666,
  "RA": 2667,
  "\u2581muna": 2668,
  "mwi": 2669,
  "\u2581buku": 2670,
  "\u2581okukola": 2671,
  "\u2581mawu": 2672,
  "\u2581occasion": 2673,
  "\u2581families": 2674,
  "\u2581fulfillment": 2675,
  "\u2581Di": 2676,
  "\u2581natural": 2677,
  "\u2581eyo": 2678,
  "\u2581ebintu": 2679,
  "\u2581Roma": 2680,
  "shu": 2681,
  "\u2581gukora": 2682,
  "\u2581tshama": 2683,
  "\u2581helping": 2684,
  "tere": 2685,
  "\u2581pepe": 2686,
  "konzya": 2687,
  "\u2581provides": 2688,
  "\u2581entire": 2689,
  "kaka": 2690,
  "\u2581zve": 2691,
  "\u2581endure": 2692,
  "\u2581siku": 2693,
  "\u258125.": 2694,
  "\u0256e": 2695,
  "\u2581yakhe": 2696,
  "\u2581omunu": 2697,
  "bya": 2698,
  "\u2581kino": 2699,
  "\u2581branch": 2700,
  "\u2581knows": 2701,
  "\u2581mag": 2702,
  "\u2581appreciate": 2703,
  "\u2581laws": 2704,
  "\u2581Where": 2705,
  "\u2581revealed": 2706,
  "\u2581lilongisa": 2707,
  "\u2581j\u00f3ge": 2708,
  "\u2581Paulu": 2709,
  "\u2581likol\u00f3": 2710,
  "\u2581at\u00ebn\u00eb": 2711,
  "\u2581Banakristo": 2712,
  "\u2581violence": 2713,
  "\u2581mbilimbili": 2714,
  "\u2581focus": 2715,
  "\u258118,": 2716,
  "\u2581actions": 2717,
  "\u2581viaye": 2718,
  "\u2581Great": 2719,
  "\u2581Others": 2720,
  "\u2581twi": 2721,
  "nto": 2722,
  "\u2581least": 2723,
  "\u2581anger": 2724,
  "\u2581Watch": 2725,
  "\u2581prison": 2726,
  "\u2581Co": 2727,
  "\u2581state": 2728,
  "\u2581ane": 2729,
  "\u2581elder": 2730,
  "\u2581training": 2731,
  "\u2581mobimba": 2732,
  "\u2581Du": 2733,
  "\u2581umwe": 2734,
  "\u2581at\u1ee5": 2735,
  "\u030c": 2736,
  "\u2581appropriate": 2737,
  "\u2581ready": 2738,
  "\u2581knowing": 2739,
  "\u2581mwasi": 2740,
  "\u2581stop": 2741,
  "\u2581enemies": 2742,
  "\u2581mbaa": 2743,
  "\u2581malembe": 2744,
  "\u2581speech": 2745,
  "\u2581learning": 2746,
  "\u2581magazine": 2747,
  "\u258120,": 2748,
  "kuru": 2749,
  "nke": 2750,
  "\u2581000": 2751,
  "r\u00ec\u00ed": 2752,
  "\u2581IDOSIYE": 2753,
  "langa": 2754,
  "ibi": 2755,
  "sana": 2756,
  "\u2581showing": 2757,
  "\u2581il\u00e9": 2758,
  "\u2581G\u1ecbn\u1ecb": 2759,
  "\u2581practical": 2760,
  "\u2581results": 2761,
  "Do": 2762,
  "\u2581attend": 2763,
  "\u2581IN": 2764,
  "\u2581justice": 2765,
  "\u2581ow": 2766,
  "\u2581j\u00f9": 2767,
  "\u2581Fi": 2768,
  "\u2581mel": 2769,
  "\u2581yin": 2770,
  "\u2581prayed": 2771,
  "Yehova": 2772,
  "\u1ee5z\u1ecd": 2773,
  "\u2581Bethel": 2774,
  "\u2581Keep": 2775,
  "\u2581lands": 2776,
  "sanga": 2777,
  "\u2581pasi": 2778,
  "\u2581vetiya": 2779,
  "\u2581short": 2780,
  "\u2581percent": 2781,
  "ali": 2782,
  "\u2581languages": 2783,
  "\",": 2784,
  "\u2581\u00ecy\u1eb9n": 2785,
  "\u2581happen": 2786,
  "\u2581behind": 2787,
  "\u2581V": 2788,
  "\u2581crowd": 2789,
  "j": 2790,
  "\u2581Naye": 2791,
  "\u2581kanjani": 2792,
  "\u2581pfuna": 2793,
  "\u2581develop": 2794,
  "\u2581n\u00edtor\u00ed": 2795,
  "\u2581koloba": 2796,
  "\u2581kupange": 2797,
  "\u2581necessary": 2798,
  "\u2581Soki": 2799,
  "\u2581ngenxa": 2800,
  "mpi": 2801,
  "\u2581opened": 2802,
  "\u2581kodoro": 2803,
  "\u2581ab\u1ee5\u1ecd": 2804,
  "\u2581ekwu": 2805,
  "\u2581courage": 2806,
  "\u2581guidance": 2807,
  "\u2581baali": 2808,
  "\u2581\u1ee5t\u1ecd": 2809,
  "\u2581Later": 2810,
  "\u2581prophets": 2811,
  "\u2581Line": 2812,
  "k\u00e9": 2813,
  "\u2581kp\u0254": 2814,
  "\u2581proper": 2815,
  "\u2581ndakisa": 2816,
  "\u2581parent": 2817,
  "\u2581trials": 2818,
  "hamba": 2819,
  "\u2581Foto": 2820,
  "\u2581koleka": 2821,
  "saba": 2822,
  "\u2581earlier": 2823,
  "\u2581seeking": 2824,
  "\u2581ciwa": 2825,
  "\u2581ge": 2826,
  "mera": 2827,
  "\u2581bira": 2828,
  "\u2581walking": 2829,
  "\u2581manda": 2830,
  "\u2581chete": 2831,
  "\u2581itam": 2832,
  "\u2581komanso": 2833,
  "\u2581regularly": 2834,
  "\u2581\u2013": 2835,
  "\u2581imbere": 2836,
  "ver": 2837,
  "\u2581books": 2838,
  "kura": 2839,
  "\u2581Tower": 2840,
  "\u2581individual": 2841,
  "\u2581catiam\u1ebdla": 2842,
  "\u2581third": 2843,
  "\u2581Catholic": 2844,
  "\u2581lina": 2845,
  "\u2581kale": 2846,
  "\u2581sun": 2847,
  "\u2581job": 2848,
  "\u2581100": 2849,
  "\u2581added": 2850,
  "\u2581Baibuli": 2851,
  "\u2581gwa": 2852,
  "\u2581Joshua": 2853,
  "\u2581benn": 2854,
  "\u2581hamwe": 2855,
  "\u2581zvaka": 2856,
  "\u2581nokuti": 2857,
  "W": 2858,
  "If": 2859,
  "\u2581d\u00ebgg": 2860,
  "sh": 2861,
  "\u2581wee": 2862,
  "\u2581Baay": 2863,
  "\u2581Kana": 2864,
  "kisi": 2865,
  "\u2581emi": 2866,
  "\u2581humble": 2867,
  "\u2581alive": 2868,
  "\u2581Cyangwa": 2869,
  "h\u00fa": 2870,
  "\u2581\u1e63\u1eb9": 2871,
  "\u02b9": 2872,
  "\u2581mbo": 2873,
  "\u2581iwo": 2874,
  "\u2581dul": 2875,
  "\u2581didn": 2876,
  "\u2581s\u00f2": 2877,
  "\u2581Good": 2878,
  "\u2581caused": 2879,
  "\u2581looking": 2880,
  "\u25811.": 2881,
  "\u2581ayo": 2882,
  "\u2581exercise": 2883,
  "\u2581Hall": 2884,
  "\u2581xol": 2885,
  "\u2581\u00f1aan": 2886,
  "\u2581umwi": 2887,
  "p\u1ee5ta": 2888,
  "\u2581boonse": 2889,
  "\u2581angu": 2890,
  "\u2581Society": 2891,
  "\u2581\u1ecdk\u00e0n": 2892,
  "\u2581office": 2893,
  "\u2581zaka": 2894,
  "\u2581Umu": 2895,
  "\u2581Ask": 2896,
  "\u2581Vo": 2897,
  "\u2581accurate": 2898,
  "\u2581quality": 2899,
  "\u2581Mboni": 2900,
  "\u2581kuchita": 2901,
  "\u2581week": 2902,
  "\u2581hours": 2903,
  "\u2581momo": 2904,
  "\u2581seed": 2905,
  "\u2581thousands": 2906,
  "\u2581wona": 2907,
  "\u2581concerning": 2908,
  "\u2581dugg": 2909,
  "\u2581tribulation": 2910,
  "\u2581immediately": 2911,
  "\u2581ge\u0256e": 2912,
  "\u2581kuya": 2913,
  "\u2581rw": 2914,
  "\u2581positive": 2915,
  "\u2581beyond": 2916,
  "\u2581taalibe": 2917,
  "\u2581dafa": 2918,
  "\u2581assignment": 2919,
  "okuba": 2920,
  "\u2581kunda": 2921,
  "j\u00f3": 2922,
  "less": 2923,
  "lweni": 2924,
  "\u2581run": 2925,
  "\u2581singa": 2926,
  "\u2581Ephesians": 2927,
  "\u2581jig\u00e9en": 2928,
  "\u258123:": 2929,
  "saka": 2930,
  "\u2581pakati": 2931,
  "\u2581j\u1eb9": 2932,
  "\u2581mouth": 2933,
  "\u2581include": 2934,
  "\u2581fall": 2935,
  "8": 2936,
  "\u2581warning": 2937,
  "\u2581practice": 2938,
  "\u2581tava": 2939,
  "jo": 2940,
  "\u2581misava": 2941,
  "\u2581Vi": 2942,
  "\u2581kutu": 2943,
  "\u2581whatever": 2944,
  "\u2581commanded": 2945,
  "\u2581aChr\u00e9tien": 2946,
  "\u2581ng\u00ebm": 2947,
  "\u2581mbula": 2948,
  "\u2581Remember": 2949,
  "\u2581Soma": 2950,
  "\u2581decided": 2951,
  "\u2581error": 2952,
  "\u2581\u1eca": 2953,
  "\u2581bako": 2954,
  "\u2581nawo": 2955,
  "V": 2956,
  "\u2581\u00ecf": 2957,
  "\u258122,": 2958,
  "\u2581morning": 2959,
  "\u2581believed": 2960,
  "bonisa": 2961,
  "zyi": 2962,
  "\u2581greatest": 2963,
  "\u2581yagamba": 2964,
  "\u2581addition": 2965,
  "\u2581mulimo": 2966,
  "\u2581munyika": 2967,
  "s\u00ec": 2968,
  "\u2581ad\u1ecb": 2969,
  "\u2581challenge": 2970,
  "\u2581okwe": 2971,
  "LA": 2972,
  "\u2581basis": 2973,
  "\u2581building": 2974,
  "\u2581khona": 2975,
  "\u2581getting": 2976,
  "\u2581vake": 2977,
  "\u2581sika": 2978,
  "\u2581makanisi": 2979,
  "\u2581tells": 2980,
  "\u2581Before": 2981,
  "Ba": 2982,
  "rha": 2983,
  "LI": 2984,
  "k\u00e1": 2985,
  "\u2581xel": 2986,
  "\u2581\u25cf": 2987,
  "omwoyo": 2988,
  "\u2581pamusoro": 2989,
  "weni": 2990,
  "\u2581imperfect": 2991,
  "\u2581saved": 2992,
  "\u2581Any\u1ecb": 2993,
  "tera": 2994,
  "\u2581benshi": 2995,
  "\u2581kiseera": 2996,
  "\u2581Nevertheless": 2997,
  "\u2581Bhaibheri": 2998,
  "\u2581failed": 2999,
  "\u2581desires": 3000,
  "hlu": 3001,
  "\u2581polele": 3002,
  "\u2581discipline": 3003,
  "\u2581Mben": 3004,
  "\u2581presence": 3005,
  "\u2581Rome": 3006,
  "\u2581nwa": 3007,
  "\u2581una": 3008,
  "funda": 3009,
  "\u2581PAGE": 3010,
  "\u2581phakathi": 3011,
  "\u2581current": 3012,
  "\u2581vimue": 3013,
  "man": 3014,
  "\u2581myaka": 3015,
  "\u2581Aboobo": 3016,
  "\u2581kondima": 3017,
  "\u2581convention": 3018,
  "\u2581Messiah": 3019,
  "\u2581yongola": 3020,
  "\u2581zambiri": 3021,
  "l\u0254": 3022,
  "\u2581protect": 3023,
  "\u2581wonder": 3024,
  "d\u00e1": 3025,
  "\u2581Though": 3026,
  "\u2581lekk": 3027,
  "qu": 3028,
  "\u2581noonu": 3029,
  "\u2581Yakobo": 3030,
  "\u2581encouraged": 3031,
  "laka": 3032,
  "kola": 3033,
  "\u2581Perhaps": 3034,
  "\u2581record": 3035,
  "engeri": 3036,
  "\u2581English": 3037,
  "\u2581pass": 3038,
  "\u2581ab\u00e2": 3039,
  "\u2581Kuti": 3040,
  "\u2581becoming": 3041,
  "\u2581Isaya": 3042,
  "\u2581quickly": 3043,
  "\u2581kuzwa": 3044,
  "\u2581omwe": 3045,
  "\u2581Muri": 3046,
  "\u2581uno": 3047,
  "\u2581benefits": 3048,
  "\u2581nyere": 3049,
  "\u2581KU": 3050,
  "\u2581kuno": 3051,
  "\u2581kings": 3052,
  "\u2581sell": 3053,
  "\u2581killed": 3054,
  "\u2581Xa": 3055,
  "\u2581onse": 3056,
  "\u2581kozo": 3057,
  "\u2581ddala": 3058,
  "\u2581report": 3059,
  "\u2581leaders": 3060,
  "n\u1ee5": 3061,
  "\u2581mokolo": 3062,
  "\u2581expect": 3063,
  "\u2581D\u1ecb": 3064,
  "\u2581About": 3065,
  "\u2581gbe": 3066,
  "\u2581Am": 3067,
  "leyo": 3068,
  "\u2581esengo": 3069,
  "\u2581pay": 3070,
  "ch": 3071,
  "\u2581ntiyiso": 3072,
  "\u2581e\u0192e": 3073,
  "\u2581paradise": 3074,
  "\u2581bose": 3075,
  "\u2581xo": 3076,
  "\u2581mali": 3077,
  "\u2581nun": 3078,
  "\u2581maloba": 3079,
  "\u2581d\u00e9gg": 3080,
  "t\u00e9": 3081,
  "\u00eb": 3082,
  "\u2581kuko": 3083,
  "9": 3084,
  "\u2581nwee": 3085,
  "\u2581rimwe": 3086,
  "na\u00f1u": 3087,
  "nce": 3088,
  "yandika": 3089,
  "\u2581Adamu": 3090,
  "\u2581p": 3091,
  "\u2581ndaka": 3092,
  "\u2581drink": 3093,
  "\u2581files": 3094,
  "nna": 3095,
  "\u2581illustration": 3096,
  "bili": 3097,
  "\u2581lake": 3098,
  "\u2581passed": 3099,
  "\u2581ine": 3100,
  "nyika": 3101,
  "oo": 3102,
  "\u2581yaba": 3103,
  "\u2581test": 3104,
  "\u2581centuries": 3105,
  "\u2581disciple": 3106,
  "\u2581former": 3107,
  "\u2581akaba": 3108,
  "\u2581interested": 3109,
  "kwara": 3110,
  "\u2581either": 3111,
  "\u2581sick": 3112,
  "sala": 3113,
  "\u2581seems": 3114,
  "\u2581m\u00e1": 3115,
  "\u2581ula": 3116,
  "\u2581eko": 3117,
  "\u2581ibyo": 3118,
  "\u2581More": 3119,
  "\u2581dziko": 3120,
  "\u2581sometimes": 3121,
  "\u2581rere": 3122,
  "\u2581Ndenge": 3123,
  "\u2581sight": 3124,
  "\u2581nokuda": 3125,
  "kwazi": 3126,
  "\u2581condition": 3127,
  "\u2581interests": 3128,
  "dla": 3129,
  "\u2581Box": 3130,
  "\u2581rejoice": 3131,
  "\u2581gwe": 3132,
  "\u2581address": 3133,
  "\u2581vutomi": 3134,
  "\u2581dza": 3135,
  "\u2581rekk": 3136,
  "\u2581nabo": 3137,
  "\u2581standing": 3138,
  "\u2581lack": 3139,
  "amu": 3140,
  "rashobora": 3141,
  "\u2581\u00ecw\u00e0": 3142,
  "tero": 3143,
  "qa": 3144,
  "\u2581kune": 3145,
  "\u2581trying": 3146,
  "\u2581Omu": 3147,
  "\u2581parts": 3148,
  "\u2581personality": 3149,
  "kka": 3150,
  "ngeen": 3151,
  "\u2581dere": 3152,
  "\u2581Noke": 3153,
  "\u2581goal": 3154,
  "\u2581nanu": 3155,
  "\u2581\u00e9": 3156,
  "un": 3157,
  "\u2581yimue": 3158,
  "\u2581required": 3159,
  "\u2581vosi": 3160,
  "\u258129.": 3161,
  "\u2581nn\u1ecd\u1ecd": 3162,
  "\u2581vamwe": 3163,
  "\u2581fell": 3164,
  "\u2581wives": 3165,
  "\u2581studying": 3166,
  "\u2581amolenge": 3167,
  "\u2581Ubu": 3168,
  "k\u0254": 3169,
  "\u2581invited": 3170,
  "\u2581Ngo": 3171,
  "\u2581imene": 3172,
  "\u2581education": 3173,
  "\u2581chosen": 3174,
  "\u2581mutima": 3175,
  "bata": 3176,
  "\u2581kuphela": 3177,
  "\u2581ground": 3178,
  "yoo": 3179,
  "\u2581bamu": 3180,
  "\u2581swona": 3181,
  "\u2581acts": 3182,
  "\u2581half": 3183,
  "ay": 3184,
  "uru": 3185,
  "\u2581Gi": 3186,
  "ment": 3187,
  "ono": 3188,
  "KA": 3189,
  "ntu": 3190,
  "\u2581swin": 3191,
  "amba": 3192,
  "\u2581nama": 3193,
  "\u0256o": 3194,
  "\u2581cast": 3195,
  "\u2581cya": 3196,
  "impwemu": 3197,
  "\u2581ruo": 3198,
  "\u2581nakwa": 3199,
  "\u2581completely": 3200,
  "\u2581Ngbanga": 3201,
  "\u2581njenge": 3202,
  "\u2581Brother": 3203,
  "\u2581create": 3204,
  "\u2581bijanye": 3205,
  "\u2581brings": 3206,
  "\u2581worked": 3207,
  "\u2581bopp": 3208,
  "Mo": 3209,
  "It": 3210,
  "\u2581lombolola": 3211,
  "\u2581unity": 3212,
  "\u2581anati": 3213,
  "rd": 3214,
  "\u2581jox": 3215,
  "\u2581youths": 3216,
  "\u2581kuama": 3217,
  "\u2581k\u0169l\u0129ha": 3218,
  "kati": 3219,
  "\u2581encourage": 3220,
  "\u2581p\u00e0t\u00e0k\u00ec": 3221,
  "\u2581mpasi": 3222,
  "\u2581realize": 3223,
  "\u2581avo": 3224,
  "\u2581wathi": 3225,
  "ile": 3226,
  "Si": 3227,
  "\u2581upange": 3228,
  "it": 3229,
  "\u2581preached": 3230,
  "\u2581prepared": 3231,
  "\u2581miles": 3232,
  "\u2581Us": 3233,
  "geze": 3234,
  "\u2581vari": 3235,
  "\u2581omuntu": 3236,
  "\u2581sacrifices": 3237,
  "\u2581Here": 3238,
  "\u2581firm": 3239,
  "\u2581peeji": 3240,
  "\u2581bakhe": 3241,
  "\u2581waa": 3242,
  "\u2581omume": 3243,
  "\u2581matimba": 3244,
  "\u2581behalf": 3245,
  "\u2581Pe": 3246,
  "\u2581moke": 3247,
  "\u2581destroyed": 3248,
  "\u2581Yango": 3249,
  "\u2581lw": 3250,
  "\u2581progress": 3251,
  "\u2581gy": 3252,
  "\u2581conditions": 3253,
  "\u2581vamanji": 3254,
  "\u2581wiwe": 3255,
  "\u2581Young": 3256,
  "\u2581ch\u1ecdr\u1ecd": 3257,
  "\u2581forward": 3258,
  "\u2581pressure": 3259,
  "\u2581ntirho": 3260,
  "\u2581xona": 3261,
  "\u2581reflect": 3262,
  "\u2581express": 3263,
  "\u2581ntsena": 3264,
  "\u2581encouragement": 3265,
  "\u2581outside": 3266,
  "\u2581boobu": 3267,
  "sela": 3268,
  "\u2581begin": 3269,
  "\u2581mashoko": 3270,
  "\u2581favor": 3271,
  "\u2581nkhani": 3272,
  "\u2581j\u1ecd": 3273,
  "\u2581Izi": 3274,
  "\u2581kube": 3275,
  "mele": 3276,
  "\u2581chief": 3277,
  "\u2581ahead": 3278,
  "\u2581usually": 3279,
  "\u2581a\u0256ewo": 3280,
  "\u2581spent": 3281,
  "\u2581teg": 3282,
  "\u2581judge": 3283,
  "manga": 3284,
  "gb\u00e9": 3285,
  "\u2581enjoyed": 3286,
  "\u2581tirhisa": 3287,
  "\u2581caco": 3288,
  "\u2581aita": 3289,
  "\u2581names": 3290,
  "\u2581kuye": 3291,
  "est": 3292,
  "\u2581kosalela": 3293,
  "\u2581sapuila": 3294,
  "sika": 3295,
  "\u2581lokasa": 3296,
  "suku": 3297,
  "yenera": 3298,
  "\u2581sacred": 3299,
  "bhi": 3300,
  "\u2581B\u00f3": 3301,
  "\u2581\u00e0t\u00e0w\u1ecdn": 3302,
  "\u2581animals": 3303,
  "\u2581original": 3304,
  "\u2581cut": 3305,
  "\u2581kum": 3306,
  "\u2581Kubera": 3307,
  "\u1ecc": 3308,
  "\u2581search": 3309,
  "\u2581month": 3310,
  "\u2581vyose": 3311,
  "\u2581yaw": 3312,
  "\u2581contact": 3313,
  "\u2581umutima": 3314,
  "mara": 3315,
  "wul": 3316,
  "\u2581thousand": 3317,
  "\u2581chake": 3318,
  "tsu": 3319,
  "\u2581mwaka": 3320,
  "\u2581steps": 3321,
  "\u2581koyeba": 3322,
  "\u1ecdj\u00f3": 3323,
  "ndaka": 3324,
  "X": 3325,
  ".\u201d": 3326,
  "\u2581literature": 3327,
  "\u2581choice": 3328,
  "\u2581longisa": 3329,
  "\u2581Timbhoni": 3330,
  "riwa": 3331,
  "\u2581II": 3332,
  "\u2581Matayo": 3333,
  "\u2581ita": 3334,
  "\u2581member": 3335,
  "\u2581Batatoli": 3336,
  "\u2581Ivyo": 3337,
  "\u2581almost": 3338,
  "\u2581coku": 3339,
  "\u2581\u1ee5l\u1ecd": 3340,
  "kp\u0254": 3341,
  "\u2581Za": 3342,
  "\u2581Elijah": 3343,
  "\u2581entered": 3344,
  "\u2581related": 3345,
  "\u2581abalala": 3346,
  "\u2581devotion": 3347,
  "\u2581GNOME": 3348,
  "\u2581Onye": 3349,
  "\u2581protection": 3350,
  "No": 3351,
  "\u2581kiba": 3352,
  "tondezya": 3353,
  "Ndi": 3354,
  "\u2581molenge": 3355,
  "\u2581built": 3356,
  "\u2581g\u00e9": 3357,
  "sebenzisa": 3358,
  "vuga": 3359,
  "\u00e1w\u1ecdn": 3360,
  "\u2581Similarly": 3361,
  "x\u0254": 3362,
  "\u2581bakwe": 3363,
  "\u2581munzila": 3364,
  "\u2581biloko": 3365,
  "\u2581wetu": 3366,
  "\u258145": 3367,
  "\u2581kpe": 3368,
  "\u2581eziokwu": 3369,
  "\u2581Bwami": 3370,
  "\u2581chimene": 3371,
  "\u2581humility": 3372,
  "\u2581tlula": 3373,
  "f\u00e8": 3374,
  "\u2581igi": 3375,
  "\u2581ndeci": 3376,
  "\u2581flock": 3377,
  "\u2581paku": 3378,
  "\u2581esilivilo": 3379,
  "d\u00f3": 3380,
  "\u2581Ate": 3381,
  "obi": 3382,
  "\u2581Ubutumwa": 3383,
  "\u2581ene": 3384,
  "nywa": 3385,
  "\u2581k\u00e9": 3386,
  "\u2581send": 3387,
  "\u2581instead": 3388,
  "Aba": 3389,
  "\u2581cultivate": 3390,
  "\u2581otembo": 3391,
  "\u2581b\u00edi": 3392,
  "\u2581nkoka": 3393,
  "\u2581kuzo": 3394,
  "biri": 3395,
  "\u2581beautiful": 3396,
  "mpu": 3397,
  "inda": 3398,
  "mbwa": 3399,
  "\u2581imwe": 3400,
  "lamu": 3401,
  "\u2581Izina": 3402,
  "\u2581nomu": 3403,
  "\u2581Gilead": 3404,
  "\u2581komonisa": 3405,
  "\u2581Lwaki": 3406,
  "\u2581tiva": 3407,
  "zve": 3408,
  "\u2581traveling": 3409,
  "\u2581nature": 3410,
  "\u2581tuli": 3411,
  "\u2581feeling": 3412,
  "\u2581faced": 3413,
  "\u2581War": 3414,
  "\u2581biri": 3415,
  "dziko": 3416,
  "\u2581deeply": 3417,
  "\u2581y\u00e9pp": 3418,
  "enda": 3419,
  "misa": 3420,
  "otu": 3421,
  "\u258128.": 3422,
  "\u2581abanye": 3423,
  "\u2581agba": 3424,
  "w\u00e9": 3425,
  "\u2581beliefs": 3426,
  "\u2581goals": 3427,
  "\u2581cimue": 3428,
  "\u2581sweswo": 3429,
  "\u2581assigned": 3430,
  "Mi": 3431,
  "\u2581mu\u1ebdle": 3432,
  "lila": 3433,
  "\u2581hinkwayo": 3434,
  "\u2581missionary": 3435,
  "\u2581soku": 3436,
  "\u2581persecution": 3437,
  "obu": 3438,
  "\u2581Pharisees": 3439,
  "\u2581tuba": 3440,
  "\u2581nee": 3441,
  "\u2581seeing": 3442,
  "\u2581tanga": 3443,
  "\u2581asamaan": 3444,
  "\u2581vision": 3445,
  "\u2581values": 3446,
  "soma": 3447,
  "ck": 3448,
  "\u2581offering": 3449,
  "\u2581calls": 3450,
  "\u2581keeping": 3451,
  "\u2581d\u00ed": 3452,
  "\u2581Alimwi": 3453,
  "\u2581lawa": 3454,
  "\u258131.": 3455,
  "\u2581simple": 3456,
  "r\u1ecd": 3457,
  "\u1e63\u00e8": 3458,
  "fika": 3459,
  "\u2581kombisa": 3460,
  "\u2581eventually": 3461,
  "\u2581appear": 3462,
  "maki": 3463,
  "\u2581Yuda": 3464,
  "\u2581Zvino": 3465,
  "\u2581m\u00ed\u00ec": 3466,
  "ngena": 3467,
  "rya": 3468,
  "\u2581final": 3469,
  "\u2581security": 3470,
  "leni": 3471,
  "\u2581ngokuthi": 3472,
  "\u2581cyane": 3473,
  "abo": 3474,
  "able": 3475,
  "\u2581angb\u00e2": 3476,
  "\u2581Soon": 3477,
  "\u2581neighbor": 3478,
  "\u2581dedicated": 3479,
  "\u2581nco": 3480,
  "\u2581Ho": 3481,
  "\u2581En": 3482,
  "ivyo": 3483,
  "\u2581bandeko": 3484,
  "\u2581success": 3485,
  "\u2581Uma": 3486,
  "\u258128:": 3487,
  "rin": 3488,
  "\u2581jot": 3489,
  "\u2581k\u00e0ddu": 3490,
  "\u2581em": 3491,
  "um": 3492,
  "\u2581expressed": 3493,
  "\u2581Please": 3494,
  "\u2581lose": 3495,
  "\u2581chose": 3496,
  "\u2581mibale": 3497,
  "In": 3498,
  "\u2581political": 3499,
  "\u2581\u00f1a": 3500,
  "\u2581tukuiwa": 3501,
  "\u2581tata": 3502,
  "\u2581ubuzima": 3503,
  "kele": 3504,
  "\u2581topp": 3505,
  "\u2581laaj": 3506,
  "\u2581Akrist\u00e3o": 3507,
  "ation": 3508,
  "\u2581wakhe": 3509,
  "\u2581wabo": 3510,
  "\u2581girl": 3511,
  "\u2581njhani": 3512,
  "yisa": 3513,
  "\u2581ar\u1ee5": 3514,
  "lya": 3515,
  "\u2581pane": 3516,
  "\u2581Through": 3517,
  "\u2581spend": 3518,
  "\u2581gigi": 3519,
  "\u2581Mwana": 3520,
  "\u2581arrived": 3521,
  "lawo": 3522,
  "\u2581lesson": 3523,
  "\u2581lot": 3524,
  "\u2581None": 3525,
  "\u2581vachi": 3526,
  "zalaki": 3527,
  "\u2581household": 3528,
  "t\u00ec": 3529,
  "\u2581Use": 3530,
  "\u2581Error": 3531,
  "\u2581explain": 3532,
  "\u2581manner": 3533,
  "\u2581suffered": 3534,
  "imi": 3535,
  "\u2581fight": 3536,
  "\u2581affection": 3537,
  "\u2581meant": 3538,
  "\u2581pure": 3539,
  "menya": 3540,
  "\u2581approach": 3541,
  "maze": 3542,
  "\u2581Leswi": 3543,
  "\u2581y\u00edn": 3544,
  "\u2581nezve": 3545,
  "\u2581areas": 3546,
  "\u2581Clearly": 3547,
  "\u2581iwe": 3548,
  "\u2581dedication": 3549,
  "\u2581disease": 3550,
  "\u2581B\u00e1wo": 3551,
  "mala": 3552,
  "\u2581Europe": 3553,
  "\u2581examine": 3554,
  "Let": 3555,
  "\u2581handle": 3556,
  "\u2581wine": 3557,
  "\u2581Cha": 3558,
  "\u2581tongue": 3559,
  "\u2581Was": 3560,
  "\u2581label": 3561,
  "siri": 3562,
  "bone": 3563,
  "\u2581Komabe": 3564,
  "\u2581shepherd": 3565,
  "koma": 3566,
  "\u2581iili": 3567,
  "\u2581kosalisa": 3568,
  "\u2581resurrected": 3569,
  "tweelede": 3570,
  "\u2581eternal": 3571,
  "\u2581walla": 3572,
  "\u2581reward": 3573,
  "\u2581\u1ee5wa": 3574,
  "\u2581School": 3575,
  "\u2581nezi": 3576,
  "\u2581sarango": 3577,
  "\u2581l\u00f2": 3578,
  "\u2581Time": 3579,
  "\u2581imyaka": 3580,
  "\u2581tunda": 3581,
  "?\"": 3582,
  "\u2581ndako": 3583,
  "\u2581yavuze": 3584,
  "\u25817]": 3585,
  "\u2581ubwo": 3586,
  "baye": 3587,
  "\u2581zili": 3588,
  "\u2581articles": 3589,
  "\u2581\u00ccw\u00e9": 3590,
  "\u2581youth": 3591,
  "\u2581ryo": 3592,
  "\u2581hikwalaho": 3593,
  "at": 3594,
  "\u258124,": 3595,
  "w\u0254": 3596,
  "\u2581watch": 3597,
  "\u2581Nka": 3598,
  "ika": 3599,
  "\u2581uJesu": 3600,
  "\u2581libota": 3601,
  "\u2581publications": 3602,
  "\u2581Should": 3603,
  "\u2581mat": 3604,
  "\u2581asking": 3605,
  "\u2581nokuba": 3606,
  "\u2581unga": 3607,
  "ting": 3608,
  "\u2581Also": 3609,
  "\u2581Despi": 3610,
  "\u2581Tim": 3611,
  "\u2581discuss": 3612,
  "\u2581Only": 3613,
  "\u2581nyama": 3614,
  "\u2581Ohun": 3615,
  "\u2581fekk": 3616,
  "\u2581tokoki": 3617,
  "\u00fa": 3618,
  "\u2581event": 3619,
  "\u2581koko": 3620,
  "muka": 3621,
  "\u2581contrast": 3622,
  "\u2581truths": 3623,
  "\u2581Nukae": 3624,
  "\u2581Ukuba": 3625,
  "banga": 3626,
  "\u2581ivy": 3627,
  "zali": 3628,
  "\u2581komanu": 3629,
  "\u2581sort": 3630,
  "\u2581South": 3631,
  "\u2581\u00e0tte": 3632,
  "\u2581vio": 3633,
  "lia": 3634,
  "\u2581panel": 3635,
  "loo": 3636,
  "\u2581Fa": 3637,
  "\u2581kupa": 3638,
  "\u2581n\u0254": 3639,
  "\u2581tambula": 3640,
  "\u2581genuine": 3641,
  "\u25811914": 3642,
  "\u2581kpengba": 3643,
  "rwe": 3644,
  "\u2581Isareli": 3645,
  "t\u00f2": 3646,
  "\u2581Kuenje": 3647,
  "\u2581eyi": 3648,
  "\u258135": 3649,
  "\u2581forgive": 3650,
  "nwe": 3651,
  "nguva": 3652,
  "\u2581eeci": 3653,
  "bhe": 3654,
  "\u2581kintu": 3655,
  "\u258118:": 3656,
  "\u2581term": 3657,
  "\u2581L\u00e9": 3658,
  "\u2581arrangement": 3659,
  "\u2581carefully": 3660,
  "\u2581Each": 3661,
  "\u2581accounts": 3662,
  "\u2581abi": 3663,
  "\u2581recognize": 3664,
  "\u2581importance": 3665,
  "\u2581kwaba": 3666,
  "\u2581St": 3667,
  "\u2581Um": 3668,
  "\u258138": 3669,
  "\u2581personally": 3670,
  "\u2581\u1ecdn\u1ee5": 3671,
  "\u2581stood": 3672,
  "\u2581Church": 3673,
  "\u2581b\u00e9s": 3674,
  "\u2581mhaka": 3675,
  "\u2581obedience": 3676,
  "\u2581ikintu": 3677,
  "\u2581\u00e0p\u1eb9\u1eb9r\u1eb9": 3678,
  "\u2581declared": 3679,
  "LE": 3680,
  "\u2581kodi": 3681,
  "\u2581j\u00ebm": 3682,
  "\u2581tlhela": 3683,
  "iki": 3684,
  "\u2581km": 3685,
  "\u2581Royaume": 3686,
  "mali": 3687,
  "\u2581cities": 3688,
  "\u2581Pool": 3689,
  "\u2581Germany": 3690,
  "\u2581NA": 3691,
  "\u2581lomboloka": 3692,
  "\u2581Questions": 3693,
  "lelo": 3694,
  "\u2581nzoto": 3695,
  "\u2581Nokho": 3696,
  "\u2581ndina": 3697,
  "kwata": 3698,
  "\u2581aware": 3699,
  "\u2581l\u00f3j\u00fa": 3700,
  "chita": 3701,
  "\u2581room": 3702,
  "\u2581looked": 3703,
  "sya": 3704,
  "\u2581included": 3705,
  "\u2581bwanji": 3706,
  "\u2581delivered": 3707,
  "\u2581olondaka": 3708,
  "\u2581play": 3709,
  "\u2581general": 3710,
  "\u2581mposa": 3711,
  "\u2581wait": 3712,
  "\u2581kwabo": 3713,
  "\u2581Nk": 3714,
  "\u2581kwake": 3715,
  "\u2581kwaka": 3716,
  "mani": 3717,
  "\u2581koo": 3718,
  "khala": 3719,
  "\u2581nwunye": 3720,
  "\u2581loyalty": 3721,
  "\u2581eno": 3722,
  "\u2581vialua": 3723,
  "moni": 3724,
  "\u2581ennyo": 3725,
  "wala": 3726,
  "nywe": 3727,
  "\u2581Make": 3728,
  "\u2581darkness": 3729,
  "\u2581sangiwa": 3730,
  "\u2581Children": 3731,
  "kiri": 3732,
  "\u2581closer": 3733,
  "kali": 3734,
  "\u2581elongo": 3735,
  "\u258136": 3736,
  "giri": 3737,
  "taka": 3738,
  "\u2581maano": 3739,
  "ion": 3740,
  "que": 3741,
  "\u2581principle": 3742,
  "\u2581vekongelo": 3743,
  "\u2581xikombiso": 3744,
  "\u2581kanye": 3745,
  "\u2581suuf": 3746,
  "\u2581yavo": 3747,
  "\u2581established": 3748,
  "This": 3749,
  "\u2581studies": 3750,
  "\u2581kanam": 3751,
  "\u2581noted": 3752,
  "\u1ee5wa": 3753,
  "\u2581Ngakho": 3754,
  "\u2581despite": 3755,
  "\u2581\u201d!": 3756,
  "imba": 3757,
  "\u2581compassion": 3758,
  "\u2581mental": 3759,
  "\u2581Ezi": 3760,
  "ani": 3761,
  "\u2581involves": 3762,
  "\u2581Really": 3763,
  "Ha": 3764,
  "\u2581fetika": 3765,
  "\u2581challenges": 3766,
  "\u2581treat": 3767,
  "\u2581Kiki": 3768,
  "kwu": 3769,
  "\u2581observe": 3770,
  "\u2581patience": 3771,
  "hwa": 3772,
  "\u2581chiyani": 3773,
  "Ka": 3774,
  "saanidde": 3775,
  "\u2581lapansi": 3776,
  "\u2581\u1e63e\u00e9": 3777,
  "\u2581ndu": 3778,
  "\u2581okuva": 3779,
  "\u2581Christendom": 3780,
  "\u2581waba": 3781,
  "teke": 3782,
  "\u2581yayi": 3783,
  "\u2581sovereignty": 3784,
  "jw": 3785,
  "t\u00e0": 3786,
  "\u2581uYehova": 3787,
  "\u2581realized": 3788,
  "lula": 3789,
  "ngisa": 3790,
  "\u2581vilo": 3791,
  "\u2581jur\u00f3om": 3792,
  "\u2581masiku": 3793,
  "maka": 3794,
  "\u2581lii": 3795,
  "\u2581active": 3796,
  "\u2581task": 3797,
  "\u2581forget": 3798,
  "\u2581Internet": 3799,
  "\u2581kanga": 3800,
  "gbe": 3801,
  "\u2581ngakhale": 3802,
  "\u2581evening": 3803,
  "em": 3804,
  "uku": 3805,
  "\u2581Mose": 3806,
  "\u2581zyoonse": 3807,
  "vanhu": 3808,
  "kuli": 3809,
  "\u2581prepare": 3810,
  "\u2581izo": 3811,
  "\u2581BIBLE": 3812,
  "J": 3813,
  "r\u1ecb": 3814,
  "\u2581Juda": 3815,
  "\u2581P\u00f3": 3816,
  "\u2581obedient": 3817,
  "\u2581endle": 3818,
  "\u2581sex": 3819,
  "\u2581note": 3820,
  "ila": 3821,
  "\u2581boy": 3822,
  "\u2581W\u00f3": 3823,
  "\u2581l\u00e1": 3824,
  "\u2581Vanhu": 3825,
  "\u2581tluka": 3826,
  "\u2581background": 3827,
  "\u2581seemed": 3828,
  "\u2581emahlweni": 3829,
  "\u2581contains": 3830,
  "\u2581j\u00e0pp": 3831,
  "Pa": 3832,
  "\u258121,": 3833,
  "suka": 3834,
  "qala": 3835,
  "\u2581teachers": 3836,
  "\u2581Rom": 3837,
  "\u2581ese": 3838,
  "\u2581cases": 3839,
  "\u2581urged": 3840,
  "\u2581on\u00ed": 3841,
  "\u2581kosakola": 3842,
  "\u2581picture": 3843,
  "menye": 3844,
  "\u2581kumenya": 3845,
  "\u2581vose": 3846,
  "\u2581response": 3847,
  "\u2581nko": 3848,
  "\u2581Piyeer": 3849,
  "\u2581kat\u00e3": 3850,
  "\u2581date": 3851,
  "\u2581Mwa": 3852,
  "\u2581uyo": 3853,
  "\u2581idea": 3854,
  "\u2581ran": 3855,
  "il": 3856,
  "\u258135.": 3857,
  "nenge": 3858,
  "tala": 3859,
  "\u2581vavo": 3860,
  "\u2581yuvula": 3861,
  "\u2581Well": 3862,
  "\u2581kera": 3863,
  "\u2581teacher": 3864,
  "\u2581step": 3865,
  "\u2581amamako": 3866,
  "\u2581atu": 3867,
  "\u2581laso": 3868,
  "\u2581bolingo": 3869,
  "\u2581eso": 3870,
  "\u2581agagh\u1ecb": 3871,
  "\u25814;": 3872,
  "\u2581social": 3873,
  "\u2581bind": 3874,
  "\u2581specific": 3875,
  "\u2581opposition": 3876,
  "\u2581ngendlela": 3877,
  "\u2581Paradise": 3878,
  "\u2581afraid": 3879,
  "\u2581gone": 3880,
  "\u2581relief": 3881,
  "\u2581beloved": 3882,
  "\u2581gifts": 3883,
  "\u2581Ro": 3884,
  "\u2581Ruth": 3885,
  "\u2581sleep": 3886,
  "\u2581velapo": 3887,
  "\u00f3t\u00f3": 3888,
  "\u2581gbl\u0254": 3889,
  "nisa": 3890,
  "\u2581Take": 3891,
  "tion": 3892,
  "\u2581kill": 3893,
  "\u2581overcome": 3894,
  "iwa": 3895,
  "\u2581jub": 3896,
  "\u2581iku": 3897,
  "\u2581mobali": 3898,
  "\u2581kon": 3899,
  "\u2581Isaac": 3900,
  "tani": 3901,
  "\u2581ndiye": 3902,
  "ako": 3903,
  "\u2581ez": 3904,
  "kamba": 3905,
  "jwe": 3906,
  "\u2581Nke": 3907,
  "kula": 3908,
  "\u2581Ru": 3909,
  "\u2581\u00e0k\u00f3k\u00f2": 3910,
  "\u2581basic": 3911,
  "\u2581lembeti": 3912,
  "\u2581inside": 3913,
  "zwi": 3914,
  "\u2581Jo": 3915,
  "\u2581zyintu": 3916,
  "kunda": 3917,
  "\u2581verse": 3918,
  "\u2581m\u00ede": 3919,
  "n\u00fa": 3920,
  "\u2581prevent": 3921,
  "\u2581fana": 3922,
  "\u2581nto": 3923,
  "\u2581ovo": 3924,
  "qe": 3925,
  "\u2581Two": 3926,
  "\u2581workers": 3927,
  "\u2581nsogbu": 3928,
  "\u2581reports": 3929,
  "ter": 3930,
  "\u2581\u0191e": 3931,
  "\u2581increase": 3932,
  "bho": 3933,
  "\u2581Anga": 3934,
  "\u2581viwa": 3935,
  "\u2581Abakristaayo": 3936,
  "waka": 3937,
  "\u2581emotional": 3938,
  "\u2581sembo": 3939,
  "\u2581mbuti": 3940,
  "\u2581Idosiye": 3941,
  "\u2581des": 3942,
  "\u2581hwa": 3943,
  "\u2581pokola": 3944,
  "\u2581Ingabe": 3945,
  "\u2581baya": 3946,
  "\u2581experiences": 3947,
  "sunga": 3948,
  "\u2581hambana": 3949,
  "\u2581recent": 3950,
  "\u2581kuyo": 3951,
  "\u2581liaye": 3952,
  "fana": 3953,
  "\u2581Kwe": 3954,
  "\u2581noppi": 3955,
  "\u2581Ps": 3956,
  "rera": 3957,
  "pfa": 3958,
  "xo": 3959,
  "YA": 3960,
  "\u2581danger": 3961,
  "\u2581effective": 3962,
  "\u2581afise": 3963,
  "\u2581j\u00ebf": 3964,
  "\u2581saith": 3965,
  "\u2581Matt": 3966,
  "\u2581iya": 3967,
  "\u2581measure": 3968,
  "\u2581town": 3969,
  "mana": 3970,
  "m\u00e1": 3971,
  "\u2581requires": 3972,
  "\u2581warned": 3973,
  "mene": 3974,
  "\u2581Gannaaw": 3975,
  "\u2581baoyo": 3976,
  "\u2581biha": 3977,
  "\u2581dzino": 3978,
  "\u2581sambela": 3979,
  "\u2581guard": 3980,
  "\u2581base": 3981,
  "ndawo": 3982,
  "\u2581groups": 3983,
  "\u2581ngoba": 3984,
  "\u2581yonke": 3985,
  "\u2581France": 3986,
  "\u2581elobi": 3987,
  "\u2581imagine": 3988,
  "\u2581Kutani": 3989,
  "\u2581Yerusalem": 3990,
  "\u2581ekolelo": 3991,
  "\u2581Yohane": 3992,
  "\u258128,": 3993,
  "\u2581association": 3994,
  "tari": 3995,
  "\u2581ague": 3996,
  "\u2581Ibi": 3997,
  "\u2581publishers": 3998,
  "\u2581cope": 3999,
  "\u2581lango": 4000,
  "\u2581bonke": 4001,
  "\u2581Tongaso": 4002,
  "zyo": 4003,
  "\u258127.": 4004,
  "\u2581ku\u00e2": 4005,
  "\u2581cyangwa": 4006,
  "\u2581loss": 4007,
  "\u2581wavo": 4008,
  "\u2581sharing": 4009,
  "\u2581yayu": 4010,
  "\u2581\u00ecgb\u00e9": 4011,
  "\u2581business": 4012,
  "uma": 4013,
  "\u2581visited": 4014,
  "\u2581gathered": 4015,
  "\u2581homes": 4016,
  "\u2581putt": 4017,
  "\u2581\u1ecdj\u1ecd\u1ecd": 4018,
  "\u2581kubanga": 4019,
  "\u258123]": 4020,
  "\u2581hanya": 4021,
  "sr\u0254": 4022,
  "\u2581biwe": 4023,
  "\u2581overseer": 4024,
  "ziva": 4025,
  "\u2581blind": 4026,
  "\u2581Doom": 4027,
  "\u2581\u00e0m\u00f3": 4028,
  "\u2581spread": 4029,
  "\u2581manji": 4030,
  "\u2581obw": 4031,
  "vaka": 4032,
  "\u2581colour": 4033,
  "\u2581Nd\u1ecb\u00e0m\u00e0": 4034,
  "\u2581music": 4035,
  "\u2581surely": 4036,
  "\u2581Open": 4037,
  "\u1ee5r\u1ee5": 4038,
  "\u2581destroy": 4039,
  "naka": 4040,
  "\u2581bibe": 4041,
  "\u2581due": 4042,
  "\u2581sanga": 4043,
  "ive": 4044,
  "\u2581Nkaambo": 4045,
  "\u2581m\u0254": 4046,
  "\u2581fail": 4047,
  "\u2581Mount": 4048,
  "y\u00e0": 4049,
  "\u2581zoku": 4050,
  "RI": 4051,
  "Jesu": 4052,
  "ngela": 4053,
  "\u2581break": 4054,
  "\u2581observed": 4055,
  "\u0175a": 4056,
  "\u2581Compare": 4057,
  "\u2581laid": 4058,
  "\u2581h\u1ee5r\u1ee5": 4059,
  "\u2581ezo": 4060,
  "\u2581minister": 4061,
  "ata": 4062,
  "\u2581ahinga": 4063,
  "\u2581strive": 4064,
  "\u2581www": 4065,
  "\u2581negative": 4066,
  "giye": 4067,
  "\u2581consequences": 4068,
  "\u1ee5l\u1ecd": 4069,
  "\u2581carried": 4070,
  "\u2581Christianity": 4071,
  "SI": 4072,
  "\u258165": 4073,
  "riwe": 4074,
  "\u2581liyaka": 4075,
  "\u2581kuatele": 4076,
  "\u2581produce": 4077,
  "\u2581kusa": 4078,
  "\u2581riches": 4079,
  "\u25810": 4080,
  "\u2581commandments": 4081,
  "\u2581mayele": 4082,
  "\u2581owa": 4083,
  "\u2581zvose": 4084,
  "\u2581Kyokka": 4085,
  "jana": 4086,
  "WA": 4087,
  "\u2581akuti": 4088,
  "\u2581nziza": 4089,
  "simba": 4090,
  "\u2581Lapho": 4091,
  "\u2581h": 4092,
  "\u258114;": 4093,
  "\u2581caku": 4094,
  "\u2581format": 4095,
  "lelwa": 4096,
  "\u2581Asia": 4097,
  "ndza": 4098,
  "\u2581reported": 4099,
  "\u2581--": 4100,
  "\u2581ab\u1ee5": 4101,
  "\u2581manifest": 4102,
  "\u258130.": 4103,
  "\u2581buy": 4104,
  "keke": 4105,
  "gana": 4106,
  "MA": 4107,
  "\u2581kunga": 4108,
  "\u2581reasonable": 4109,
  "\u2581at\u1ecd": 4110,
  "\u2581tosengeli": 4111,
  "\u2581eto": 4112,
  "\u2581Nge": 4113,
  "\u2581kimwe": 4114,
  "\u2581situations": 4115,
  "\u2581TO": 4116,
  "\u2581Australia": 4117,
  "d\u00e9": 4118,
  "\u2581conclusion": 4119,
  "\u2581Isra\u00ebl": 4120,
  "mp": 4121,
  "\u2581acceptable": 4122,
  "ddwa": 4123,
  "\u2581SONGS": 4124,
  "thandiza": 4125,
  "\u2581Name": 4126,
  "mira": 4127,
  "\u2581aabo": 4128,
  "\u2581Chr\u00e9tien": 4129,
  "\u2581Faith": 4130,
  "\u2581worshippers": 4131,
  "\u2581reveal": 4132,
  "Nda\u00f1o": 4133,
  "\u2581mveni": 4134,
  "\u2581Mat": 4135,
  "\u2581practices": 4136,
  "\u2581relatives": 4137,
  "\u2581option": 4138,
  "\u2581elderly": 4139,
  "njalo": 4140,
  "\u2581includes": 4141,
  "\u2581bon": 4142,
  "\u2581greatly": 4143,
  "\u2581yakwe": 4144,
  "itwa": 4145,
  "\u2581patient": 4146,
  "\u2581existence": 4147,
  "chifukwa": 4148,
  "iri": 4149,
  "\u2581hearing": 4150,
  "\u2581iwu": 4151,
  "\u2581although": 4152,
  "\u2581esanju": 4153,
  "fanele": 4154,
  "\u2581kuruta": 4155,
  "\u2581vamue": 4156,
  "\u2581l": 4157,
  "\u1e63e": 4158,
  "\u2581l\u00e0w\u1ecdn": 4159,
  "\u2581universe": 4160,
  "\u2581endurance": 4161,
  "\u2581nkombo": 4162,
  "\u258116;": 4163,
  "To": 4164,
  "\u2581points": 4165,
  "\u2581wonke": 4166,
  "\u2581viavo": 4167,
  "\u2581throne": 4168,
  "t\u00ed": 4169,
  "\u2581wangu": 4170,
  "d\u0254": 4171,
  "\u0256i": 4172,
  "\u258126.": 4173,
  "\u2581ship": 4174,
  "\u2581vakanga": 4175,
  "\u2581medical": 4176,
  "\u2581Select": 4177,
  "dya": 4178,
  "\u2581Ngati": 4179,
  "\u2581limited": 4180,
  "thola": 4181,
  "\u2581agree": 4182,
  "\u2581zima": 4183,
  "\u2581behold": 4184,
  "yisi": 4185,
  "\u2581Anthu": 4186,
  "\u2581kunye": 4187,
  "\u2581Ikuti": 4188,
  "\u2581Lokola": 4189,
  "\u2581la\u00f1u": 4190,
  "tt": 4191,
  "mva": 4192,
  "\u2581pioneers": 4193,
  "\u2581ncinzi": 4194,
  "yeeya": 4195,
  "\u2581appeared": 4196,
  "\u2581lisang\u00e1": 4197,
  "\u2581ikuti": 4198,
  "\u2581remained": 4199,
  "\u2581society": 4200,
  "gb\u00e0": 4201,
  "\u2581chaka": 4202,
  "\u2581toog": 4203,
  "\u2581translation": 4204,
  "\u2581aleke": 4205,
  "kuta": 4206,
  "\u2581Kwi": 4207,
  "\u2581dzaka": 4208,
  "\u2581box": 4209,
  "gere": 4210,
  "\u2581demons": 4211,
  "\u2581major": 4212,
  "g\u00f3": 4213,
  "iya": 4214,
  "\u2581Ezekiel": 4215,
  "\u2581developed": 4216,
  "\u2581famba": 4217,
  "\u2581\u1ecbb\u1ee5": 4218,
  "sama": 4219,
  "\u2581at\u00e2": 4220,
  "Be": 4221,
  "\u2581Ge": 4222,
  "rwi": 4223,
  "s\u00ecn": 4224,
  "\u2581Ii": 4225,
  "\u2581Philippians": 4226,
  "\u2581hava": 4227,
  "\u2581mwe": 4228,
  "linga": 4229,
  "\u2581delight": 4230,
  "\u2581bangi": 4231,
  "\u2581inwe": 4232,
  "\u2581cy": 4233,
  "\u2581process": 4234,
  "\u2581ose": 4235,
  "\u2581convinced": 4236,
  "\u2581Ngoku": 4237,
  "melwe": 4238,
  "\u2581Family": 4239,
  "\u2581Over": 4240,
  "\u258141": 4241,
  "\u2581mikolo": 4242,
  "\u2581won": 4243,
  "\u2581xin": 4244,
  "\u2581Her": 4245,
  "\u2581ndoku": 4246,
  "\u2581Vakreste": 4247,
  "\u2581vakuavo": 4248,
  "\u2581banji": 4249,
  "shika": 4250,
  "funika": 4251,
  "\u2581gaa": 4252,
  "\u2581mpamba": 4253,
  "\u2581s\u00f3": 4254,
  "\u2581attending": 4255,
  "\u2581mawa": 4256,
  "\u2581correct": 4257,
  "\u2581lelo": 4258,
  "\u2581goes": 4259,
  "t\u0254wo": 4260,
  "\u2581Mfumo": 4261,
  "\u2581egosi": 4262,
  "When": 4263,
  "\u2581nchumu": 4264,
  "kwana": 4265,
  "\u2581muma": 4266,
  "What": 4267,
  "\u2581Help": 4268,
  "thetha": 4269,
  "\u2581ban": 4270,
  "\u2581copy": 4271,
  "\u2581lembe": 4272,
  "\u2581easily": 4273,
  "\u2581understood": 4274,
  "\u2581Other": 4275,
  "ina": 4276,
  "\u2581hundred": 4277,
  "ton": 4278,
  "\u2581discreet": 4279,
  "sati": 4280,
  "\u2581Amu": 4281,
  "\u2581forgiveness": 4282,
  "\u2581Bato": 4283,
  "leli": 4284,
  "\u2581Wadde": 4285,
  "\u2581twe": 4286,
  "\u2581kakuti": 4287,
  "r\u00f3": 4288,
  "\u2581Ububiko": 4289,
  "\u2581buri": 4290,
  "\u2581nzira": 4291,
  "\u2581sewa": 4292,
  "\u2581ele": 4293,
  "nika": 4294,
  "\u2581elu": 4295,
  "\u2581relative": 4296,
  "\u258115]": 4297,
  "\u2581Jean": 4298,
  "\u2581\u00ecj\u1ecd": 4299,
  "\u2581\u0143": 4300,
  "yoonu": 4301,
  "\u2581concerned": 4302,
  "\u2581Bokonzi": 4303,
  "\u2581Iyo": 4304,
  "ph": 4305,
  "s\u1ecb": 4306,
  "\u2581x\u0254": 4307,
  "\u2581mountain": 4308,
  "\u2581location": 4309,
  "\u2581rhandza": 4310,
  "\u2581confident": 4311,
  "\u2581becomes": 4312,
  "\u2581T\u00ed": 4313,
  "\u2581Kristi": 4314,
  "\u2581demonstrate": 4315,
  "\u2581Ebe": 4316,
  "\u2581deliver": 4317,
  "\u2581uThixo": 4318,
  "\u2581rab": 4319,
  "\u2581friendship": 4320,
  "\u25819]": 4321,
  "\u2581request": 4322,
  "\u2581main": 4323,
  "\u2581vaye": 4324,
  "\u2581Answer": 4325,
  "\u2581uses": 4326,
  "\u2581\u1e63\u00e8": 4327,
  "\u2581nwoke": 4328,
  "\u2581car": 4329,
  "\u2581ocisola": 4330,
  "\u2581ndara": 4331,
  "\u2581gold": 4332,
  "\u2581grateful": 4333,
  "nyina": 4334,
  "\u2581K\u00f2": 4335,
  "\u258110]": 4336,
  "luka": 4337,
  "\u2581komona": 4338,
  "\u2581Dr": 4339,
  "\u2581mb\u1ee5": 4340,
  "rs": 4341,
  "\u2581Being": 4342,
  "\u2581uche": 4343,
  "\u2581ababe": 4344,
  "\u2581\u00e8r\u00f2": 4345,
  "\u2581Canno": 4346,
  "baza": 4347,
  "fata": 4348,
  "\u2581Eka": 4349,
  "\u2581\u00eatre": 4350,
  "\u2581Ecclesiastes": 4351,
  "\u2581obulungi": 4352,
  "oluganda": 4353,
  "\u2581Ndzi": 4354,
  "Kristu": 4355,
  "\u2581k\u00far\u00f2": 4356,
  "\u2581race": 4357,
  "\u2581teaches": 4358,
  "\u2581Memorial": 4359,
  "\u2581finally": 4360,
  "\u2581empty": 4361,
  "\u2581allows": 4362,
  "\u258143": 4363,
  "\u2581gods": 4364,
  "r\u00f9n": 4365,
  "\u2581ar\u00e1": 4366,
  "\u2581Ot\u00fa": 4367,
  "\u2581doole": 4368,
  "\u2581g\u00e9nn": 4369,
  "\u2581missionaries": 4370,
  "Z": 4371,
  "\u2581likewise": 4372,
  "\u2581Z": 4373,
  "\u2581Move": 4374,
  "\u2581sword": 4375,
  "\u2581attended": 4376,
  "t\u1ee5": 4377,
  "\u2581apo": 4378,
  "\u2581exist": 4379,
  "t\u00f3": 4380,
  "\u2581waku": 4381,
  "guma": 4382,
  "kwenza": 4383,
  "\u2581Era": 4384,
  "\u2581nyuma": 4385,
  "pita": 4386,
  "rirwa": 4387,
  "\u2581bulungi": 4388,
  "rt": 4389,
  "\u2581continues": 4390,
  "\u2581guide": 4391,
  "\u2581Musaa": 4392,
  "\u2581Body": 4393,
  "\u2581kolela": 4394,
  "\u2581boroom": 4395,
  "bhu": 4396,
  "\u2581\u1ecbd\u1ecb": 4397,
  "quite": 4398,
  "\u2581amaanyi": 4399,
  "\u2581fe": 4400,
  "\u258148": 4401,
  "\u2581laa": 4402,
  "\u1ee5": 4403,
  "sta": 4404,
  "\u2581Japan": 4405,
  "\u2581valuable": 4406,
  "\u2581Nta": 4407,
  "n\u00ed": 4408,
  "\u2581mwoyo": 4409,
  "fise": 4410,
  "\u2581viewed": 4411,
  "\u2581byonna": 4412,
  "\u2581April": 4413,
  "\u2581Yahweh": 4414,
  "\u2581ghara": 4415,
  "lile": 4416,
  "\u2581late": 4417,
  "nena": 4418,
  "\u2581njengo": 4419,
  "\u2581rey": 4420,
  "nini": 4421,
  "\u2581application": 4422,
  "\u2581fulfill": 4423,
  "\u2581pursue": 4424,
  "\u2581setting": 4425,
  "ngani": 4426,
  "\u2581zeal": 4427,
  "\u2581opening": 4428,
  "\u2581yee": 4429,
  "\u2581bringing": 4430,
  "\u2581ruler": 4431,
  "\u2581zabo": 4432,
  "\u2581Cor": 4433,
  "\u2581dyondza": 4434,
  "\u2581njengoba": 4435,
  "\u2581army": 4436,
  "\u2581careful": 4437,
  "\u2581sake": 4438,
  "\u258142": 4439,
  "aho": 4440,
  "\".": 4441,
  "\u2581m\u00ec\u00edr\u00e0n": 4442,
  "\u2581theme": 4443,
  "\u2581writing": 4444,
  "\u2581lino": 4445,
  "\u2581improve": 4446,
  "\u2581grew": 4447,
  "\u2581prophecies": 4448,
  "\u2581master": 4449,
  "\u2581patsamba": 4450,
  "\u2581responsible": 4451,
  "and": 4452,
  "\u2581refused": 4453,
  "\u2581mugabo": 4454,
  "mpe": 4455,
  "\u2581Ese": 4456,
  "\u2581kp\u0254\u0256e\u014bu": 4457,
  "\u2581omuenyo": 4458,
  "\u2581rino": 4459,
  "\u2581J\u00e9": 4460,
  "\u2581server": 4461,
  "\u2581nangu": 4462,
  "\u2581particular": 4463,
  "\u2581daan": 4464,
  "\u2581j\u00e1de": 4465,
  "\u2581sincere": 4466,
  "tl": 4467,
  "\u2581L\u00f3": 4468,
  "\u2581Ja": 4469,
  "\u258133.": 4470,
  "ndlela": 4471,
  "\u2581Bakamboni": 4472,
  "\u2581pleasure": 4473,
  "lisi": 4474,
  "laga": 4475,
  "n\u00e1": 4476,
  "\u2581eating": 4477,
  "\u2581kuona": 4478,
  "\u2581yamu": 4479,
  "\u2581immorality": 4480,
  "\u2581hwe": 4481,
  "\u2581amba": 4482,
  "\u2581creatures": 4483,
  "\u2581front": 4484,
  "\u2581bazi": 4485,
  "limi": 4486,
  "\u2581student": 4487,
  "koresha": 4488,
  "njila": 4489,
  "\u2581menu": 4490,
  "\u2581pi": 4491,
  "\u2581Pi": 4492,
  "\u2581mighty": 4493,
  "\u2581naaka": 4494,
  "\u2581affected": 4495,
  "\u2581emisaveni": 4496,
  "ld": 4497,
  "\u2581mukuru": 4498,
  "zye": 4499,
  "\u2581amount": 4500,
  "\u2581remind": 4501,
  "\u2581M\u00e1": 4502,
  "\u2581praying": 4503,
  "\u2581kuyi": 4504,
  "\u2581environment": 4505,
  "\u2581white": 4506,
  "kere": 4507,
  "\u2581kwakhe": 4508,
  "\u2581Ovo": 4509,
  "\u2581lyoonse": 4510,
  "mbulu": 4511,
  "\u2581P\u1ecdl": 4512,
  "\u2581gwara": 4513,
  "\u2581prospect": 4514,
  "loko": 4515,
  "\u2581yonent": 4516,
  "\u2581awara": 4517,
  "\u2581kuzi": 4518,
  "\u2581ok\u00e9": 4519,
  "tye": 4520,
  "\u258123,": 4521,
  "lala": 4522,
  "t\u00e1": 4523,
  "ssa": 4524,
  "\u2581esunga": 4525,
  "\u2581woo": 4526,
  "\u2581loves": 4527,
  "\u2581hikuva": 4528,
  "\u2581musi": 4529,
  "dzwa": 4530,
  "tana": 4531,
  "\u2581lokho": 4532,
  "nyana": 4533,
  "\u2581energy": 4534,
  "m\u1ecd": 4535,
  "\u2581behavior": 4536,
  "\u2581avuga": 4537,
  "riro": 4538,
  "\u2581t\u00fa": 4539,
  "wulira": 4540,
  "\u2581Colossians": 4541,
  "\u2581road": 4542,
  "cituwa": 4543,
  "riza": 4544,
  "\u2581j\u00ebkk": 4545,
  "riye": 4546,
  "\u2581unique": 4547,
  "\u2581Asa": 4548,
  "\u2581leading": 4549,
  "\u2581particularly": 4550,
  "KO": 4551,
  "\u2581persons": 4552,
  "\u2581Mesiya": 4553,
  "\u2581enga": 4554,
  "\u2581wange": 4555,
  "\u2581\u014but\u0254": 4556,
  "\u2581wacu": 4557,
  "\u2581Tanga": 4558,
  "f\u00e9": 4559,
  "\u2581isikhathi": 4560,
  "\u2581buumi": 4561,
  "\u2581nayo": 4562,
  "buza": 4563,
  "\u2581listening": 4564,
  "\u2581ovitangi": 4565,
  "kaambo": 4566,
  "\u2581secret": 4567,
  "\u2581ns\u1ecd": 4568,
  "\u2581eight": 4569,
  "\u2581chinhu": 4570,
  "\u2581rup": 4571,
  "\u2581Don": 4572,
  "\u2581rin": 4573,
  "\u2581ngokuba": 4574,
  "\u2581sat": 4575,
  "\u2581placed": 4576,
  "\u2581Naho": 4577,
  "pati": 4578,
  "\u2581ibu": 4579,
  "siwa": 4580,
  "\u2581Note": 4581,
  "\u2581treatment": 4582,
  "\u258155": 4583,
  "ngeni": 4584,
  "\u2581ebiri": 4585,
  "\u2581consideration": 4586,
  "all": 4587,
  "\u2581Ubwoko": 4588,
  "\u2581conversation": 4589,
  "\u2581vulavula": 4590,
  "\u2581OF": 4591,
  "\u2581connection": 4592,
  "\u2581sr\u0254": 4593,
  "gb\u00e8": 4594,
  "jatikizya": 4595,
  "\u2581raka": 4596,
  "\u2581Ufumu": 4597,
  "\u2581zviri": 4598,
  "\u2581foreign": 4599,
  "\u2581akoki": 4600,
  "\u2581yoonse": 4601,
  "\u2581discussed": 4602,
  "ndle": 4603,
  "\u2581minds": 4604,
  "\u2581Look": 4605,
  "\u2581nze": 4606,
  "\u2581ron\u00fa": 4607,
  "\u2581kokuba": 4608,
  "bula": 4609,
  "\u2581kula": 4610,
  "\u2581ukamba": 4611,
  "\u25813;": 4612,
  "\u2581papeji": 4613,
  "moyo": 4614,
  "\u2581soro": 4615,
  "\u2581multitude": 4616,
  "\u2581overseers": 4617,
  "\u2581d": 4618,
  "konda": 4619,
  "\u258117;": 4620,
  "twe": 4621,
  "nk": 4622,
  "\u2581kwaamba": 4623,
  "SA": 4624,
  "\u2581identify": 4625,
  "\u2581zvaJehovha": 4626,
  "\u00f1": 4627,
  "\u2581air": 4628,
  "\u2581makolo": 4629,
  "\u2581kuvuga": 4630,
  "\u2581nda\u00f1o": 4631,
  "\u2581enemy": 4632,
  "\u2581expected": 4633,
  "\u2581harm": 4634,
  "\u2581stone": 4635,
  "\u2581kumwe": 4636,
  "\u2581rwe": 4637,
  "\u2581azia": 4638,
  "\u2581referred": 4639,
  "\u2581echiche": 4640,
  "\u2581rise": 4641,
  "\u2581Among": 4642,
  "\u2581aT\u00e9moin": 4643,
  "\u2581bonna": 4644,
  ";\"": 4645,
  "\u2581boppam": 4646,
  "\u2581jamono": 4647,
  "\u2581kuwa": 4648,
  "taba": 4649,
  "\u2581om\u00e3la": 4650,
  "\u2581Simon": 4651,
  "yise": 4652,
  "\u2581worthy": 4653,
  "\u2581displayed": 4654,
  "\u2581kunyange": 4655,
  "\u2581padziko": 4656,
  "\u2581sana": 4657,
  "gama": 4658,
  "\u2581saraxalekat": 4659,
  "\u2581August": 4660,
  "chaza": 4661,
  "khi": 4662,
  "\u2581urukundo": 4663,
  "\u2581per": 4664,
  "\u2581zita": 4665,
  "\u2581Johane": 4666,
  "muntu": 4667,
  "reka": 4668,
  "\u2581Pauro": 4669,
  "\u2581claim": 4670,
  "\u2581\u00ccj\u1ecdba": 4671,
  "\u2581windo": 4672,
  "khona": 4673,
  "\u2581associated": 4674,
  "\u2581valua": 4675,
  "\u2581maganizo": 4676,
  "\u2581nzara": 4677,
  "\u00c9": 4678,
  "\u2581causes": 4679,
  "\u2581offspring": 4680,
  "\u2581akiri": 4681,
  "\u2581\u00ecl\u00fa": 4682,
  "\u2581direct": 4683,
  "\u2581Twa": 4684,
  "SE": 4685,
  "p\u00e9": 4686,
  "shwa": 4687,
  "\u2581generation": 4688,
  "\u2581tor\u00ed": 4689,
  "\u2581<": 4690,
  "\u2581izina": 4691,
  "\u2581helpful": 4692,
  "\u2581zinga": 4693,
  "wina": 4694,
  "\u2581baklisto": 4695,
  "Sa": 4696,
  "\u2581wamu": 4697,
  "\u2581remove": 4698,
  "\u2581119": 4699,
  "\u2581Biani": 4700,
  "\u2581Hav": 4701,
  "\u2581busy": 4702,
  "\u2581Brooklyn": 4703,
  "\u2581mboka": 4704,
  "\u2581Finally": 4705,
  "\u2581Oco": 4706,
  "Lu": 4707,
  "\u2581territory": 4708,
  "iyo": 4709,
  "\u2581evident": 4710,
  "\u2581wose": 4711,
  "\u2581kozanga": 4712,
  "\u2581Sea": 4713,
  "nci": 4714,
  "qo": 4715,
  "\u2581hon": 4716,
  "sebenza": 4717,
  "\u2581mmiri": 4718,
  "\u2581fruitage": 4719,
  "b\u00e1": 4720,
  "\u2581issues": 4721,
  "\u2581y\u00ed": 4722,
  "\u2581non": 4723,
  "\u2581Dzi": 4724,
  "\u00edm\u00f3": 4725,
  "\u2581accomplish": 4726,
  "\u2581okufuna": 4727,
  "\u2581aza": 4728,
  "\u2581Governing": 4729,
  "\u2581kibiina": 4730,
  "\u2581Hikwalaho": 4731,
  "\u2581encouraging": 4732,
  "ati": 4733,
  "zama": 4734,
  "\u2581battle": 4735,
  "\u2581b\u00e1y\u00ec\u00ed": 4736,
  "\u2581temptation": 4737,
  "\u2581iti": 4738,
  "\u2581talking": 4739,
  "\u2581authorities": 4740,
  "\u2581bless": 4741,
  "garagaza": 4742,
  "\u2581taxaw": 4743,
  "\u2581xebaar": 4744,
  "\u2581xeet": 4745,
  "\u2581pendere": 4746,
  "kya": 4747,
  "\u2581doesn": 4748,
  "ndela": 4749,
  "\u2581wako": 4750,
  "\u2581statement": 4751,
  "\u00f6": 4752,
  "\u2581merely": 4753,
  "\u2581saa": 4754,
  "TA": 4755,
  "\u2581wilderness": 4756,
  "wile": 4757,
  "seke": 4758,
  "\u2581lietu": 4759,
  "\u2581View": 4760,
  "\u2581probably": 4761,
  "\u2581ought": 4762,
  "\u2581secular": 4763,
  "b\u00f9": 4764,
  "\u2581presented": 4765,
  "\u2581adds": 4766,
  "\u00e0t\u00f2": 4767,
  "\u2581High": 4768,
  "\u2581zvakanaka": 4769,
  "ny": 4770,
  "\u2581roku": 4771,
  "nzwa": 4772,
  "\u2581Maria": 4773,
  "\u2581lies": 4774,
  "\u2581fish": 4775,
  "belesya": 4776,
  "sele": 4777,
  "bwi": 4778,
  "\u2581Kpl": 4779,
  "LO": 4780,
  "\u2581harvest": 4781,
  "\u2581liwa": 4782,
  "\u2581react": 4783,
  "\u2581purposes": 4784,
  "\u2581yakho": 4785,
  "\u2581resist": 4786,
  "\u2581nsuka": 4787,
  "u\u00f1u": 4788,
  "\u2581Ishusho": 4789,
  "\u2581Yeremiya": 4790,
  "\u2581big": 4791,
  "\u2581kaba": 4792,
  "\u2581America": 4793,
  "\u2581yeda": 4794,
  "\u2581committed": 4795,
  "\u2581nduru": 4796,
  "responsibilities": 4797,
  "\u2581Under": 4798,
  "\u2581lokhu": 4799,
  "\u2581worth": 4800,
  "zoba": 4801,
  "\u2581eza": 4802,
  "\u2581senge": 4803,
  "\u2581yacho": 4804,
  "\u2581attack": 4805,
  "\u2581vundu": 4806,
  "\u2581gb\u0254": 4807,
  "\u2581xana": 4808,
  "\u2581njira": 4809,
  "\u2581toke": 4810,
  "\u2581wese": 4811,
  "\u2581comments": 4812,
  "Ko": 4813,
  "kiza": 4814,
  "\u2581voluali": 4815,
  "kozesa": 4816,
  "\u2581fathers": 4817,
  "\u2581dangerous": 4818,
  "\u2581American": 4819,
  "\u2581sit": 4820,
  "\u2581igama": 4821,
  "\u00c0": 4822,
  "\u2581kwazvo": 4823,
  "\u2581Eva": 4824,
  "\u2581Azo": 4825,
  "\u2581marito": 4826,
  "\u2581vikuavo": 4827,
  "\u2581>": 4828,
  "\u2581mbu": 4829,
  "\u2581ngaba": 4830,
  "\u2581Think": 4831,
  "nani": 4832,
  "\u2581uli": 4833,
  "\u2581describes": 4834,
  "\u2581an\u1ecd": 4835,
  "\u2581ekhasini": 4836,
  "\u2581powers": 4837,
  "\u2581turi": 4838,
  "\u2581r\u00f2": 4839,
  "':": 4840,
  "\u2581asa": 4841,
  "\u2581\u00ec\u1e63\u00f2ro": 4842,
  "YO": 4843,
  "\u2581\u00f2b\u00ed": 4844,
  "\u2581ichi": 4845,
  "uka": 4846,
  "\u2581kaNkulunkulu": 4847,
  "\u2581contrary": 4848,
  "\u2581occur": 4849,
  "\u2581k\u00fa": 4850,
  "\u2581Ocili": 4851,
  "\u2581\u00c9": 4852,
  "\u2581Gentiles": 4853,
  "\u2581sought": 4854,
  "\u2581kobe": 4855,
  "\u0254wo": 4856,
  "\u2581Abo": 4857,
  "!\u00bb": 4858,
  "\u2581bakoki": 4859,
  "\u2581rirhandzu": 4860,
  "\u2581ovi": 4861,
  "\u2581remains": 4862,
  "\u2581ovituwa": 4863,
  "\u2581Mateo": 4864,
  "\u2581pattern": 4865,
  "nira": 4866,
  "\u2581e\u014bu": 4867,
  "\u2581dzose": 4868,
  "\u2581reality": 4869,
  "\u258132.": 4870,
  "\u2581approval": 4871,
  "\u2581At\u00e2": 4872,
  "\u2581abamu": 4873,
  "\u2581caring": 4874,
  "\u2581kozoni": 4875,
  "\u258118]": 4876,
  "\u2581kityo": 4877,
  "\u2581successful": 4878,
  "\u2581Table": 4879,
  "olwekyo": 4880,
  "\u2581reached": 4881,
  "\u2581\u0144l\u00e1": 4882,
  "\u2581younger": 4883,
  "\u2581Times": 4884,
  "\u2581tears": 4885,
  "\u2581mavuto": 4886,
  "\u0254": 4887,
  "\u2581d\u00f9n": 4888,
  "\u2581extent": 4889,
  "rhe": 4890,
  "\u258180": 4891,
  "\u2581immoral": 4892,
  "\u2581Ndipo": 4893,
  "\u2581ada": 4894,
  "\u2581t\u00fab": 4895,
  "\u2581iryo": 4896,
  "\u2581\u1e62\u00e9": 4897,
  "igihe": 4898,
  "\u2581Un": 4899,
  "\u2581kule": 4900,
  "njo": 4901,
  "\u2581Galatians": 4902,
  "\u2581handi": 4903,
  "\u2581weak": 4904,
  "\u2581growing": 4905,
  "\u2581Yobu": 4906,
  "My": 4907,
  "\u2581aside": 4908,
  "amaanyi": 4909,
  "q": 4910,
  "d\u00ed": 4911,
  "\u2581dzina": 4912,
  "\u2581s\u00e9": 4913,
  "\u2581Sarah": 4914,
  "\u2581Once": 4915,
  "\u2581Kunyange": 4916,
  "\u2581Hu": 4917,
  "\u2581September": 4918,
  "\u258126]": 4919,
  "\u2581Ve": 4920,
  "\u2581Give": 4921,
  "\u2581weeks": 4922,
  "\u2581zealous": 4923,
  "\u2581husbands": 4924,
  "\u2581Robert": 4925,
  "\u2581communication": 4926,
  "\u2581maaso": 4927,
  "\u2581Canada": 4928,
  "\u2581gutuma": 4929,
  "\u2581oil": 4930,
  "\u2581kokuaye": 4931,
  "ty": 4932,
  "ezie": 4933,
  "kire": 4934,
  "\u2581aduti": 4935,
  "\u2581military": 4936,
  "\u2581icyo": 4937,
  "\u2581okw": 4938,
  "\u2581midst": 4939,
  "\u2581fill": 4940,
  "\u2581rwo": 4941,
  "\u2581fia": 4942,
  "\u2581limue": 4943,
  "\u2581ume": 4944,
  "\u2581hinkwawo": 4945,
  "wona": 4946,
  "\u2581kulo": 4947,
  "\u2581Ezali": 4948,
  "\u2581Translation": 4949,
  "\u2581YA": 4950,
  "\u2581oci": 4951,
  "\u2581indicate": 4952,
  "\u2581tuka": 4953,
  "\u2581ovisim\u0129lo": 4954,
  "\u2581train": 4955,
  "ndla": 4956,
  "ula": 4957,
  "\u2581Nukatae": 4958,
  "\u2581indawo": 4959,
  "\u2581raise": 4960,
  "\u2581Mwami": 4961,
  "\u2581normal": 4962,
  "\u2581Book": 4963,
  "\u2581vane": 4964,
  "ate": 4965,
  "\u258146": 4966,
  "There": 4967,
  "\u2581notes": 4968,
  "\u2581letters": 4969,
  "gbu": 4970,
  "\u2581lonse": 4971,
  "\u2581assembly": 4972,
  "\u2581beku": 4973,
  "\u2581bazo": 4974,
  "gbele": 4975,
  "cili": 4976,
  "\u2581heed": 4977,
  "\u258190": 4978,
  "rimwo": 4979,
  "\u2581Omanu": 4980,
  "\u2581naba": 4981,
  "\u2581safe": 4982,
  "j\u00e0": 4983,
  "\u2581abuse": 4984,
  "\u2581bearing": 4985,
  "\u2581waiting": 4986,
  "\u2581refers": 4987,
  "\u2581\u00e8n\u00ecy\u00e0n": 4988,
  "\u2581china": 4989,
  "\u2581diko": 4990,
  "ol": 4991,
  "\u2581cintu": 4992,
  "kila": 4993,
  "\u2581dwell": 4994,
  "k\u00fa": 4995,
  "tambula": 4996,
  "gba": 4997,
  "bani": 4998,
  "ran": 4999,
  "\u2581ebele": 5000,
  "\u2581Deuteronomy": 5001,
  "\u2581emhlabeni": 5002,
  "\u2581speaks": 5003,
  "\u2581umsebenzi": 5004,
  "\u2581Pharaoh": 5005,
  "\u2581jiri": 5006,
  "\u2581sant": 5007,
  "tembo": 5008,
  "\u2581nzo": 5009,
  "\u2581News": 5010,
  "\u2581ukuri": 5011,
  "ndisa": 5012,
  "\u2581distress": 5013,
  "\u2581wind": 5014,
  "\u2581elomboloko": 5015,
  "\u2581Furthermore": 5016,
  "\u2581Brazil": 5017,
  "\u2581ukwizera": 5018,
  "\u2581December": 5019,
  "\u2581\u00fan": 5020,
  "\u2581drawn": 5021,
  "\u2581Atako": 5022,
  "mbala": 5023,
  "\u2581Mar": 5024,
  "b\u00ed": 5025,
  "\u2581custom": 5026,
  "\u2581songo": 5027,
  "zera": 5028,
  "\u2581koloneke": 5029,
  "shira": 5030,
  "\u2581awamu": 5031,
  "\u2581\u1ee5d\u1ecb": 5032,
  "\u2581fara": 5033,
  "\u2581kuyanda": 5034,
  "\u2581akpe": 5035,
  "\u2581tukula": 5036,
  "koze": 5037,
  "\u2581anxiety": 5038,
  "m\u00f9": 5039,
  "\u2581pano": 5040,
  "\u2581acha": 5041,
  "bangela": 5042,
  "nzo": 5043,
  "vula": 5044,
  "\u2581\u1eb9n\u00ec": 5045,
  "\u2581animal": 5046,
  "\u2581deeds": 5047,
  "\u2581tulina": 5048,
  "\u2581writer": 5049,
  "\u2581assist": 5050,
  "RE": 5051,
  "\u2581koyekola": 5052,
  "\u2581noke": 5053,
  "\u2581kure": 5054,
  "\u2581nemi": 5055,
  "\u2581rejected": 5056,
  "ciye": 5057,
  "\u2581satisfaction": 5058,
  "\u2581images": 5059,
  "\u2581leer": 5060,
  "\u2581Hari": 5061,
  "\u2581Mexico": 5062,
  "pata": 5063,
  "All": 5064,
  "bye": 5065,
  "\u2581instruction": 5066,
  "\u2581wakati": 5067,
  "\u2581Otu": 5068,
  "\u2581advantage": 5069,
  "\u2581zimwi": 5070,
  ">>bam_Latn<<": 5071,
  "\u2581malaaka": 5072,
  "like": 5073,
  "\u2581translated": 5074,
  "\u014b": 5075,
  "\u2581string": 5076,
  "\u2581Sara": 5077,
  "\u2581ooyu": 5078,
  "bonakala": 5079,
  "ngozi": 5080,
  "tiki": 5081,
  "\u2581t\u00edt\u00ed": 5082,
  "\u2581add": 5083,
  "\u2581\u00ecd\u00edl\u00e9": 5084,
  "\u2581ahunda": 5085,
  "\u2581atari": 5086,
  "chititsa": 5087,
  "\u2581discussion": 5088,
  "\u2581court": 5089,
  "\u2581warm": 5090,
  "\u2581goodness": 5091,
  "\u2581hurt": 5092,
  "\u2581ndoco": 5093,
  "bera": 5094,
  "\u2581osa": 5095,
  "\u258117]": 5096,
  "\u2581nkwa": 5097,
  "\u2581m\u00e9j\u00ec": 5098,
  "\u2581teka": 5099,
  "baba": 5100,
  "\u2581khale": 5101,
  "\u2581kuyeeya": 5102,
  "kpe": 5103,
  "\u25815]": 5104,
  "r\u00f9": 5105,
  "\u2581kwii": 5106,
  "ngana": 5107,
  "\u2581jaar": 5108,
  "gamba": 5109,
  "\u2581waters": 5110,
  "\u2581Without": 5111,
  "\u2581lanu": 5112,
  "\u2581company": 5113,
  "gari": 5114,
  "ngaki": 5115,
  "\u2581risk": 5116,
  "\u2581drinking": 5117,
  ":%": 5118,
  "\u2581occurred": 5119,
  "Me": 5120,
  "zvo": 5121,
  "\u2581bubu": 5122,
  "\u2581garden": 5123,
  "\u2581nsango": 5124,
  "\u2581assured": 5125,
  "\u2581messages": 5126,
  "\u2581troubled": 5127,
  "\u2581Exodus": 5128,
  "\u2581Xel": 5129,
  "\u2581violent": 5130,
  "asi": 5131,
  "m\u00eda\u0192e": 5132,
  "\u2581Mbind": 5133,
  "\u2581village": 5134,
  "\u2581wathu": 5135,
  "\u2581Pilate": 5136,
  "\u2581tool": 5137,
  "\u2581Nzokande": 5138,
  "kamu": 5139,
  "\u2581Al": 5140,
  "\u2581kii": 5141,
  "\u2581Teach": 5142,
  "ab": 5143,
  "\u2581n\u0254n\u0254me": 5144,
  "\u2581fast": 5145,
  "\u2581gushika": 5146,
  "twala": 5147,
  "\u2581sinful": 5148,
  "\u2581kama": 5149,
  "bura": 5150,
  "\u2581apesaki": 5151,
  "\u2581insight": 5152,
  "\u2581mkazi": 5153,
  "leki": 5154,
  "\u2581exists": 5155,
  "malo": 5156,
  "\u2581ingingo": 5157,
  "\u2581Galilee": 5158,
  "\u2581baby": 5159,
  "\u2581notice": 5160,
  "\u2581growth": 5161,
  "\u2581vorongo": 5162,
  "\u2581x": 5163,
  "\u2581appears": 5164,
  "\u2581invitation": 5165,
  "xu": 5166,
  "\u2581\u1ee5b\u1ecdch\u1ecb": 5167,
  "Ubwami": 5168,
  "sango": 5169,
  "gize": 5170,
  "\u2581path": 5171,
  "kkiriza": 5172,
  "\u2581diiwaan": 5173,
  "\u2581\u00f1oo": 5174,
  "\u2581subjects": 5175,
  "\u2581Imagine": 5176,
  "lume": 5177,
  "\u2581daughters": 5178,
  "\u2581kuda": 5179,
  "\u2581Tata": 5180,
  "bana": 5181,
  "\u2581story": 5182,
  "\u2581Explain": 5183,
  "\u2581\u00e0wa": 5184,
  "\u2581Ekyo": 5185,
  "iti": 5186,
  "\u2581sunguluka": 5187,
  "\u2581god": 5188,
  "\u2581hagati": 5189,
  "\u2581kpale": 5190,
  "mya": 5191,
  "\u25811919": 5192,
  "b\u00e9": 5193,
  "\u2581kp\u1ecdr\u1ecd": 5194,
  ":\u201c": 5195,
  "\u2581July": 5196,
  "\u2581escape": 5197,
  "mati": 5198,
  "\u2581mbwa": 5199,
  "\u2581Timoteo": 5200,
  "fwa": 5201,
  "batsira": 5202,
  "\u2581kyali": 5203,
  "\u2581aspects": 5204,
  "vana": 5205,
  "fwu": 5206,
  "\u2581global": 5207,
  "\u2581stress": 5208,
  "\u2581wolowo": 5209,
  "\u2581wish": 5210,
  "mye": 5211,
  "\u2581Obu": 5212,
  "\u2581Study": 5213,
  "\u2581engu": 5214,
  "sungu": 5215,
  "\u2581receiving": 5216,
  "\u2581naino": 5217,
  "\u2581nezva": 5218,
  "\u2581Ngakhale": 5219,
  "Bu": 5220,
  "\u2581trained": 5221,
  "\u2581YOU": 5222,
  "j\u1ecd": 5223,
  "\u2581Version": 5224,
  "khale": 5225,
  "baka": 5226,
  "\u2581circuit": 5227,
  "sti": 5228,
  "\u2581Hambi": 5229,
  "\u2581applied": 5230,
  "\u2581simba": 5231,
  "\u2581m\u00eame": 5232,
  "ling": 5233,
  "\u2581Zvi": 5234,
  "\u2581Fu": 5235,
  "\u2581enyere": 5236,
  "\u2581k\u00e0n": 5237,
  "ele": 5238,
  "chu": 5239,
  "\u2581etu": 5240,
  "\u2581ziri": 5241,
  "\u2581b\u1ee5gh\u1ecb": 5242,
  "\u2581opportunities": 5243,
  "\u2581Pet": 5244,
  "ale": 5245,
  "shaka": 5246,
  "\u2581game": 5247,
  "\u2581(%": 5248,
  "\u2581n\u00ecy\u1eb9n": 5249,
  "kar\u1ecb": 5250,
  "\u2581join": 5251,
  "\u2581okwagala": 5252,
  "beni": 5253,
  "\u2581undeserved": 5254,
  "\u2581dunia": 5255,
  "\u2581joined": 5256,
  "\u2581outstanding": 5257,
  "im": 5258,
  "\u2581misala": 5259,
  "\u2581supported": 5260,
  "\u2581Osamo": 5261,
  "\u2581illness": 5262,
  "\u2581Mukama": 5263,
  "\u2581easier": 5264,
  "\u2581ugu": 5265,
  "bere": 5266,
  "\u2581Ze": 5267,
  "\u2581slaves": 5268,
  "\u2581akpengba": 5269,
  "\u2581\u1ecdk\u00f9nrin": 5270,
  "\u2581Ata": 5271,
  "\u2581BakaJehova": 5272,
  "tee": 5273,
  "izo": 5274,
  "\u2581Mbeti": 5275,
  "TI": 5276,
  "misi": 5277,
  "\u2581ach\u1ecd": 5278,
  "\u2581n\u00e9ew": 5279,
  "ity": 5280,
  "\u2581pake": 5281,
  "\u2581ezigbo": 5282,
  "\u2581nazalaki": 5283,
  "bele": 5284,
  "\u2581sole": 5285,
  "\u2581taka": 5286,
  "\u2581evidently": 5287,
  "rere": 5288,
  "Baibulo": 5289,
  "Nda": 5290,
  "\u2581\u01f8": 5291,
  "tatu": 5292,
  "\u2581riri": 5293,
  "\u2581object": 5294,
  "\u2581Readers": 5295,
  "\u2581quoted": 5296,
  "qi": 5297,
  "\u2581essential": 5298,
  "\u2581kovaso": 5299,
  "\u2581pride": 5300,
  "\u2581ole": 5301,
  "mbela": 5302,
  "zza": 5303,
  "\u2581nne": 5304,
  "gona": 5305,
  "ite": 5306,
  "ever": 5307,
  "\u2581agira": 5308,
  "\u2581legal": 5309,
  "\u2581mokonzi": 5310,
  "\u0192o": 5311,
  "\u2581\u1e63\u00ec": 5312,
  "\u258139": 5313,
  "d\u00e0": 5314,
  "\u2581appearance": 5315,
  "gwi": 5316,
  "\u2581religions": 5317,
  "\u2581tsiku": 5318,
  "\u2581Heb": 5319,
  "\u2581responded": 5320,
  "\u258125]": 5321,
  "\u2581faneleke": 5322,
  "\u2581Dawidi": 5323,
  "\u2581cilo": 5324,
  "\u2581ozali": 5325,
  "\u2581separate": 5326,
  "\u2581items": 5327,
  "\u2581or\u00fak\u1ecd": 5328,
  "hwe": 5329,
  "\u2581wickedness": 5330,
  "\u25812000": 5331,
  "\u2581Ndaka": 5332,
  "\u2581Nna": 5333,
  "ano": 5334,
  "\u2581nan\u1ecb": 5335,
  "\u0129": 5336,
  "\u2581produced": 5337,
  "\u2581scriptures": 5338,
  "w\u00e0": 5339,
  "\u2581esia": 5340,
  "\u2581Has": 5341,
  "\u2581ato": 5342,
  "\u2581ego": 5343,
  "byi": 5344,
  "\u2581\u0144\u1e63e": 5345,
  "\u2581soka": 5346,
  "\u2581Recall": 5347,
  "\u2581n\u00e0": 5348,
  "\u2581root": 5349,
  "\u2581wawo": 5350,
  "\u2581File": 5351,
  "\u2581ciy": 5352,
  "\u2581cover": 5353,
  "noo": 5354,
  "\u2581welcome": 5355,
  "RO": 5356,
  "\u2581enwegh\u1ecb": 5357,
  "t\u00edt\u00f3": 5358,
  "ciindi": 5359,
  "lwazi": 5360,
  "s\u0254": 5361,
  "\u2581mai": 5362,
  "\u2581Imi": 5363,
  "NA": 5364,
  "\u2581mune": 5365,
  "ism": 5366,
  "\u2581mfundo": 5367,
  "aga": 5368,
  "\u2581kumue": 5369,
  "\u2581wun": 5370,
  "\u2581moving": 5371,
  "0": 5372,
  "bale": 5373,
  "\u2581Ab": 5374,
  "\u2581dutingo": 5375,
  "\u2581onjila": 5376,
  "\u2581tara": 5377,
  "\u2581meal": 5378,
  "s\u00e1": 5379,
  "\u2581views": 5380,
  "\u2581tima": 5381,
  "\u2581abu": 5382,
  "\u2581sees": 5383,
  "\u2581Klisto": 5384,
  "\u2581koluka": 5385,
  "\u2581Urufunguzo": 5386,
  "\u2581nyui": 5387,
  "\u2581factors": 5388,
  "\u2581aaya": 5389,
  "leta": 5390,
  "\u2581ukuphila": 5391,
  "\u2581akulu": 5392,
  "panda": 5393,
  "\u2581ebu": 5394,
  "\u2581Gospel": 5395,
  "\u2581lessons": 5396,
  "\u2581parable": 5397,
  "\u2581yes": 5398,
  "manyi": 5399,
  "\u2581\u1ecbna": 5400,
  "\u2581expressions": 5401,
  "abandi": 5402,
  "\u2581Ifoto": 5403,
  "\u2581ragal": 5404,
  "\u2581Parents": 5405,
  "\u2581LORD": 5406,
  "\u2581wealth": 5407,
  "\u2581telling": 5408,
  "\u2581closely": 5409,
  "\u2581wakaamba": 5410,
  "\u2581Olu": 5411,
  "\u2581eleki": 5412,
  "\u2581K\u00f3": 5413,
  "dhi": 5414,
  "tima": 5415,
  "\u2581rake": 5416,
  "\u2581Teti": 5417,
  "\u2581conclude": 5418,
  "\u2581hinkwaswo": 5419,
  "os": 5420,
  "\u2581cry": 5421,
  "\u2581ngaphandle": 5422,
  "\u2581promote": 5423,
  "\u2581\u00ecm\u00f2": 5424,
  "\u2581abaana": 5425,
  "\u2581Afrika": 5426,
  "\u2581October": 5427,
  "\u2581\u00cds\u00ed": 5428,
  "\u2581Q": 5429,
  "Ni": 5430,
  "\u2581f\u00e1w\u1ecdn": 5431,
  "ryo": 5432,
  "\u2581ekiri": 5433,
  "\u2581endlaka": 5434,
  "\u2581load": 5435,
  "\u2581ezin\u1ee5l\u1ecd": 5436,
  "\u2581temporary": 5437,
  "\u2581Idirishya": 5438,
  "\u2581taa": 5439,
  "\u2581emonisi": 5440,
  "y\u00e9": 5441,
  "\u2581uthi": 5442,
  "kat": 5443,
  "\u2581yase": 5444,
  "Ta": 5445,
  "\u2581nazo": 5446,
  "ghachi": 5447,
  "\u2581agha": 5448,
  "\u2581ndox": 5449,
  "\u2581art": 5450,
  "m\u00f3": 5451,
  "\u2581looks": 5452,
  "\u2581neighbors": 5453,
  "\u2581tirha": 5454,
  "\u2581edzi": 5455,
  "\u2581loxo": 5456,
  "\u2581eyali": 5457,
  "\u2581commandment": 5458,
  "\u2581heavy": 5459,
  "\u025b": 5460,
  "\u2581ngokwe": 5461,
  "\u2581perform": 5462,
  "\u2581belief": 5463,
  "\u2581pad\u00e0": 5464,
  "\u2581witnessing": 5465,
  "\u2581nt\u1ecb": 5466,
  "\u2581bee": 5467,
  "\u2581ongangu": 5468,
  "\u2581eteke": 5469,
  "khuluma": 5470,
  "\u2581mbilu": 5471,
  "\u2581r\u00e0n": 5472,
  "\u2581count": 5473,
  "\u2581chakuti": 5474,
  "\u2581extreme": 5475,
  "bheka": 5476,
  "\u2581pleased": 5477,
  "\u2581yaram": 5478,
  "\u2581calling": 5479,
  "ut": 5480,
  "\u2581community": 5481,
  "\u2581upenyu": 5482,
  "\u2581wam": 5483,
  "\u2581Every": 5484,
  "\u2581Isa": 5485,
  "\u2581inheritance": 5486,
  "\u2581ogw": 5487,
  "ubwo": 5488,
  "\u2581asalaki": 5489,
  "\u2581eche": 5490,
  "\u2581omulimu": 5491,
  "\u2581Bivuye": 5492,
  "siga": 5493,
  "\u2581publication": 5494,
  "\u2581miso": 5495,
  "\u2581obulamu": 5496,
  "\u2581lowo": 5497,
  "\u2581fit": 5498,
  "\u2581aid": 5499,
  "\u2581M\u00eda": 5500,
  "\u2581abungbi": 5501,
  "\u2581l\u00e9egi": 5502,
  "\u2581Set": 5503,
  "pya": 5504,
  "\u2581decide": 5505,
  "\u2581hinkwavo": 5506,
  "\u2581mountains": 5507,
  "NI": 5508,
  "\u2581Likewise": 5509,
  "\u2581level": 5510,
  "\u2581trouble": 5511,
  "\u2581tiri": 5512,
  "\u2581evi": 5513,
  "\u2581England": 5514,
  "\u2581trees": 5515,
  "\u2581Esi": 5516,
  "nyamo": 5517,
  "\u2581k\u00fan": 5518,
  "\u2581indicates": 5519,
  "\u2581succeed": 5520,
  "tela": 5521,
  "\u2581rulers": 5522,
  "\u2581Eliya": 5523,
  "\u2581inhabitants": 5524,
  "\u2581dzo": 5525,
  "\u2581soldiers": 5526,
  "liya": 5527,
  "\u2581kumene": 5528,
  "\u2581effects": 5529,
  "\u2581honest": 5530,
  "\u2581akazi": 5531,
  "\u2581faithfully": 5532,
  "\u2581umene": 5533,
  "\u2581Nowa": 5534,
  "\u2581altar": 5535,
  "Va": 5536,
  "\u2581zinji": 5537,
  "\u2581treated": 5538,
  "\u2581wase": 5539,
  "mere": 5540,
  "\u2581eloko": 5541,
  "\u2581details": 5542,
  "\u2581konke": 5543,
  "renga": 5544,
  "\u2581lua": 5545,
  "\u2581Yini": 5546,
  "\u2581kilu": 5547,
  "\u2581worse": 5548,
  "\u2581(1)": 5549,
  "\u2581trial": 5550,
  "\u2581n\u00ecd\u00ed": 5551,
  "\u2581xalaat": 5552,
  "\u2581City": 5553,
  "\u2581police": 5554,
  "\u2581Close": 5555,
  "\u2581Kreste": 5556,
  "\u2581fa\u1ecbl\u1ee5": 5557,
  "\u2581l\u00e1\u00e0\u00e1r\u00edn": 5558,
  "\u2581widow": 5559,
  "\u2581March": 5560,
  "\u2581camp": 5561,
  "\u2581akpa": 5562,
  "\u2581commit": 5563,
  "\u2581N\u00edtor\u00ed": 5564,
  "\u2581prophetic": 5565,
  "\u2581witnesses": 5566,
  "\u2581Elisha": 5567,
  "\u2581Yesaya": 5568,
  "tonga": 5569,
  "\u2581cu": 5570,
  "\u2581zake": 5571,
  "\u2581ukwuu": 5572,
  "\u2581buba": 5573,
  "\u2581companions": 5574,
  "\u2581lying": 5575,
  "\u2581difference": 5576,
  "meze": 5577,
  "\u2581foundation": 5578,
  "\u2581alo": 5579,
  "\u2581mature": 5580,
  "ste": 5581,
  "\u2581Baba": 5582,
  "\u2581posi": 5583,
  "\u2581tula": 5584,
  "\u2581Contents": 5585,
  "\u2581Njengoba": 5586,
  "\u2581naMwari": 5587,
  "\u2581windows": 5588,
  "\u2581Zvisinei": 5589,
  "\u2581beast": 5590,
  "af\u1ecd": 5591,
  "\u2581brethren": 5592,
  "\u2581Micah": 5593,
  "\u2581financial": 5594,
  "\u2581m\u00edm\u00f3": 5595,
  "\u2581sinners": 5596,
  "thanda": 5597,
  "\u2581gaal": 5598,
  "\u2581seede": 5599,
  "\u2581wanu": 5600,
  "\u2581sokolola": 5601,
  "rile": 5602,
  "\u2581lasting": 5603,
  "\u2581strengthened": 5604,
  "\u2581Sometimes": 5605,
  "\u2581b\u00e0yyi": 5606,
  "\u2581stopped": 5607,
  "\u2581fanaka": 5608,
  "\u2581Day": 5609,
  "\u2581walked": 5610,
  "\u2581agbe": 5611,
  "ningi": 5612,
  "\u2581Land": 5613,
  "\u01f9": 5614,
  "\u2581poverty": 5615,
  "fendeli": 5616,
  "\u2581toli": 5617,
  "\u2581bwabo": 5618,
  "\u2581freely": 5619,
  "gg": 5620,
  "\u2581forces": 5621,
  "\u2581kuta": 5622,
  "\u2581ethi": 5623,
  "\u2581ukwenza": 5624,
  "hambaye": 5625,
  "\u2581samay": 5626,
  "\u2581kuza": 5627,
  "\u2581shared": 5628,
  "\u2581divorce": 5629,
  "\u2581M\u00ede": 5630,
  "riya": 5631,
  "\u2581wanga": 5632,
  "\u2581limene": 5633,
  "\u2581maso": 5634,
  "\u2581y\u00f3nni": 5635,
  "magazini": 5636,
  "\u2581Its": 5637,
  "\u2581endzhaku": 5638,
  "\u2581wrath": 5639,
  "w\u1ecd": 5640,
  "zela": 5641,
  "kiyinza": 5642,
  "\u2581ase": 5643,
  "\u2581t\u00ec": 5644,
  "\u2581yacu": 5645,
  "\u2581vukhongeri": 5646,
  "\u2581zazi": 5647,
  "\u2581indicated": 5648,
  "\u2581unclean": 5649,
  "\u2581zakhe": 5650,
  "\u2581cried": 5651,
  "\u2581studied": 5652,
  "\u2581fearing": 5653,
  "\u2581Chithunzi": 5654,
  "kaba": 5655,
  "\u2581decades": 5656,
  "\u2581doctor": 5657,
  "\u2581joyful": 5658,
  "\u2581silver": 5659,
  "\u2581kubantu": 5660,
  "\u2581malo": 5661,
  "\u2581assure": 5662,
  "\u2581chino": 5663,
  "\u2581n\u00eckan": 5664,
  "senga": 5665,
  "\u2581Saka": 5666,
  "tshi": 5667,
  "\u2581churches": 5668,
  "\u2581increased": 5669,
  "\u2581survive": 5670,
  "ranga": 5671,
  "\u2581Israelite": 5672,
  "\u2581siawo": 5673,
  "vuye": 5674,
  "\u2581wide": 5675,
  "\u2581top": 5676,
  "\u00f1u": 5677,
  "\u2581obtain": 5678,
  "\u2581baku": 5679,
  "\u2581d\u00ebkku": 5680,
  "\u2581gannaaw": 5681,
  "ruka": 5682,
  "\u2581international": 5683,
  "hlabathi": 5684,
  "\u2581okwa": 5685,
  "kanye": 5686,
  "\u2581hundreds": 5687,
  "\u2581Regard": 5688,
  "phila": 5689,
  "\u2581wars": 5690,
  "\u2581beneficial": 5691,
  "\u2581bond": 5692,
  "\u028b": 5693,
  "\u2581WHAT": 5694,
  "\u2581Ijambo": 5695,
  "\u2581osimbu": 5696,
  "\u2581reveals": 5697,
  "\u2581ibihe": 5698,
  "\u2581organized": 5699,
  "\u2581treasure": 5700,
  "mbili": 5701,
  "\u2581Zaburi": 5702,
  "\u2581grace": 5703,
  "\u2581ngisho": 5704,
  "\u2581t\u1ebdlisa": 5705,
  "\u2581\u1e63i\u1e63": 5706,
  "\u2581Aku": 5707,
  "eby": 5708,
  "\u2581Barnabas": 5709,
  "\u2581formed": 5710,
  "\u2581nguuru": 5711,
  "\u2581lwaki": 5712,
  "pona": 5713,
  "nyere": 5714,
  "\u2581iBhayibheli": 5715,
  "by": 5716,
  "tumye": 5717,
  "\u2581nginza": 5718,
  "\u2581wango": 5719,
  "\u2581touched": 5720,
  "gun": 5721,
  "\u2581awu": 5722,
  "\u2581computer": 5723,
  "\u2581research": 5724,
  "\u2581k\u00e0": 5725,
  "\u2581worshipers": 5726,
  "Ti": 5727,
  "gen": 5728,
  "\u2581abundance": 5729,
  "\u2581andu": 5730,
  "\u014a": 5731,
  "\u2581\u1ecdh\u1ee5r\u1ee5": 5732,
  "\u2581illustrate": 5733,
  "\u2581endeavor": 5734,
  "per": 5735,
  "Li": 5736,
  "\u2581dealing": 5737,
  "\u2581El": 5738,
  ":\u00ab": 5739,
  "\u2581kwama": 5740,
  "\u2581verses": 5741,
  "\u2581directed": 5742,
  "\u2581Kings": 5743,
  "\u2581ndia": 5744,
  "\u2581check": 5745,
  "\u2581impossible": 5746,
  "nina": 5747,
  "\u2581elikya": 5748,
  "\u2581MU": 5749,
  "\u2581bezoin": 5750,
  "ny\u00ed": 5751,
  "ame": 5752,
  "hora": 5753,
  "\u2581united": 5754,
  "\u2581aaku": 5755,
  "\u2581standard": 5756,
  "zana": 5757,
  "\u2581sungule": 5758,
  "\u2581alcohol": 5759,
  "\u2581mbiri": 5760,
  "\u2581ananena": 5761,
  "\u2581omi": 5762,
  "\u2581vokuend": 5763,
  "akarorero": 5764,
  "\u2581Pamene": 5765,
  "land": 5766,
  "ngwe": 5767,
  "\u2581forms": 5768,
  "\u2581recently": 5769,
  "\u2581seriously": 5770,
  "ndwa": 5771,
  "\u2581ivi": 5772,
  "ico": 5773,
  "zima": 5774,
  "\u2581aali": 5775,
  "\u2581moves": 5776,
  "\u2581j\u00e1": 5777,
  "\u2581June": 5778,
  "w\u0254w\u0254": 5779,
  "\u2581abaali": 5780,
  "\u2581State": 5781,
  "gula": 5782,
  "\u2581yetu": 5783,
  "\u2581icon": 5784,
  "\u2581mb\u00ebggeel": 5785,
  "vala": 5786,
  "\u2581Shetani": 5787,
  "\u2581kwezi": 5788,
  "\u2581olonjanja": 5789,
  "\u2581Nyen": 5790,
  "\u2581Unga": 5791,
  "\u2581ag": 5792,
  "\u2581bound": 5793,
  "\u2581apeeji": 5794,
  "\u2581Failed": 5795,
  "\u2581Iki": 5796,
  "\u2581izvi": 5797,
  "\u2581January": 5798,
  "kete": 5799,
  "\u2581Iku": 5800,
  "\u2581recognized": 5801,
  "\u2581n\u00f5la": 5802,
  "iko": 5803,
  "\u2581economic": 5804,
  "ZA": 5805,
  "\u2581Saatani": 5806,
  "\u2581thank": 5807,
  "dd": 5808,
  "\u2581rose": 5809,
  "\u2581dealings": 5810,
  "\u2581wari": 5811,
  "\u2581d\u1ecbgh\u1ecb": 5812,
  "\u2581entertainment": 5813,
  "loba": 5814,
  "yita": 5815,
  "\u2581relates": 5816,
  "\u2581constantly": 5817,
  "\u2581yama": 5818,
  "tora": 5819,
  "\u2581Biblical": 5820,
  "\u2581bafise": 5821,
  "\u2581lower": 5822,
  "So": 5823,
  "\u2581describe": 5824,
  "\u2581journey": 5825,
  "tta": 5826,
  "\u2581bodies": 5827,
  "\u2581Both": 5828,
  "\u2581ondaka": 5829,
  "\u2581s\u00e0mm": 5830,
  "\u2581\u00ecs\u00ecn": 5831,
  "\u2581bobele": 5832,
  "\u2581nyate\u0192e": 5833,
  "\u2581leaving": 5834,
  "\u2581200": 5835,
  "eri": 5836,
  "ira": 5837,
  "\u2581Amerika": 5838,
  "\u2581riki": 5839,
  "noita": 5840,
  "\u2581inkuru": 5841,
  "\u2581legeoko": 5842,
  "panga": 5843,
  "were": 5844,
  "\u2581vakawanda": 5845,
  "\u2581cost": 5846,
  "\u2581chiri": 5847,
  "\u2581malungh": 5848,
  "\u2581superior": 5849,
  "d\u00fan": 5850,
  "\u2581Petero": 5851,
  "\u2581heartfelt": 5852,
  "\u2581pamwe": 5853,
  "\u2581Daviti": 5854,
  "\u2581designed": 5855,
  "\u2581facts": 5856,
  "ent": 5857,
  "\u2581performed": 5858,
  "\u2581reference": 5859,
  "\u2581rulership": 5860,
  "\u2581Ngaba": 5861,
  "\u2581tur": 5862,
  "\u2581tambela": 5863,
  "\u2581default": 5864,
  "\u2581T\u00ebn\u00eb": 5865,
  "\u2581adultery": 5866,
  "\u2581ndigal": 5867,
  "\u2581\u0256a": 5868,
  "fango": 5869,
  "\u2581buur": 5870,
  "\u2581chaizvo": 5871,
  "\u2581mode": 5872,
  "\u2581peut": 5873,
  "fara": 5874,
  "hari": 5875,
  "\u2581viatiam\u1ebdla": 5876,
  "\u2581meditate": 5877,
  "\u2581basusu": 5878,
  "\u2581drugs": 5879,
  "\u2581governments": 5880,
  "\u2581refer": 5881,
  "qhubeka": 5882,
  "\u2581Nehemiah": 5883,
  "lowooza": 5884,
  "\u2581mbeto": 5885,
  "bisa": 5886,
  "\u2581marry": 5887,
  "\u2581yokuti": 5888,
  "\u2581eze": 5889,
  "\u2581impressed": 5890,
  "\u2581susu": 5891,
  "\u2581Spain": 5892,
  "risa": 5893,
  "v\u0254": 5894,
  "\u2581popular": 5895,
  "YI": 5896,
  "mbali": 5897,
  "\u2581declare": 5898,
  "\u2581uba": 5899,
  "\u2581zu": 5900,
  "\u2581habits": 5901,
  "\u2581siokpari": 5902,
  "chiri": 5903,
  "\u2581caye": 5904,
  "\u2581Via": 5905,
  "\u2581mine": 5906,
  "\u2581ndaw": 5907,
  "\u2581apart": 5908,
  "\u2581kwiiya": 5909,
  "\u2581Ibara": 5910,
  "\u2581wedding": 5911,
  "tte": 5912,
  "\u25816]": 5913,
  "\u2581Britain": 5914,
  "\u2581Eden": 5915,
  "\u2581Sell": 5916,
  "\u00ef": 5917,
  "p\u00e1": 5918,
  "\u2581total": 5919,
  "\u2581broken": 5920,
  "\u2581Mana": 5921,
  "moya": 5922,
  "\u2581BE": 5923,
  "\u2581kifo": 5924,
  "\u00c1": 5925,
  "\u2581d\u00e1ra": 5926,
  "tra": 5927,
  "\u2581baga": 5928,
  "\u2581etali": 5929,
  "\u2581vietu": 5930,
  "vyi": 5931,
  "\u258126,": 5932,
  "\u2581granted": 5933,
  "\u2581r\u00e9y": 5934,
  "Stock": 5935,
  "tisa": 5936,
  "\u2581series": 5937,
  "\u2581Akristu": 5938,
  "\u2581kovina": 5939,
  "\u2581mungo": 5940,
  "\u2581fan": 5941,
  "vugwa": 5942,
  "\u2581\u0256i": 5943,
  "\u2581Out": 5944,
  "\u2581ekwe": 5945,
  "fashe": 5946,
  "\u2581imeneyi": 5947,
  "\u2581\u00e0gw\u00e0": 5948,
  "funga": 5949,
  "abi": 5950,
  "ad": 5951,
  "\u2581ark": 5952,
  "\u2581lupapula": 5953,
  "\u2581cares": 5954,
  "\u2581unable": 5955,
  "ngano": 5956,
  "out": 5957,
  "\u2581cyo": 5958,
  "\u2581TI": 5959,
  "\u2581useful": 5960,
  "\u2581emotions": 5961,
  "\u2581item": 5962,
  "\u2581kae": 5963,
  "\u2581tender": 5964,
  "BA": 5965,
  "\u2581Save": 5966,
  "\u2581crime": 5967,
  "gwira": 5968,
  "\u2581listed": 5969,
  "tsika": 5970,
  "\u2581w\u00f2le": 5971,
  "\u2581Work": 5972,
  "\u2581ears": 5973,
  "ure": 5974,
  "\u2581ayenera": 5975,
  "Go": 5976,
  "\u2581session": 5977,
  "\u2581style": 5978,
  "nike": 5979,
  "ramba": 5980,
  "\u2581Kuba": 5981,
  "\u2581\u00c1": 5982,
  "\u2581souls": 5983,
  "\u2581njalo": 5984,
  "\u2581data": 5985,
  "\u258125,": 5986,
  "seka": 5987,
  "boneka": 5988,
  "\u258113]": 5989,
  "\u2581ggulu": 5990,
  "\u2581hatred": 5991,
  "\u2581Mbuti": 5992,
  "\u2581belong": 5993,
  "\u2581keybinding": 5994,
  "\u2581f": 5995,
  "\u2581contribute": 5996,
  "\u2581uwa": 5997,
  "\u2581ndyangu": 5998,
  "\u2581ivuga": 5999,
  "mini": 6000,
  "myaka": 6001,
  "sangalala": 6002,
  "agbanyegh\u1ecb": 6003,
  "sola": 6004,
  "yin": 6005,
  "\u2581gb\u00e2": 6006,
  "\u2581Alaeze": 6007,
  "\u2581release": 6008,
  "\u2581Italy": 6009,
  "\u2581magazini": 6010,
  "\u2581ideas": 6011,
  "\u2581upper": 6012,
  "\u2581Mother": 6013,
  "laha": 6014,
  "\u2581wacho": 6015,
  "cc": 6016,
  "\u2581desktop": 6017,
  "\u2581cose": 6018,
  "l\u1ee5": 6019,
  "cela": 6020,
  "\u2581document": 6021,
  "rhi": 6022,
  "\u2581Ee": 6023,
  "\u2581minkarhi": 6024,
  "\u2581m\u1ecd\u1ecdb\u1ee5": 6025,
  "sisi": 6026,
  "\u2581Kp\u0254": 6027,
  "\u2581eyayi": 6028,
  "\u2581d\u00far\u00f3": 6029,
  "\u00f1oo": 6030,
  "\u2581Aaron": 6031,
  "\u2581wesu": 6032,
  "\u2581Never": 6033,
  "\u2581Russell": 6034,
  "\u2581vumba": 6035,
  "\u2581mumulimo": 6036,
  "\u2581except": 6037,
  "\u2581ripfumelo": 6038,
  "j\u00ec": 6039,
  "\u2581alondo": 6040,
  "shandisa": 6041,
  "\u2581kotalela": 6042,
  "\u2581kwawo": 6043,
  "\u2581njani": 6044,
  "DE": 6045,
  "\u2581mabel\u00e9": 6046,
  "\u2581color": 6047,
  "\u2581Russia": 6048,
  "La": 6049,
  "aya": 6050,
  "000": 6051,
  "\u2581applying": 6052,
  "\u2581kokanisa": 6053,
  "\u2581bwakwe": 6054,
  "yumya": 6055,
  "\u2581Ndo": 6056,
  "limbikitsa": 6057,
  "\u2581Xelu": 6058,
  "\u2581baye": 6059,
  "retse": 6060,
  "kweni": 6061,
  "l\u1ecd": 6062,
  "\u2581leads": 6063,
  "\u2581lingiwa": 6064,
  "\u2581Blurb": 6065,
  "\u2581Latin": 6066,
  "\u2581higher": 6067,
  "buku": 6068,
  "\u2581nenzira": 6069,
  "\u2581\u1ecdr\u1ecba": 6070,
  "\u2581emyaka": 6071,
  "\u2581Handi": 6072,
  "\u2581providing": 6073,
  "\u2581eeyi": 6074,
  "\u2581ob\u00ecnrin": 6075,
  "!\"": 6076,
  "msebenzi": 6077,
  "\u00e9\u00e8y\u00e0n": 6078,
  "\u2581arise": 6079,
  "\u2581privileges": 6080,
  "\u2581hate": 6081,
  "\u2581komuenyo": 6082,
  "\u2581yiwe": 6083,
  "\u2581access": 6084,
  "vuta": 6085,
  "gomba": 6086,
  "laki": 6087,
  "\u0144": 6088,
  "nd\u00f6": 6089,
  "\u2581engage": 6090,
  "\u2581kura": 6091,
  "disabled": 6092,
  "\u2581ministers": 6093,
  "\u2581ngoko": 6094,
  "TO": 6095,
  "\u2581olonumbi": 6096,
  "\u1ee4": 6097,
  "\u2581Mosaic": 6098,
  "\u2581signs": 6099,
  "tsongo": 6100,
  "\u2581Byahiswemo": 6101,
  "\u2581listened": 6102,
  "\u2581TV": 6103,
  "\u2581\u1ecdk\u1ee5": 6104,
  "\u258129,": 6105,
  "nama": 6106,
  "\u2581bulamu": 6107,
  "\u2581low": 6108,
  "\u2581Yaxya": 6109,
  "\u2581m\u00e0ggal": 6110,
  "\u2581500": 6111,
  "\u2581Testament": 6112,
  "\u2581resolve": 6113,
  "kani": 6114,
  "\u2581ngwa": 6115,
  "Q": 6116,
  "\u00cc": 6117,
  "\u2581Xifaniso": 6118,
  "\u2581sinned": 6119,
  "\u2581ekya": 6120,
  "\u2581reject": 6121,
  "tende": 6122,
  "t\u1ecd": 6123,
  "\u2581omwoyo": 6124,
  "zere": 6125,
  "\u2581glorious": 6126,
  "\u2581mariage": 6127,
  "\u2581bab\u00e2": 6128,
  "\u2581yawo": 6129,
  "\u2581h\u1ee5": 6130,
  "aat": 6131,
  "\u2581thanks": 6132,
  "rara": 6133,
  "\u2581Urutonde": 6134,
  "\u2581Gishya": 6135,
  "See": 6136,
  "k\u00f9": 6137,
  "yela": 6138,
  "ijuru": 6139,
  "mpo": 6140,
  "\u2581naJehovha": 6141,
  "\u2581Dawudi": 6142,
  "Ctrl": 6143,
  "neminyaka": 6144,
  "\u2581slow": 6145,
  "\u2581provisions": 6146,
  "\u2581lovitangi": 6147,
  "\u2581f\u00e2": 6148,
  "\u2581mbongo": 6149,
  "\u2581tura": 6150,
  "\u2581Encyclopedia": 6151,
  "\u2581Kuli": 6152,
  "\u2581raMwari": 6153,
  "\u2581yooyu": 6154,
  "\u2581zomwe": 6155,
  "\u2581gara": 6156,
  "\u2581zvoku": 6157,
  "WO": 6158,
  "limba": 6159,
  "\u2581requirements": 6160,
  "\u2581esa": 6161,
  "tabi": 6162,
  "\u2581island": 6163,
  "twi": 6164,
  "tsva": 6165,
  "\u2581dear": 6166,
  "\u2581s\u00fb": 6167,
  "\u2581mola": 6168,
  "r\u00fa": 6169,
  "\u2581majwi": 6170,
  "\u2581mokano": 6171,
  "\u2581significant": 6172,
  "\u2581atya": 6173,
  "\u2581ekpere": 6174,
  "\u2581Yu": 6175,
  "\u2581\u00c0w\u00f2r\u00e1n": 6176,
  "\u2581valid": 6177,
  "etiti": 6178,
  "kurikira": 6179,
  "\u2581memory": 6180,
  "YE": 6181,
  "\u2581abaningi": 6182,
  "\u2581involve": 6183,
  "\u2581ensi": 6184,
  "\u2581komi": 6185,
  "\u2581Jer": 6186,
  "\u2581t\u1ebdla": 6187,
  "\u2581Baal": 6188,
  "\u2581render": 6189,
  "\u2581Ndax": 6190,
  "\u2581sasi": 6191,
  "yini": 6192,
  "\u2581oobo": 6193,
  "Bi": 6194,
  "makore": 6195,
  "\u2581\u1e62e": 6196,
  "\u2581rules": 6197,
  "\u2581AIDS": 6198,
  "\u2581ndulu": 6199,
  "\u2581ove": 6200,
  "syoonto": 6201,
  "\u2581sa\u00f1": 6202,
  "ber": 6203,
  "nyanga": 6204,
  "swi": 6205,
  "\u258166": 6206,
  "\u2581kwalaho": 6207,
  "\u2581amul": 6208,
  "\u2581bayekoli": 6209,
  "yigiriza": 6210,
  "\u2581\u00ecw\u1ecd": 6211,
  "for": 6212,
  "minyaka": 6213,
  "\u2581mphamvu": 6214,
  "lemba": 6215,
  "\u2581Peace": 6216,
  "\u2581dinaa": 6217,
  "\u2581inu": 6218,
  "\u2581buzima": 6219,
  "\u2581vyari": 6220,
  "siwe": 6221,
  "\u2581kapako": 6222,
  "\u2581nari": 6223,
  "\u2581Mixl\u1ebd": 6224,
  "\u2581baninga": 6225,
  "ndzi": 6226,
  "\u2581mail": 6227,
  "\u2581kufanele": 6228,
  "\u2581aspect": 6229,
  "yaka": 6230,
  "om": 6231,
  "\u2581mistakes": 6232,
  "\u2581mbotu": 6233,
  "\u2581tribe": 6234,
  "\u2581gya": 6235,
  "\u2581keeps": 6236,
  "Lo": 6237,
  "dzakhala": 6238,
  "\u2581Kuva": 6239,
  "\u2581feels": 6240,
  "\u25811990": 6241,
  "\u2581healthy": 6242,
  "\u2581alobi": 6243,
  "\u2581b\u00f2": 6244,
  "\u2581akp\u1ecd": 6245,
  "\u2581Truth": 6246,
  "\u2581gather": 6247,
  "\u00f5": 6248,
  "\u2581tiko": 6249,
  "\u2581carrying": 6250,
  "yobo": 6251,
  "\u2581egwu": 6252,
  "\u2581space": 6253,
  "\u2581kindly": 6254,
  "\u2581zawo": 6255,
  "\u2581rain": 6256,
  "ts\u0254": 6257,
  "\u2581t\u00e1n": 6258,
  "\u2581fornication": 6259,
  "\u2581ebya": 6260,
  "\u2581Mika": 6261,
  "\u2581primary": 6262,
  "oneka": 6263,
  "\u2581Thessalonians": 6264,
  "\u2581directly": 6265,
  "ngelo": 6266,
  "\u2581repentance": 6267,
  "\u2581langa": 6268,
  "\u2581uka": 6269,
  "\u2581German": 6270,
  "yaku": 6271,
  "Te": 6272,
  "phepha": 6273,
  "\u2581yeva": 6274,
  "\u2581hidden": 6275,
  "\u2581limwi": 6276,
  "\u0256e\u0256e": 6277,
  "\u2581yemwe": 6278,
  "\u2581choku": 6279,
  "woro": 6280,
  "cabanga": 6281,
  "kutu": 6282,
  "\u2581koyoka": 6283,
  "\u2581stars": 6284,
  "\u2581Surely": 6285,
  "\u2581kunyamo": 6286,
  "\u2581tona": 6287,
  "\u2581sweswi": 6288,
  "\u2581vast": 6289,
  "\u2581teba": 6290,
  "\u2581pui": 6291,
  "\u0256": 6292,
  "\u2581grown": 6293,
  "rire": 6294,
  "\u2581Master": 6295,
  "tongo": 6296,
  "\u2581Which": 6297,
  "\u2581testimony": 6298,
  "vuka": 6299,
  "taura": 6300,
  "\u2581instructions": 6301,
  "\u2581likolisilako": 6302,
  "\u2581dushobora": 6303,
  "\u2581mildness": 6304,
  "longo": 6305,
  "t\u00f9": 6306,
  "\u2581okumu": 6307,
  "\u2581accomplished": 6308,
  "\u2581exactly": 6309,
  "\u2581chumayela": 6310,
  "y\u00e8": 6311,
  "\u2581Nde": 6312,
  "\u2581aliyense": 6313,
  "\u2581Cho": 6314,
  "\u2581conventions": 6315,
  "\u2581s\u00edn\u00fa": 6316,
  "\u2581doctrine": 6317,
  "\u2581j\u00ebl": 6318,
  "kaita": 6319,
  "\u2581balina": 6320,
  "\u2581ended": 6321,
  "\u2581magazines": 6322,
  "ndzu": 6323,
  "\u2581Philip": 6324,
  "\u2581adisciple": 6325,
  "\u2581severe": 6326,
  "\u2581Akw\u1ee5kw\u1ecd": 6327,
  "\u2581eziningi": 6328,
  "vele": 6329,
  "\u2581bakaba": 6330,
  "\u2581igikorwa": 6331,
  "\u2581lesi": 6332,
  "\u2581Learn": 6333,
  "funde": 6334,
  "ire": 6335,
  "\u2581assistance": 6336,
  "\u2581proof": 6337,
  "\u2581wosi": 6338,
  "\u2581okubeera": 6339,
  "\u2581Unable": 6340,
  "lungu": 6341,
  "\u2581bashobora": 6342,
  "\u2581pali": 6343,
  "\u2581b\u00ebt": 6344,
  "\u2581j\u00e0mm": 6345,
  "\u2581moment": 6346,
  "raba": 6347,
  "\u2581kyonna": 6348,
  "tagira": 6349,
  "\u2581w\u00f2a": 6350,
  "\u2581m\u1ee5": 6351,
  "\u2581kaYehova": 6352,
  "lira": 6353,
  "\u2581ife": 6354,
  "\u2581rwose": 6355,
  "\u2581wild": 6356,
  "\u2581Hambiswiritano": 6357,
  "\u2581Uye": 6358,
  "=": 6359,
  "\u2581vacha": 6360,
  "sisa": 6361,
  "\u2581mateya": 6362,
  "\u2581determination": 6363,
  "\u2581Umwandiko": 6364,
  "\u2581Liloba": 6365,
  "\u2581Igama": 6366,
  "\u2581bayo": 6367,
  "\u2581a\u0256eke": 6368,
  "\u2581mkp\u1ee5r\u1ee5": 6369,
  "\u2581w\u1ecd": 6370,
  "\u2581apa": 6371,
  "\u2581clothing": 6372,
  "\u2581Bw": 6373,
  "\u2581f\u00e0ww": 6374,
  "\u2581neex": 6375,
  "\u2581ab\u1ee5gh\u1ecb": 6376,
  "\u2581travel": 6377,
  "san": 6378,
  "\u2581Diko": 6379,
  "et": 6380,
  "\u2581discovered": 6381,
  "\u2581struggle": 6382,
  "\u2581ruin": 6383,
  "\u2581vangula": 6384,
  "\u2581San": 6385,
  "ihu": 6386,
  "r\u1eb9": 6387,
  "\u2581refuge": 6388,
  "\u2581yethu": 6389,
  "dzu": 6390,
  "\u2581Maa": 6391,
  "\u2581rona": 6392,
  "\u2581miracles": 6393,
  "\u2581ndalama": 6394,
  "\u2581region": 6395,
  "\u2581determine": 6396,
  "ayo": 6397,
  "\u2581s\u0254": 6398,
  "\u2581shepherds": 6399,
  "sonyeza": 6400,
  "\u2581kunyina": 6401,
  "\u2581Armageddon": 6402,
  "\u2581exi": 6403,
  "siza": 6404,
  "\u2581r\u00e9ew": 6405,
  "\u2581d\u00e1ad\u00e1a": 6406,
  "\u2581utima": 6407,
  "\u2581glad": 6408,
  "\u2581select": 6409,
  "riri": 6410,
  "\u2581scribes": 6411,
  "\u2581milimo": 6412,
  "\u2581healed": 6413,
  "\u2581Behold": 6414,
  "\u2581user": 6415,
  "\u2581awakua": 6416,
  "\u2581kubu": 6417,
  "For": 6418,
  "\u2581released": 6419,
  "\u2581p\u1ee5tara": 6420,
  "ozi": 6421,
  "\u2581across": 6422,
  "\u2581kitoko": 6423,
  "d\u00e8": 6424,
  "\u2581concluded": 6425,
  "\u258131]": 6426,
  "\u2581Ncinzi": 6427,
  "\u2581\u1ecdk\u1ecd": 6428,
  "\u2581require": 6429,
  "\u2581Know": 6430,
  "\u2581Ico": 6431,
  "\u2581straight": 6432,
  "kara": 6433,
  "\u2581pointed": 6434,
  "\u2581kolanda": 6435,
  "phunzira": 6436,
  "Jesus": 6437,
  "ts": 6438,
  "\u2581vava": 6439,
  "\u2581Gukoresha": 6440,
  "\u2581tuyinza": 6441,
  "\u2581content": 6442,
  "\u201d": 6443,
  "\u2581Ciindi": 6444,
  "\u2581yokuba": 6445,
  "\u2581j\u00e9bbal": 6446,
  "\u2581satisfying": 6447,
  "\u2581terms": 6448,
  "tegwa": 6449,
  "\u00f9": 6450,
  "xam": 6451,
  "\u258124]": 6452,
  "\u2581wakho": 6453,
  "\u2581wani": 6454,
  "\u2581writes": 6455,
  "\u2581ce": 6456,
  "\u2581conflict": 6457,
  "sweni": 6458,
  "\u2581injustice": 6459,
  "\u2581tinga": 6460,
  "\u2581upright": 6461,
  "\u2581ip\u00f2": 6462,
  "nko": 6463,
  "mane": 6464,
  "\u2581table": 6465,
  "ini": 6466,
  "dziwa": 6467,
  "tele": 6468,
  "\u2581Ale": 6469,
  "\u2581aano": 6470,
  "laba": 6471,
  "\u2581Che": 6472,
  "\u2581Ambeni": 6473,
  "bereye": 6474,
  "jya": 6475,
  "\u2581mbali": 6476,
  "gbo": 6477,
  "\u2581g\u00f3or": 6478,
  "les": 6479,
  "tanda": 6480,
  "z\u00e3": 6481,
  "\u2581esengeli": 6482,
  "\u2581turu": 6483,
  ">": 6484,
  "\u2581nar\u1ecb": 6485,
  "\u2581highly": 6486,
  "keli": 6487,
  "\u2581herself": 6488,
  "\u2581lakhe": 6489,
  "\u2581balanced": 6490,
  "\u2581kubo": 6491,
  "\u2581Lot": 6492,
  "tyo": 6493,
  "\u2581Aho": 6494,
  "\u2581usanga": 6495,
  "sini": 6496,
  "\u2581newspaper": 6497,
  "khetha": 6498,
  "\u2581angry": 6499,
  "hawini": 6500,
  "\u2581spirits": 6501,
  "\u2581Herod": 6502,
  "\u2581occasions": 6503,
  "\u2581lusyomo": 6504,
  "\u2581joxe": 6505,
  "\u2581yaakaar": 6506,
  "shya": 6507,
  "\u2581discern": 6508,
  "umuntu": 6509,
  "tobela": 6510,
  "\u2581am\u00e4": 6511,
  "\u2581kundi": 6512,
  "\u2581ngaphambi": 6513,
  "nco": 6514,
  "\u2581kupfuura": 6515,
  "\u2581sold": 6516,
  "\u2581300": 6517,
  "\u2581Davida": 6518,
  "igi": 6519,
  "\u2581stick": 6520,
  "\u2581considering": 6521,
  "ekyokulabirako": 6522,
  "\u2581engumba": 6523,
  "NGA": 6524,
  "\u2581attendance": 6525,
  "tre": 6526,
  "\u2581katu": 6527,
  "\u2581siya": 6528,
  "\u2581ngempela": 6529,
  "\u2581running": 6530,
  "dzi\u0175a": 6531,
  "\u2581replied": 6532,
  "\u2581armies": 6533,
  "\u2581Ngenxa": 6534,
  "\u2581ulandu": 6535,
  "bali": 6536,
  "\u2581Come": 6537,
  "\u2581India": 6538,
  "\u2581nguya": 6539,
  "eki": 6540,
  "\u2581vatswari": 6541,
  "teye": 6542,
  "\u2581Je": 6543,
  "dz\u0254": 6544,
  "\u2581Nations": 6545,
  "\u2581w\u00e9r": 6546,
  "fia": 6547,
  "\u2581compared": 6548,
  "Alt": 6549,
  "How": 6550,
  "\u2581vyinshi": 6551,
  "\u2581enyi": 6552,
  "\u2581provision": 6553,
  "nsa": 6554,
  "\u2581Ngi": 6555,
  "mbisa": 6556,
  "\u2581im": 6557,
  "\u2581visible": 6558,
  "\u2581laye": 6559,
  "\u2581foot": 6560,
  "\u2581likutilila": 6561,
  "As": 6562,
  "\u2581kuyoo": 6563,
  "\u258124;": 6564,
  "\u2581Almighty": 6565,
  "\u2581wethu": 6566,
  "\u2581sang": 6567,
  "\u258134.": 6568,
  "\u2581palo": 6569,
  "\u2581akota": 6570,
  "\u2581surprise": 6571,
  "\u2581banja": 6572,
  "\u2581happens": 6573,
  "gire": 6574,
  "ir": 6575,
  "\u2581kwoku": 6576,
  "\u2581Michael": 6577,
  "\u2581spirituality": 6578,
  "\u2581corrupt": 6579,
  "iva": 6580,
  "s\u00edt\u00e9l\u00ec": 6581,
  "\u2581willingly": 6582,
  "\u2581differ": 6583,
  "\u2581ekuatiso": 6584,
  "\u2581Ivyabona": 6585,
  "solo": 6586,
  "katalika": 6587,
  "\u2581ill": 6588,
  "\u2581video": 6589,
  "\u2581Farisen": 6590,
  "\u2581k\u00e0ttan": 6591,
  "\u2581namuntlha": 6592,
  "ishengero": 6593,
  "\u2581ise": 6594,
  "\u2581l\u00e1\u00ec": 6595,
  "\u2581rebellion": 6596,
  "kileyo": 6597,
  "\u2581uburyo": 6598,
  "ela": 6599,
  "\u2581Aye": 6600,
  "pp": 6601,
  "\u2581Ngu": 6602,
  "\u2581finding": 6603,
  "\u2581bedzi": 6604,
  "\u2581pre": 6605,
  "\u2581Hosi": 6606,
  "\u2581quit": 6607,
  "ZI": 6608,
  "\u2581hlaya": 6609,
  "\u2581bati": 6610,
  "\u2581operation": 6611,
  "\u2581screen": 6612,
  "\u2581remarkable": 6613,
  "\u2581Bab\u00e2": 6614,
  "gazi": 6615,
  "\u2581uYesu": 6616,
  "\u2581houses": 6617,
  "udza": 6618,
  "\u2581ow\u00f3": 6619,
  "\u2581A\u0256e": 6620,
  "Keep": 6621,
  "\u2581chimwe": 6622,
  "\u2581boumel": 6623,
  "\u2581d\u00e9nk": 6624,
  "ff": 6625,
  "\u2581Add": 6626,
  "\u2581arose": 6627,
  "(": 6628,
  "Ci": 6629,
  "ghar\u1ecb": 6630,
  "Control": 6631,
  "\u2581Jonah": 6632,
  "\u2581amaKristu": 6633,
  "uwo": 6634,
  "nee": 6635,
  "dha": 6636,
  "\u2581hambi": 6637,
  "\u2581owaye": 6638,
  "ica": 6639,
  "\u258121]": 6640,
  "\u2581secure": 6641,
  "\u2581baza": 6642,
  "\u2581Mucikozyanyo": 6643,
  "\u2581ashobora": 6644,
  "\u2581nzila": 6645,
  "\u2581critical": 6646,
  "nzoni": 6647,
  "\u2581[\u201c": 6648,
  "\u2581ukuvuga": 6649,
  "\u2581remaining": 6650,
  "\u2581Abel": 6651,
  "\u2581mzimu": 6652,
  "type": 6653,
  "masi": 6654,
  "\u2581persecuted": 6655,
  "\u258122;": 6656,
  "d\u00ec": 6657,
  "\u2581efe": 6658,
  "\u2581onga": 6659,
  "\u2581turning": 6660,
  "\u2581enkulu": 6661,
  "\u2581pamisa": 6662,
  "zira": 6663,
  "\u2581anxious": 6664,
  "mvu": 6665,
  "d\u1ecb": 6666,
  "\u014bu": 6667,
  "njira": 6668,
  "\u2581Kuenda": 6669,
  "\u2581spouse": 6670,
  "\u2581nuy": 6671,
  "mmwe": 6672,
  "tri": 6673,
  "\u2581akpale": 6674,
  "kolera": 6675,
  "uti": 6676,
  "\u2581bed": 6677,
  "\u2581grief": 6678,
  "\u2581yayo": 6679,
  "syoma": 6680,
  "\u2581inhabited": 6681,
  "\u2581b\u00e9su": 6682,
  "gulu": 6683,
  "\u2581song": 6684,
  "\u2581cross": 6685,
  "\u2581peaceful": 6686,
  "lokhu": 6687,
  "\u2581abale": 6688,
  "\u2581amaze": 6689,
  "\u2581minutes": 6690,
  "\u2581Ihitamo": 6691,
  "\u2581uwu": 6692,
  "\u2581Izrel": 6693,
  "\u2581ziindi": 6694,
  "\u2581akuba": 6695,
  "\u2581leero": 6696,
  "kole": 6697,
  "lungi": 6698,
  "\u2581sizi": 6699,
  "\u2581national": 6700,
  "\u2581ek\u00f3lo": 6701,
  "kumana": 6702,
  "\u2581November": 6703,
  "\u2581kwere": 6704,
  "\u2581boat": 6705,
  "\u2581cili": 6706,
  "\u2581hlamusela": 6707,
  "\u2581kutaura": 6708,
  "\u2581model": 6709,
  "\u2581acted": 6710,
  "dinga": 6711,
  "\u258116]": 6712,
  "\u2581okumanya": 6713,
  "saki": 6714,
  "zaka": 6715,
  "lili": 6716,
  "\u2581Earth": 6717,
  "\u2581Zvapupu": 6718,
  "muamue": 6719,
  "\u2581uta": 6720,
  "Shift": 6721,
  "\u2581couples": 6722,
  "\u2581kitundu": 6723,
  "liswa": 6724,
  "ugu": 6725,
  "\u2581limodzi": 6726,
  "\u2581Endzhaku": 6727,
  "Chi": 6728,
  "\u2581kaambo": 6729,
  "iyi": 6730,
  "\u2581liavo": 6731,
  "girira": 6732,
  "mbula": 6733,
  "\u2581mapenzi": 6734,
  "khoza": 6735,
  "kuku": 6736,
  "\u2581commission": 6737,
  "\u2581babi": 6738,
  "\u2581unless": 6739,
  "\u2581ag\u1ee5": 6740,
  "\u2581katsa": 6741,
  "\u2581lavo": 6742,
  "\u2581reign": 6743,
  "\u2581sukilile": 6744,
  "dala": 6745,
  "tic": 6746,
  "\u2581buya": 6747,
  "ron": 6748,
  "\u2581ntiba": 6749,
  "bbi": 6750,
  "\u2581inner": 6751,
  "\u2581v\u0254": 6752,
  "lise": 6753,
  "\u2581begotten": 6754,
  "\u2581nine": 6755,
  "\u2581talavaya": 6756,
  "\u2581athu": 6757,
  "\u2581Second": 6758,
  "nkqubo": 6759,
  "\u2581lima": 6760,
  "\u258119;": 6761,
  "Se": 6762,
  "They": 6763,
  "\u2581sima": 6764,
  "\u2581Lamb": 6765,
  "\u2581selfish": 6766,
  "\u2581ebongi": 6767,
  "duku": 6768,
  "\u2581uk\u00e3i": 6769,
  "\u258134,": 6770,
  "\u2581enabled": 6771,
  "mwaka": 6772,
  "\u2581compare": 6773,
  "\u2581stake": 6774,
  "\u2581status": 6775,
  "\u2581cell": 6776,
  "\u2581marvelous": 6777,
  "\u00fc": 6778,
  "buulira": 6779,
  "lumi": 6780,
  "phuma": 6781,
  "\u2581Israyil": 6782,
  "\u2581ligg\u00e9ey": 6783,
  "\u2581below": 6784,
  "rega": 6785,
  "\u2581ube": 6786,
  "\u2581Buku": 6787,
  "\u2581population": 6788,
  "\u2581banga": 6789,
  "nqu": 6790,
  "\u2581Choncho": 6791,
  "\u2581yoleyo": 6792,
  "\u2581enable": 6793,
  "\u2581directory": 6794,
  "\u258144": 6795,
  "\u2581bingi": 6796,
  "\u2581twisisa": 6797,
  "HO": 6798,
  "\u2581Iwo": 6799,
  "\u2581twelve": 6800,
  "\u2581yiri": 6801,
  "\u2581kofeka": 6802,
  "vwu": 6803,
  "\u2581lomanu": 6804,
  "beka": 6805,
  "\u2581an\u1ee5": 6806,
  "\u2581Pierre": 6807,
  "kuma": 6808,
  "\u2581kubva": 6809,
  "\u2581vie": 6810,
  "\u2581zvazvo": 6811,
  "\u2581\u00ecd\u00ed": 6812,
  "lola": 6813,
  "\u2581Zechariah": 6814,
  "\u2581kira": 6815,
  "\u2581Petulu": 6816,
  "hlobo": 6817,
  "ndlu": 6818,
  "ise": 6819,
  "\u2581mikakatano": 6820,
  "\u2581focused": 6821,
  "\u258147": 6822,
  "\u2581dzidz\u0254": 6823,
  "rudzi": 6824,
  "great": 6825,
  "\u2581Byose": 6826,
  "sia": 6827,
  "\u2581oobu": 6828,
  "koko": 6829,
  "\u2581anagh\u1ecb": 6830,
  "\u2581kot\u00e1nga": 6831,
  "\u2581bant": 6832,
  "\u2581abata": 6833,
  "yaki": 6834,
  "\u2581Jordan": 6835,
  "\u2581bami": 6836,
  "\u2581developing": 6837,
  "\u2581Gushyiraho": 6838,
  "\u2581mpaka": 6839,
  "\u2581okulaba": 6840,
  "\u2581sad": 6841,
  "\u2581divided": 6842,
  "\u2581invisible": 6843,
  "kwiye": 6844,
  "\u2581Yona": 6845,
  "\u2581fo": 6846,
  "\u2581Gal": 6847,
  "\u2581additional": 6848,
  "\u2581ima": 6849,
  "tiwa": 6850,
  "\u2581reminded": 6851,
  "\u2581bita": 6852,
  "\u2581baboti": 6853,
  "\u2581Create": 6854,
  "\u2581exikarhi": 6855,
  "gwasya": 6856,
  "\u2581Kungani": 6857,
  "\u2581rungula": 6858,
  "\u2581successfully": 6859,
  "elu": 6860,
  "riweke": 6861,
  "\u2581(2)": 6862,
  "\u2581chikhulupiriro": 6863,
  "\u2581giriri": 6864,
  "\u2581nwaany\u1ecb": 6865,
  "Wa": 6866,
  "\u2581144,000": 6867,
  "\u2581ulume": 6868,
  "\u258149": 6869,
  "\u2581makore": 6870,
  "\u2581%(": 6871,
  "\u2581button": 6872,
  "\u2581season": 6873,
  "k\u00e0": 6874,
  "lina": 6875,
  "\u2581Kugira": 6876,
  "\u2581center": 6877,
  "\u2581kanyamo": 6878,
  "\u2581construction": 6879,
  "fuba": 6880,
  "\u2581ikpe": 6881,
  "\u2581restored": 6882,
  "\u2581serves": 6883,
  "\u2581onge": 6884,
  "\u2581victims": 6885,
  "\u2581sickness": 6886,
  "\u2581Students": 6887,
  "kiwa": 6888,
  "\u2581SI": 6889,
  "\u2581removed": 6890,
  "\u258129]": 6891,
  "mbele": 6892,
  "\u258112]": 6893,
  "\u2581element": 6894,
  "\u2581tichi": 6895,
  "\u2581akwa": 6896,
  "l\u0254l\u0254": 6897,
  "\u2581loo": 6898,
  "s\u1ecd": 6899,
  "tegerezwa": 6900,
  "\u2581Amos": 6901,
  "\u2581basaleli": 6902,
  "\u2581cold": 6903,
  "\u2581kimya": 6904,
  "\u2581nso": 6905,
  "\u2581George": 6906,
  "\u2581kamu": 6907,
  "\u2581liocili": 6908,
  "\u2581Mwachitsanzo": 6909,
  "\u2581\u00f1ett": 6910,
  "\u2581\u00f1\u00e0kk": 6911,
  "\u2581Gufungura": 6912,
  "\u2581kusvikira": 6913,
  "\u2581struck": 6914,
  "\u2581Sadly": 6915,
  "\u2581dyondzo": 6916,
  "\u2581Him": 6917,
  "\u2581iza": 6918,
  "\u2581Kati": 6919,
  "\u2581Source": 6920,
  "\u2581Pentecost": 6921,
  "\u2581nsonga": 6922,
  "\u2581comforting": 6923,
  "ngele": 6924,
  "\u2581indefinite": 6925,
  "\u2581ogun": 6926,
  "nyaka": 6927,
  "ster": 6928,
  "\u2581paid": 6929,
  "ug": 6930,
  "\u2581umuryango": 6931,
  "\u2581LE": 6932,
  "\u0263i": 6933,
  "\u2581mulimu": 6934,
  "Yesu": 6935,
  "\u2581Isirayeli": 6936,
  "hli": 6937,
  "\u2581dwelling": 6938,
  "\u2581t\u00f2\u00f3t": 6939,
  "\u2581rendered": 6940,
  "ntshwa": 6941,
  "yang": 6942,
  "bba": 6943,
  "\u2581Wi": 6944,
  "\u2581vanga": 6945,
  "oloneke": 6946,
  "thole": 6947,
  "\u2581Bar": 6948,
  "pasi": 6949,
  "\u2581\u00e8t\u00f2": 6950,
  "l\u00e0": 6951,
  "\u2581kwiga": 6952,
  "\u2581hair": 6953,
  "\u2581\u00e0k\u00f3": 6954,
  "\u2581firmly": 6955,
  "\u2581mark": 6956,
  "\u2581xiviri": 6957,
  "\u2581KA": 6958,
  "\u2581Kristot\u0254wo": 6959,
  "\u2581\u014bk\u0254": 6960,
  "\u2581kali": 6961,
  "\u2581Ministry": 6962,
  "lite": 6963,
  "hinga": 6964,
  "sina": 6965,
  "zintu": 6966,
  "chava": 6967,
  "\u2581African": 6968,
  "\u2581History": 6969,
  "\u2581tshembeka": 6970,
  "\u2581kokende": 6971,
  "\u2581baki": 6972,
  "\u2581fukk": 6973,
  "\u2581specified": 6974,
  "koo": 6975,
  "\u2581yitwa": 6976,
  "\u2581Mufananidzo": 6977,
  "peza": 6978,
  "\u2581lieci": 6979,
  "\u2581zika": 6980,
  "nofanira": 6981,
  "\u2581musa": 6982,
  "\u2581Prov": 6983,
  "\u2581Sovereign": 6984,
  "\u2581kotala": 6985,
  "\u25818]": 6986,
  "\u2581l\u00e0": 6987,
  "thwa": 6988,
  "\u2581fleshly": 6989,
  "\u2581ndeko": 6990,
  "\u2581private": 6991,
  "\u2581abundant": 6992,
  "\u2581ukwo": 6993,
  "TE": 6994,
  "tulu": 6995,
  "\u00cd": 6996,
  "New": 6997,
  "\u2581workspace": 6998,
  "\u2581osi": 6999,
  "tenga": 7000,
  "\u00f1a": 7001,
  "\u2581boyokani": 7002,
  "\u2581sezva": 7003,
  "\u2581aiva": 7004,
  "\u2581ziku": 7005,
  "\u2581rhula": 7006,
  "\u2581maara": 7007,
  "\u2581Oluvannyuma": 7008,
  "\u2581eager": 7009,
  "\u2581ohu": 7010,
  "nobva": 7011,
  "\u2581walo": 7012,
  "\u2581zvimwe": 7013,
  "\u2581bama": 7014,
  "\u258130,": 7015,
  "\u2581noba": 7016,
  "\u2581okwukwe": 7017,
  "\u2581agb\u00e1ra": 7018,
  "\u2581ebigambo": 7019,
  "\u2581tw": 7020,
  "\u2581Search": 7021,
  "neni": 7022,
  "\u2581MA": 7023,
  "\u2581reasoning": 7024,
  "\u2581ekitiibwa": 7025,
  "zyigwa": 7026,
  "\u2581writings": 7027,
  "pro": 7028,
  "zele": 7029,
  "\u2581Passover": 7030,
  "\u2581kimu": 7031,
  "zisa": 7032,
  "\u2581excellent": 7033,
  "\u2581b\u00e9pp": 7034,
  "\u2581j\u00f3g": 7035,
  "\u2581kilifa": 7036,
  "Umu": 7037,
  "\u2581majority": 7038,
  "\u2581recalls": 7039,
  "\u2581miy": 7040,
  "\u2581bambula": 7041,
  "\u2581represent": 7042,
  "pera": 7043,
  "\u2581ancien": 7044,
  "\u2581soneha": 7045,
  "w\u00e1": 7046,
  "\u2581chapters": 7047,
  "\u2581concerns": 7048,
  "\u2581physically": 7049,
  "kun": 7050,
  "\u2581N\u00edn\u00fa": 7051,
  "\u2581ajja": 7052,
  "kiso": 7053,
  "\u2581mucc": 7054,
  "chokera": 7055,
  "janika": 7056,
  "\u2581East": 7057,
  "\u2581mboba": 7058,
  "\u2581mbir": 7059,
  "\u2581vito": 7060,
  "\u2581balance": 7061,
  "longa": 7062,
  "\u2581Chii": 7063,
  "h\u1ee5": 7064,
  "\u2581wall": 7065,
  "\u2581ngemva": 7066,
  "\u2581eke": 7067,
  "\u2581mwamuna": 7068,
  "\u2581alua": 7069,
  "\u2581Vana": 7070,
  "\u2581Naomi": 7071,
  "mbira": 7072,
  "baga": 7073,
  "\u2581Titus": 7074,
  "\u2581abakirisu": 7075,
  "pandulula": 7076,
  "\u2581bacu": 7077,
  "\u2581mention": 7078,
  "neke": 7079,
  "\u2581Messianic": 7080,
  "\u2581apparently": 7081,
  "\u2581Ondaka": 7082,
  "\u0186": 7083,
  "\u2581Kubika": 7084,
  "kyali": 7085,
  "tsho": 7086,
  "\u2581d\u00e1j\u00fa": 7087,
  "\u2581siriri": 7088,
  "lika": 7089,
  "\u2581Nathan": 7090,
  "\u2581identified": 7091,
  "\u2581naho": 7092,
  "kw": 7093,
  "\u2581Fe": 7094,
  "\u2581anyika": 7095,
  "\u2581nase": 7096,
  "\u2581description": 7097,
  "\u2581nguzu": 7098,
  "mb": 7099,
  "\u2581ade": 7100,
  "\u2581kweelana": 7101,
  "ndima": 7102,
  "\u2581Nei": 7103,
  "yiga": 7104,
  "meli": 7105,
  "\u2581paragraph": 7106,
  "\u2581mibali": 7107,
  "\u2581Y\u00e9en": 7108,
  "salawo": 7109,
  "\u2581otherwise": 7110,
  "r\u1ee5": 7111,
  "tura": 7112,
  "\u2581deliverance": 7113,
  "\u2581oka": 7114,
  "k\u00e8": 7115,
  "sese": 7116,
  "\u2581Display": 7117,
  "\u2581aaka": 7118,
  "\u2581basengeli": 7119,
  "b\u1ee5": 7120,
  "nesi": 7121,
  "\u2581aco": 7122,
  "p\u1ee5r\u1ee5": 7123,
  "\u2581courageous": 7124,
  "j\u00e8": 7125,
  "\u2581clothes": 7126,
  "\u2581fadeso": 7127,
  "\u2581zvai": 7128,
  "\u2581opposite": 7129,
  "\u2581dinga": 7130,
  "\u2581remnant": 7131,
  "\u2581motivate": 7132,
  "\u2581appreciated": 7133,
  "Co": 7134,
  "\u2581Galile": 7135,
  "vava": 7136,
  "\u2581skills": 7137,
  "\u2581Uwo": 7138,
  "\u2581antoomwe": 7139,
  "\u2581store": 7140,
  "\u2581Mariya": 7141,
  "\u2581nena": 7142,
  "ende": 7143,
  "\u2581ugbu": 7144,
  "chitira": 7145,
  "\u2581ekalo": 7146,
  "\u2581b\u00e9rab": 7147,
  "\u2581w\u00f3or": 7148,
  "ntla": 7149,
  "\u2581Fear": 7150,
  "\u2581tupu": 7151,
  "Oku": 7152,
  "\u2581Ephesus": 7153,
  "\u2581Vembimbiliya": 7154,
  "\u2581kufa": 7155,
  "\u2581kudaro": 7156,
  "\u2581mikanda": 7157,
  "\u2581nomumwe": 7158,
  "buli": 7159,
  "nikeza": 7160,
  "\u2581imba": 7161,
  "\u2581koteya": 7162,
  "\u2581nava": 7163,
  "\u2581rely": 7164,
  "\u2581agreed": 7165,
  "bandla": 7166,
  "WE": 7167,
  "pfurikidza": 7168,
  "senge": 7169,
  "\u2581properly": 7170,
  "\u2581beauty": 7171,
  "\u2581mazuba": 7172,
  "tan": 7173,
  "\u2581bimwe": 7174,
  "\u2581ota": 7175,
  "\u2581Promised": 7176,
  "\u2581dream": 7177,
  "\u2581north": 7178,
  "\u2581contain": 7179,
  "\u2581Flood": 7180,
  "ddamu": 7181,
  "ME": 7182,
  "\u0101": 7183,
  "ub": 7184,
  "\u2581\u1ecdch\u1ecbch\u1ecb": 7185,
  "\u2581causing": 7186,
  "\u2581character": 7187,
  "\u2581BA": 7188,
  "\u2581difficulties": 7189,
  "\u2581offers": 7190,
  "bikkila": 7191,
  "\u2581\u1ee5m\u1ee5nna": 7192,
  "\u2581WA": 7193,
  "\u2581caught": 7194,
  "\u2581male": 7195,
  "\u2581kotya": 7196,
  "\u2581\u00c8y\u00ed": 7197,
  "\u2581yihi": 7198,
  "\u2581tudd": 7199,
  "tuka": 7200,
  "\u2581tutya": 7201,
  "\u2581gratitude": 7202,
  "\u2581batya": 7203,
  "\u2581subjection": 7204,
  "m\u00fa": 7205,
  "boola": 7206,
  "fasha": 7207,
  "\u258127,": 7208,
  "\u2581refuse": 7209,
  "\u2581mati": 7210,
  "\u2581\u0256eka": 7211,
  "\u2581endala": 7212,
  "\u2581onjongole": 7213,
  "\u2581amoon": 7214,
  "\u2581project": 7215,
  "\u2581sitting": 7216,
  "mhuri": 7217,
  "\u2581yedu": 7218,
  "\u2581dzoku": 7219,
  "\u2581pamue": 7220,
  "\u2581Ns\u1ecd": 7221,
  "\u2581copies": 7222,
  "20": 7223,
  "\u2581hospital": 7224,
  "\u2581capital": 7225,
  "\u2581forced": 7226,
  "50": 7227,
  "siyana": 7228,
  "\u2581kubi": 7229,
  "\u2581asks": 7230,
  "tsidwa": 7231,
  "\u0175i": 7232,
  "\u2581motani": 7233,
  "\u2581anu": 7234,
  "\u2581likebi": 7235,
  "\u2581amee": 7236,
  "\u2581potential": 7237,
  "ek": 7238,
  "\u2581Ndamupi": 7239,
  "\u2581komande": 7240,
  "\u2581s\u1ecbr\u1ecb": 7241,
  "\u2581faithfulness": 7242,
  "ara": 7243,
  "\u2581Chifukwa": 7244,
  "\u2581ica": 7245,
  "\u2581FOR": 7246,
  "\u2581Yoano": 7247,
  "\u2581cakali": 7248,
  "\u2581kuwo": 7249,
  "ibyo": 7250,
  "\u2581luyando": 7251,
  "\u2581g\u1ecbn\u1ecb": 7252,
  "domet\u0254": 7253,
  "\u2581corruption": 7254,
  "cwa": 7255,
  "\u2581Caesar": 7256,
  "\u2581ruling": 7257,
  "\u2581belongs": 7258,
  "Ye": 7259,
  "ensi": 7260,
  "\u2581resulted": 7261,
  "\u2581scripture": 7262,
  "\u2581qualified": 7263,
  "y\u00e0n": 7264,
  "\u00f1aar": 7265,
  "\u2581Salomo": 7266,
  "\u2581y\u00e1": 7267,
  "\u2581oluvannyuma": 7268,
  "\u2581Ar": 7269,
  "\u2581abali": 7270,
  "\u00c8": 7271,
  "\u2581tribes": 7272,
  "\u2581awake": 7273,
  "\u2581dyondzisa": 7274,
  "era": 7275,
  "lowo": 7276,
  "\u2581nri": 7277,
  "\u2581meaningful": 7278,
  "\u2581French": 7279,
  "kpa": 7280,
  "\u2581Pu": 7281,
  "\u2581holding": 7282,
  "\u2581kuy": 7283,
  "\u2581traveled": 7284,
  "\u2581anoti": 7285,
  "\u2581g\u0254me": 7286,
  "\u2581relations": 7287,
  "\u2581buru": 7288,
  "\u2581nse": 7289,
  "\u2581glorify": 7290,
  "\u2581mabele": 7291,
  "\u2581agwa": 7292,
  "1\".": 7293,
  "\u2581Enoch": 7294,
  "\u2581supply": 7295,
  "\u2581yange": 7296,
  "zva": 7297,
  "qiniso": 7298,
  "\u2581charge": 7299,
  "\u2581Es": 7300,
  "\u2581Jonathan": 7301,
  "\u2581T\u00e1": 7302,
  "\u2581suggestions": 7303,
  "\u2581unit": 7304,
  "hlale": 7305,
  "namandla": 7306,
  "sin": 7307,
  "\u2581endleke": 7308,
  "\u2581B\u00e9": 7309,
  "\u2581demonstrated": 7310,
  "\u2581d\u00e9ggee": 7311,
  "\u2581birds": 7312,
  "\u2581accord": 7313,
  "\u2581k\u0169l\u0129h\u0129le": 7314,
  "gura": 7315,
  "setyenziswa": 7316,
  "yandi": 7317,
  "\u2581London": 7318,
  "\u2581covered": 7319,
  "\u2581Worship": 7320,
  "\u2581\u00e8mi": 7321,
  "Mbi": 7322,
  "\u2581merciful": 7323,
  "\u2581vioku": 7324,
  "\u2581f\u00e0": 7325,
  "hanga": 7326,
  "id": 7327,
  "\u2581ebikwata": 7328,
  "\u2581lowukulu": 7329,
  "\u2581official": 7330,
  "sioni": 7331,
  "\u2581wabwino": 7332,
  "landela": 7333,
  "\u2581factor": 7334,
  "oni": 7335,
  "\u2581waliwo": 7336,
  "\u2581vaco": 7337,
  "beera": 7338,
  "\u2581vipi": 7339,
  "\u2581methods": 7340,
  "shoboye": 7341,
  "\u2581reaction": 7342,
  "\u2581ami": 7343,
  "\u2581motivated": 7344,
  "\u2581bituma": 7345,
  "\u2581constant": 7346,
  "name": 7347,
  "\u2581hafi": 7348,
  "themba": 7349,
  "visi": 7350,
  "\u2581limit": 7351,
  "gwirizana": 7352,
  "kore": 7353,
  "\u2581Porogaramu": 7354,
  "\u2581Scripture": 7355,
  "\u2581obodo": 7356,
  "\u2581assurance": 7357,
  "\u25813)": 7358,
  "\u2581Eya": 7359,
  "\u2581\u00ecl\u00e0n\u00e0": 7360,
  "tola": 7361,
  "\u2581nyumba": 7362,
  "\u2581viewpoint": 7363,
  "\u2581February": 7364,
  "\u2581\u00f1o": 7365,
  "\u2581drew": 7366,
  "\u2581aca": 7367,
  "\u2581development": 7368,
  "\u2581title": 7369,
  "banja": 7370,
  "\u2581litepa": 7371,
  "ivy": 7372,
  "\u25812)": 7373,
  "tandika": 7374,
  "\u2581mpiko": 7375,
  "\u2581ocikele": 7376,
  "\u2581okukkiriza": 7377,
  "ER": 7378,
  "risi": 7379,
  "\u2581misato": 7380,
  "\u2581solution": 7381,
  "\u2581drug": 7382,
  "\u2581wipe": 7383,
  "muuya": 7384,
  "\u2581Judea": 7385,
  "\u2581stayed": 7386,
  "lizi": 7387,
  "sooka": 7388,
  "\u2581uyu": 7389,
  "\u0169": 7390,
  "\u2581olwo": 7391,
  "buzya": 7392,
  "qonda": 7393,
  "\u2581k\u00e9\u00e8y\u00e0n": 7394,
  "\u2581kudzi": 7395,
  "l\u00f2": 7396,
  "nyanya": 7397,
  "\u2581International": 7398,
  "\u2581advance": 7399,
  "\u2581hide": 7400,
  "ah": 7401,
  "\u2581Find": 7402,
  "\u2581tiyenera": 7403,
  "\u2581aaba": 7404,
  "\u2581cakuti": 7405,
  "\u2581Magwalo": 7406,
  "\u2581n\u025b": 7407,
  "\u2581muka": 7408,
  "ratidza": 7409,
  "\u2581biba": 7410,
  "\u2581ili": 7411,
  "tonde": 7412,
  "\u2581Esia": 7413,
  "\u2581brain": 7414,
  "\u2581property": 7415,
  "\u2581Wu": 7416,
  "weke": 7417,
  "\u2581baabwe": 7418,
  "\u2581fika": 7419,
  "ner": 7420,
  "bati": 7421,
  "\u2581alina": 7422,
  "\u2581hio": 7423,
  "\u2581yonna": 7424,
  "\u2581mild": 7425,
  "\u2581relationships": 7426,
  "ncane": 7427,
  "\u258144.": 7428,
  "\u2581affairs": 7429,
  "\u2581anakanya": 7430,
  "\u2581finished": 7431,
  "\u2581mokanda": 7432,
  "\u258151": 7433,
  "\u2581depression": 7434,
  "\u2581okuyamba": 7435,
  "\u2581Zia": 7436,
  "\u2581apho": 7437,
  "\u2581touch": 7438,
  "\u2581Olo": 7439,
  "\u2581dust": 7440,
  "ch\u1ecd": 7441,
  "phela": 7442,
  "\u25811995": 7443,
  "\u2581Okwu": 7444,
  "\u2581asina": 7445,
  "njongo": 7446,
  "akw\u1ee5kw\u1ecd": 7447,
  "\u2581Zabbuli": 7448,
  "\u2581agamba": 7449,
  "\u2581bam": 7450,
  "\u2581customs": 7451,
  "\u2581ntembe": 7452,
  "\u2581feast": 7453,
  "nkolo": 7454,
  "yaga": 7455,
  "\u2581y\u00f3bbu": 7456,
  "\u2581girls": 7457,
  "\u2581failure": 7458,
  "\u2581endured": 7459,
  "\u2581wondered": 7460,
  "\u2581zinali": 7461,
  "\u2581sandu": 7462,
  "\u2581labo": 7463,
  "gb\u00f2": 7464,
  "\u2581bizaleli": 7465,
  "\u2581science": 7466,
  "\u2581quick": 7467,
  "kala": 7468,
  "\u2581Singa": 7469,
  "\u2581tempted": 7470,
  "\u2581olondonge": 7471,
  "\u2581igiki": 7472,
  "\u2581n\u00edbi": 7473,
  "tr\u0254": 7474,
  "\u2581ebibi": 7475,
  "bede": 7476,
  "\u2581pama": 7477,
  "\u2581proud": 7478,
  "\u2581nom": 7479,
  "\u2581familiar": 7480,
  "\u2581lase": 7481,
  "\u2581mbwaaka": 7482,
  "\u2581pu": 7483,
  "\u2581nabi": 7484,
  "\u2581nene": 7485,
  "\u2581seet": 7486,
  "maKristu": 7487,
  "\u2581wut": 7488,
  "\u2581ezalaka": 7489,
  "ia": 7490,
  "\u2581cancer": 7491,
  "\u2581discernment": 7492,
  "\u2581numerous": 7493,
  "\u2581ehansi": 7494,
  "sula": 7495,
  "\u2581represented": 7496,
  "\u2581Waka": 7497,
  "thatha": 7498,
  "\u2581kaku": 7499,
  "\u2581ayagala": 7500,
  "\u258172": 7501,
  "\u1ecdl\u00f3": 7502,
  "\u2581Futhi": 7503,
  "buye": 7504,
  "\u2581Olosap": 7505,
  "\u2581Whatever": 7506,
  "\u2581footnote": 7507,
  "\u2581Hezekiah": 7508,
  "\u2581Xl\u1ebd": 7509,
  "\u2581Bayuda": 7510,
  "\u2581reaching": 7511,
  "ebi": 7512,
  "\u2581Enye": 7513,
  "cy": 7514,
  "\u2581Draw": 7515,
  "layo": 7516,
  "\u2581iyoyo": 7517,
  "\u2581Key": 7518,
  "\u2581am\u1ee5": 7519,
  "\u2581d\u00eb": 7520,
  "\u2581nearby": 7521,
  "tahura": 7522,
  "\u2581\u00ecr\u00f2y\u00ecn": 7523,
  "\u2581Cain": 7524,
  "\u2581link": 7525,
  "umwe": 7526,
  "\u2581abandoned": 7527,
  "\u2581tlhelo": 7528,
  "n\u00e9": 7529,
  "\u2581ukuya": 7530,
  "\u2581plant": 7531,
  "\u2581xool": 7532,
  "bwiye": 7533,
  "\u2581Abram": 7534,
  "\u2581hast": 7535,
  "\u2581pagan": 7536,
  "ngene": 7537,
  "\u2581variety": 7538,
  "\u2581lye": 7539,
  "\u2581amenewa": 7540,
  "pisa": 7541,
  "\u2581nwany\u1ecb": 7542,
  "khonza": 7543,
  "\u2581fees": 7544,
  "\u2581ekiseera": 7545,
  "upenyu": 7546,
  "\u2581Lazarus": 7547,
  "\u2581zyaku": 7548,
  "\u2581Con": 7549,
  "\u2581culture": 7550,
  "\u2581inyuma": 7551,
  "\u2581k\u00e2": 7552,
  "kalemba": 7553,
  "phakathi": 7554,
  "korera": 7555,
  "\u2581bayi": 7556,
  "KI": 7557,
  "\u2581Hosea": 7558,
  "\u2581\u00ecj\u1ecdba": 7559,
  "\u2581ndam": 7560,
  "k\u00ed": 7561,
  "\u2581Ndina": 7562,
  "\u2581amandla": 7563,
  "\u2581\u00f1eent": 7564,
  "\u2581Manji": 7565,
  "t\u1ecb": 7566,
  "\u2581challenging": 7567,
  "\u2581ncotu": 7568,
  "\u2581pamberi": 7569,
  "\u2581scholars": 7570,
  "\u2581dignity": 7571,
  "\u2581adults": 7572,
  "lunga": 7573,
  "\u2581Leta": 7574,
  "\u2581influenced": 7575,
  "\u2581sola": 7576,
  "\u2581vain": 7577,
  "ngera": 7578,
  "\u2581nnali": 7579,
  "bhala": 7580,
  "Da": 7581,
  "lwi": 7582,
  "\u2581context": 7583,
  "\u2581career": 7584,
  "\u2581mobu": 7585,
  "yile": 7586,
  "kwiriye": 7587,
  "\u2581cup": 7588,
  "\u258153": 7589,
  "\u2581approached": 7590,
  "\u2581ngama": 7591,
  "\u2581w\u00e0\u00e1s\u00f9": 7592,
  "raga": 7593,
  "\u2581Sunday": 7594,
  "\u2581gihugu": 7595,
  "\u2581punishment": 7596,
  "\u2581tabernacle": 7597,
  "Why": 7598,
  "ida": 7599,
  "\u2581wawe": 7600,
  "\u2581Abrahamu": 7601,
  "\u2581manje": 7602,
  "\u2581okpukpe": 7603,
  "\u2581kuguma": 7604,
  "\u2581possessions": 7605,
  "lla": 7606,
  "\u2581discouraged": 7607,
  "GI": 7608,
  "han": 7609,
  "\u2581naan\u1ecb": 7610,
  "\u2581okutegeera": 7611,
  "\u2581boole": 7612,
  "kare": 7613,
  "\u2581bokonzi": 7614,
  "\u2581heads": 7615,
  "\u2581approved": 7616,
  "hlanga": 7617,
  "\u2581doro": 7618,
  "\u2581Judas": 7619,
  "hi\u00e3": 7620,
  "\u2581vangu": 7621,
  "\u2581THIS": 7622,
  "\u2581lisolo": 7623,
  "\u2581Olw": 7624,
  "yizi": 7625,
  "\u2581Number": 7626,
  "\u2581munsi": 7627,
  "\u2581meat": 7628,
  "\u2581Right": 7629,
  "\u2581muti": 7630,
  "ngathe": 7631,
  "zweni": 7632,
  "\u2581lovers": 7633,
  "\u258110;": 7634,
  "\u2581Uko": 7635,
  "\u2581essanyu": 7636,
  "ayagala": 7637,
  "\u2581mianakanyo": 7638,
  "\u2581price": 7639,
  "\u2581\u1e63\u00f9gb": 7640,
  "Jehova": 7641,
  "\u2581arranged": 7642,
  "\u2581konomuisa": 7643,
  "\u2581Ibraayma": 7644,
  "\u2581d\u00e9glu": 7645,
  "gerageza": 7646,
  "\u2581huma": 7647,
  "sengeli": 7648,
  "rangwa": 7649,
  "\u2581grain": 7650,
  "rie": 7651,
  "ris": 7652,
  "\u2581Sam": 7653,
  "\u2581damage": 7654,
  "\u2581Satani": 7655,
  "bizwa": 7656,
  "\u2581losambo": 7657,
  "itira": 7658,
  "\u2581Lokhu": 7659,
  "\u2581bugufi": 7660,
  "\u2581Mbala": 7661,
  "\u2581manager": 7662,
  "ian": 7663,
  "mfu": 7664,
  "\u2581fani": 7665,
  "\u2581flee": 7666,
  "limvwa": 7667,
  "\u2581Gen": 7668,
  "\u2581ery": 7669,
  "\u2581kolo": 7670,
  "\u2581lines": 7671,
  "\u2581length": 7672,
  "\u2581abigishwa": 7673,
  "\u2581resources": 7674,
  "\u2581passing": 7675,
  "omuntu": 7676,
  "\u2581mata": 7677,
  "\u2581Service": 7678,
  "\u2581gathering": 7679,
  "\u2581Spanish": 7680,
  "mukwasyi": 7681,
  "\u2581entitled": 7682,
  "\u2581tisa": 7683,
  "\u2581wedu": 7684,
  "kambo": 7685,
  "\u2581amewo": 7686,
  "\u2581yaku": 7687,
  "\u2581exercising": 7688,
  "du\u00f1u": 7689,
  "mile": 7690,
  "vina": 7691,
  "will": 7692,
  "\u2581B\u00e2": 7693,
  "\u2581pinga": 7694,
  "\u2581panguva": 7695,
  "tangura": 7696,
  "BU": 7697,
  "\u2581clergy": 7698,
  "\u2581wawu": 7699,
  "\u2581\u00e0\u00ec": 7700,
  "\u258131,": 7701,
  "\u2581associate": 7702,
  "zala": 7703,
  "\u2581\u1ecbh\u1ee5nanya": 7704,
  "but": 7705,
  "WI": 7706,
  "ere": 7707,
  "\u2581foolish": 7708,
  "BO": 7709,
  "bonye": 7710,
  "\u2581chikondi": 7711,
  "\u2581T\u00e9moin": 7712,
  "\u2581broke": 7713,
  "\u2581rock": 7714,
  "\u2581ezinye": 7715,
  "\u2581Eki": 7716,
  "nikela": 7717,
  "\u2581surprised": 7718,
  "Ga": 7719,
  "dzidzisa": 7720,
  "ipa": 7721,
  "\u2581akanaka": 7722,
  "\u2581gradually": 7723,
  "\u2581Malachi": 7724,
  "usi": 7725,
  "\u2581deaf": 7726,
  "\u2581emva": 7727,
  "\u2581gome": 7728,
  "AL": 7729,
  "pela": 7730,
  "livulu": 7731,
  "qhosha": 7732,
  "\u2581gisee": 7733,
  "\u2581mbooloom": 7734,
  "\u2581okuweereza": 7735,
  "\u2581tuntun": 7736,
  "\u2581y\u00e9ena": 7737,
  "guru": 7738,
  "\u2581burden": 7739,
  "bika": 7740,
  "\u2581aj\u1ee5j\u1ee5": 7741,
  "ngekho": 7742,
  "\u2581nezvi": 7743,
  "\u2581yingisa": 7744,
  "\u2581Xam": 7745,
  "\u2581poured": 7746,
  "\u2581ziya": 7747,
  "nqanawa": 7748,
  "\u2581Ngoko": 7749,
  "\u2581kukonzya": 7750,
  "Ama": 7751,
  "\u2581weight": 7752,
  "patsa": 7753,
  "\u2581modest": 7754,
  "teri": 7755,
  "\u2581ewu": 7756,
  "\u2581nemhaka": 7757,
  "\u2581lakuti": 7758,
  "\u2581\u0263eyi\u0263i": 7759,
  "\u258129:": 7760,
  "\u2581Nakuba": 7761,
  "\u2581\u014aku": 7762,
  "\u2581inherit": 7763,
  "\u2581union": 7764,
  "\u2581o\u00fanj\u1eb9": 7765,
  "\u2581Elilingi": 7766,
  "\u1ecdr\u1ee5": 7767,
  "\u2581Igi": 7768,
  "\u2581ab\u1ecba": 7769,
  "gaba": 7770,
  "\u2581dark": 7771,
  "\u2581ukuzi": 7772,
  "\u2581ezinga": 7773,
  "\u2581fallen": 7774,
  "\u2581recall": 7775,
  "l\u1eb9": 7776,
  "\u2581reflected": 7777,
  "\u2581dox": 7778,
  "\u2581completed": 7779,
  "\u2581nca": 7780,
  "r\u00e0": 7781,
  "\u1ecdr\u1ecd": 7782,
  "ddu": 7783,
  "\u2581figurative": 7784,
  "\u2581\u1ecbga": 7785,
  "\u2581matenda": 7786,
  "\u2581obuta": 7787,
  "res": 7788,
  "\u2581played": 7789,
  "\u2581Masimpe": 7790,
  "\u2581ak\u1ee5k\u1ecd": 7791,
  "\u2581bubi": 7792,
  "\u2581\u1ecbgba": 7793,
  "\u2581drawing": 7794,
  "\u2581pusu": 7795,
  "\u2581B\u00e1": 7796,
  "khulupirira": 7797,
  "\u2581ika": 7798,
  "chitika": 7799,
  "\u2581vule": 7800,
  "\u2581conscious": 7801,
  "\u2581ungodly": 7802,
  "\u2581yalua": 7803,
  "\u2581menye": 7804,
  "\u2581acknowledge": 7805,
  "girwa": 7806,
  "\u2581byela": 7807,
  "\u2581doo": 7808,
  "\u2581judged": 7809,
  "\u2581Eventually": 7810,
  "mwana": 7811,
  "\u2581red": 7812,
  "\u2581Car": 7813,
  "komeza": 7814,
  "\u2581possess": 7815,
  "\u2581Ukuze": 7816,
  "\u2581ezala": 7817,
  "\u2581ochie": 7818,
  "\u2581admonition": 7819,
  "\u2581jaamu": 7820,
  "\u2581restore": 7821,
  "sse": 7822,
  "\u2581descendants": 7823,
  "bela": 7824,
  "\u2581kundila": 7825,
  "\u2581street": 7826,
  "adi": 7827,
  "with": 7828,
  "\u2581nange": 7829,
  "\u2581dzimwe": 7830,
  "\u2581Happy": 7831,
  "liki": 7832,
  "tswa": 7833,
  "\u2581kuchi": 7834,
  "\u2581Ina": 7835,
  "makhala": 7836,
  "\u2581Nazi": 7837,
  "xesha": 7838,
  "\u2581babona": 7839,
  "\u2581icili": 7840,
  "\u2581Visit": 7841,
  "\u2581analemba": 7842,
  "\u2581feature": 7843,
  "nzvimbo": 7844,
  "pusu": 7845,
  "\u2581alu": 7846,
  "mulimo": 7847,
  "\u2581Health": 7848,
  "\u2581baat": 7849,
  "\u2581iso": 7850,
  "\u2581bayinza": 7851,
  "\u2581Umwanya": 7852,
  "\u2581bees": 7853,
  "KU": 7854,
  "\u2581distance": 7855,
  "\u2581Likamb": 7856,
  "\u2581scene": 7857,
  "Re": 7858,
  "amazima": 7859,
  "\u2581brotherhood": 7860,
  "\u2581Doing": 7861,
  "\u2581balo": 7862,
  "Bhayibheli": 7863,
  "\u2581Again": 7864,
  "\u2581gbara": 7865,
  "ezi": 7866,
  "munhu": 7867,
  "\u2581ira": 7868,
  "\u2581uPawulu": 7869,
  "\u2581okoki": 7870,
  "\u2581607": 7871,
  "\u2581zvakadaro": 7872,
  "BI": 7873,
  "Fi": 7874,
  "\u2581zvakawanda": 7875,
  "r\u00e1": 7876,
  "\u2581boys": 7877,
  "\u2581Timoteyo": 7878,
  "\u2581akomaki": 7879,
  "\u2581mibeko": 7880,
  "\u2581mana": 7881,
  "\u2581m\u1ee5r\u1ee5": 7882,
  "\u2581alert": 7883,
  "\u2581Davidi": 7884,
  "\u2581noticed": 7885,
  "\u2581bwaffe": 7886,
  "\u2581synagogue": 7887,
  "\u2581swakudya": 7888,
  "\u2581COVER": 7889,
  "Obwakabaka": 7890,
  "tegeeza": 7891,
  "\u2581University": 7892,
  "\u0254l\u0254": 7893,
  "\u2581abazali": 7894,
  "\u2581sapela": 7895,
  "\u2581kwu": 7896,
  "\u2581repentant": 7897,
  "\u2581degree": 7898,
  "fanana": 7899,
  "\u2581commands": 7900,
  "\u2581kuzvi": 7901,
  "himba": 7902,
  "phendula": 7903,
  "\u2581nkhondo": 7904,
  "\u2581Abrahama": 7905,
  "\u2581kwalomu": 7906,
  "\u2581y\u00e9gle": 7907,
  "\u2581Ryari": 7908,
  "tsatira": 7909,
  "\u2581innocent": 7910,
  "\u2581diseases": 7911,
  "\u2581woonse": 7912,
  "\u2581ekintu": 7913,
  "yika": 7914,
  "\u2581Mpe": 7915,
  "\u2581outcome": 7916,
  "\u2581biseera": 7917,
  "\u2581kpa": 7918,
  "\u2581reap": 7919,
  "baawo": 7920,
  "\u2581malitere": 7921,
  "\u2581pana": 7922,
  "yenda": 7923,
  "\u2581Charles": 7924,
  "\u2581kwuo": 7925,
  "\u2581al\u00e1": 7926,
  "svika": 7927,
  "\u2581kungo": 7928,
  "okwe": 7929,
  "\u2581Christmas": 7930,
  "\u2581unknown": 7931,
  "moto": 7932,
  "\u2581wayo": 7933,
  "\u2581kubaho": 7934,
  "ngulu": 7935,
  "\u2581Van": 7936,
  "\u2581batu": 7937,
  "\u2581kuposa": 7938,
  "\u2581visiting": 7939,
  "mandla": 7940,
  "\u2581Igikorwa": 7941,
  "bwira": 7942,
  "xha": 7943,
  "\u2581Abajulirwa": 7944,
  "\u2581ivya": 7945,
  "kono": 7946,
  "\u2581y\u1ecd": 7947,
  "kelo": 7948,
  "\u2581Jwi": 7949,
  "\u2581invite": 7950,
  "fotokoza": 7951,
  "\u2581bajja": 7952,
  "\u2581s\u00e0nni": 7953,
  "\u2581Psaume": 7954,
  "\u2581ts\u0254": 7955,
  "\u2581Concern": 7956,
  "\u2581kuate": 7957,
  "chara": 7958,
  "\u2581l\u00e1w\u1ecd": 7959,
  "\u2581Bana": 7960,
  "\u2581mwini": 7961,
  "\u2581trusted": 7962,
  "\u2581umwana": 7963,
  "\u2581disaster": 7964,
  "\u1eca": 7965,
  "ambwa": 7966,
  "bbuku": 7967,
  "\u2581Often": 7968,
  "\u2581umoya": 7969,
  "lembe": 7970,
  "\u2581ekozala": 7971,
  "\u2581xiyimo": 7972,
  "bira": 7973,
  "\u2581loud": 7974,
  "\u2581cikozyanyo": 7975,
  "\u2581toko": 7976,
  "\u2581K\u00e1": 7977,
  "\u2581literal": 7978,
  "\u2581vyara": 7979,
  "\u2581huge": 7980,
  "\u2581Yoane": 7981,
  "\u2581mabotu": 7982,
  "\u2581muuya": 7983,
  "\u2581twebwe": 7984,
  "koro": 7985,
  "uza": 7986,
  "\u2581eeco": 7987,
  "\u2581ennungi": 7988,
  "\u25811914.": 7989,
  "mfanekiso": 7990,
  "\u2581Amubale": 7991,
  "\u2581ange": 7992,
  "\u2581s\u00fan": 7993,
  "\u2581leaves": 7994,
  "\u2581audience": 7995,
  "ganya": 7996,
  "\u2581Adama": 7997,
  "sungo": 7998,
  "\u2581agbu": 7999,
  "\u2581dangers": 8000,
  "\u2581rafet": 8001,
  "\u2581suddenly": 8002,
  "\u2581\u00ecb\u00e9\u00e8r\u00e8": 8003,
  "\u2581Knorr": 8004,
  "\u2581gosiri": 8005,
  "\u2581zvichi": 8006,
  "\u2581Peetero": 8007,
  "\u2581Upon": 8008,
  "ncwadi": 8009,
  "sani": 8010,
  "\u2581version": 8011,
  "tolo": 8012,
  "\u2581harmful": 8013,
  "ies": 8014,
  "\u2581Obi": 8015,
  "\u2581ela": 8016,
  "\u2581notu": 8017,
  "action": 8018,
  "\u2581nechi": 8019,
  "bantu": 8020,
  "\u2581Malob": 8021,
  "ndiki": 8022,
  "ngba": 8023,
  "\u2581Sabbath": 8024,
  "\u2581afterward": 8025,
  "s\u1ecbr\u1ecb": 8026,
  "\u2581Answered": 8027,
  "phinde": 8028,
  "\u2581possession": 8029,
  "\u2581twaambo": 8030,
  "\u2581ear": 8031,
  "\u2581uzi": 8032,
  "tegeera": 8033,
  "\u2581D\u00e1f\u00edd\u00ec": 8034,
  "\u2581communicate": 8035,
  "\u2581shal": 8036,
  "\u2581ubutumwa": 8037,
  "katazya": 8038,
  "mhlaba": 8039,
  "\u2581scholar": 8040,
  "weyo": 8041,
  "aku": 8042,
  "\u2581Mashoko": 8043,
  "\u2581\u1e63\u00f3": 8044,
  "\u2581balakonzya": 8045,
  "ninzi": 8046,
  "\u2581cimwi": 8047,
  "b\u0254": 8048,
  "\u2581bisika": 8049,
  "\u2581kuetele": 8050,
  "\u2581numbers": 8051,
  "buuza": 8052,
  "\u2581choices": 8053,
  "size": 8054,
  "\u2581acting": 8055,
  "\u2581boboto": 8056,
  "pereka": 8057,
  "\u2581bale": 8058,
  "\u2581zingo": 8059,
  "\u2581rito": 8060,
  "\u2581zuva": 8061,
  "tunga": 8062,
  "\u2581Bonisa": 8063,
  "\u2581kobatela": 8064,
  "\u2581establish": 8065,
  "\u2581rights": 8066,
  "ak": 8067,
  "kanda": 8068,
  "\u2581arrangements": 8069,
  "\u2581Bunakristo": 8070,
  "\u2581S\u00e1t\u00e1n\u00ec": 8071,
  "tamba": 8072,
  "\u258139.": 8073,
  "\u2581scientists": 8074,
  "\u2581Image": 8075,
  "k\u1ee5": 8076,
  "\u2581hama": 8077,
  "\u2581victory": 8078,
  "Bo": 8079,
  "\u2581plans": 8080,
  "\u2581\u1e63\u00e0": 8081,
  "ngazi": 8082,
  "\u2581abasavy": 8083,
  "eneen": 8084,
  "\u2581kuchokera": 8085,
  "\u2581Next": 8086,
  "\u2581KIGEZWEHO": 8087,
  "\u2581yosi": 8088,
  "\u2581forgiving": 8089,
  "mntu": 8090,
  "\u2581bosembo": 8091,
  "\u2581kar\u1ecba": 8092,
  "\u2581m\u00e0": 8093,
  "\u2581previous": 8094,
  "n\u00f9": 8095,
  "\u2581Isithombe": 8096,
  "\u2581involving": 8097,
  "kayo": 8098,
  "\u2581congr\u00e9gation": 8099,
  "\u2581rightly": 8100,
  "\u2581Up": 8101,
  "buda": 8102,
  "rongo": 8103,
  "\u2581Tor\u00ed": 8104,
  "\u2581mbubb": 8105,
  "\u2581biro": 8106,
  "\u2581grasp": 8107,
  "tegeka": 8108,
  "\u2581zvava": 8109,
  "\u2581\u00e0m\u00ec": 8110,
  "ING": 8111,
  "\u2581plan": 8112,
  "\u2581pleasing": 8113,
  "\u2581Korinto": 8114,
  "\u2581trip": 8115,
  "\u2581phambi": 8116,
  "gbl\u0254": 8117,
  "\u2581kwose": 8118,
  "hindu": 8119,
  "vya": 8120,
  "\u2581plague": 8121,
  "\u2581Esther": 8122,
  "\u2581b\u00e0": 8123,
  "\u2581abilities": 8124,
  "\u2581attitudes": 8125,
  "\u2581baay": 8126,
  "manzi": 8127,
  "\u2581Martha": 8128,
  "\u2581sore": 8129,
  "\u2581byose": 8130,
  "\u2581Ju": 8131,
  "labo": 8132,
  "\u2581c\u00e9r": 8133,
  "\u2581healing": 8134,
  "\u2581minene": 8135,
  "\u2581obtained": 8136,
  "\u2581kwalokho": 8137,
  "phunzitsa": 8138,
  "\u2581yako": 8139,
  "\u2581referring": 8140,
  "lata": 8141,
  "nqa": 8142,
  "\u2581BY": 8143,
  "\u2581Fek": 8144,
  "\u2581humaka": 8145,
  "\u2581ntshembo": 8146,
  "\u2581writers": 8147,
  "der": 8148,
  "\u2581bihe": 8149,
  "\u258152": 8150,
  "tshe": 8151,
  "\u2581indi": 8152,
  "\u2581kwaye": 8153,
  "\u2581wama": 8154,
  "hungu": 8155,
  "\u2581grand": 8156,
  "\u00e3": 8157,
  "\u2581ignore": 8158,
  "\u2581bese": 8159,
  "veni": 8160,
  "\u2581murume": 8161,
  "\u2581sarax": 8162,
  "\u2581w\u00e0cc": 8163,
  "dede": 8164,
  "ous": 8165,
  "zuva": 8166,
  "\u2581ijambo": 8167,
  "\u2581libala": 8168,
  "\u2581juska": 8169,
  "tivi": 8170,
  "\u2581European": 8171,
  "\u2581Kino": 8172,
  "\u2581strengthening": 8173,
  "MI": 8174,
  "rege": 8175,
  "\u2581Notice": 8176,
  "\u2581theocratic": 8177,
  "\u2581\u1ecbh\u1ee5": 8178,
  "\u2581Further": 8179,
  "\u2581begins": 8180,
  "keni": 8181,
  "\u2581instructed": 8182,
  "\u2581lingila": 8183,
  "\u2581pursuing": 8184,
  "\u2581uthenga": 8185,
  "\u2581uuli": 8186,
  "\u2581amara": 8187,
  "\u2581teki": 8188,
  "\u1ebd": 8189,
  "\u2581ntsako": 8190,
  "\u2581r\u00e1r\u00e1": 8191,
  "\u2581yiwa": 8192,
  "yazi": 8193,
  "\u2581Kwiinda": 8194,
  "\u2581az\u1ee5": 8195,
  "biza": 8196,
  "line": 8197,
  "\u2581bakora": 8198,
  "\u2581Corinth": 8199,
  "\u2581gusenga": 8200,
  "\u2581veke": 8201,
  "\u2581kok\u00f3ma": 8202,
  "mari": 8203,
  "ngase": 8204,
  "zvinhu": 8205,
  "\u2581kutondezya": 8206,
  "\u2581\u1e63\u00e0l\u00e0y\u00e9": 8207,
  "\u2581ocili": 8208,
  "\u2581agi": 8209,
  "gide": 8210,
  "\u2581departed": 8211,
  "\u2581endaweni": 8212,
  "\u2581thereafter": 8213,
  "teka": 8214,
  "yoba": 8215,
  "\u258120]": 8216,
  "\u2581sakhe": 8217,
  "\u2581attempt": 8218,
  "iro": 8219,
  "fayili": 8220,
  "\u2581dress": 8221,
  "\u2581sky": 8222,
  "hele": 8223,
  "rondera": 8224,
  "\u2581siri": 8225,
  "\u2581jii": 8226,
  "kholwa": 8227,
  "\u2581chava": 8228,
  "\u2581eba": 8229,
  "\u2581average": 8230,
  "\u2581ulakonzya": 8231,
  "tumikira": 8232,
  "\u2581Munhu": 8233,
  "\u2581chokwadi": 8234,
  "not": 8235,
  "\u2581milawu": 8236,
  "\u2581lowly": 8237,
  "\u2581credit": 8238,
  "setshenziswa": 8239,
  "faayo": 8240,
  "mirira": 8241,
  "\u2581William": 8242,
  "weebwa": 8243,
  "\u2581Abanye": 8244,
  "\u2581Get": 8245,
  "\u2581opposers": 8246,
  "\u2581aci": 8247,
  "ngakhale": 8248,
  "\u2581Bantu": 8249,
  "\u2581repeatedly": 8250,
  "\u2581zvo": 8251,
  "\u2581gulu": 8252,
  "nzira": 8253,
  "\u2581illustrations": 8254,
  "\u2581increasing": 8255,
  "\u2581miracle": 8256,
  "banda": 8257,
  "\u2581ukwi": 8258,
  "\u2581zimenezo": 8259,
  "\u2581gikorwa": 8260,
  "\u2581kwethu": 8261,
  "\u2581Zva": 8262,
  "\u2581pressures": 8263,
  "ziri": 8264,
  "\u2581features": 8265,
  "\u2581height": 8266,
  "\u2581thrown": 8267,
  "chokwadi": 8268,
  "\u2581Joel": 8269,
  "\u25811993": 8270,
  "zanga": 8271,
  "\u2581humbly": 8272,
  "\u2581Leswaku": 8273,
  "\u2581imfa": 8274,
  "\u2581kawoe": 8275,
  "\u2581urugero": 8276,
  "\u2581bay": 8277,
  "kaze": 8278,
  "kp\u0254kp\u0254": 8279,
  "\u2581navela": 8280,
  "\u2581contained": 8281,
  "\u2581Khetha": 8282,
  "mbuka": 8283,
  "\u2581nwe": 8284,
  "\u2581uzo": 8285,
  "koresheje": 8286,
  "kwira": 8287,
  "\u2581Naizvozvo": 8288,
  "\u2581mtundu": 8289,
  "\u2581umntu": 8290,
  "\u2581emirembe": 8291,
  "CI": 8292,
  "\u25814]": 8293,
  "\u2581mbeera": 8294,
  "\u2581muchi": 8295,
  "\u2581vyerekeye": 8296,
  "piri": 8297,
  "lezi": 8298,
  "vali": 8299,
  "aha": 8300,
  "\u2581river": 8301,
  "\u2581Rito": 8302,
  "ava": 8303,
  "\u2581yanditse": 8304,
  "\u2581\u1eccm\u1ecd": 8305,
  "\u2581maanaam": 8306,
  "\u2581Yudea": 8307,
  "\u2581assignments": 8308,
  "\u2581condemned": 8309,
  "\u2581k\u00f9": 8310,
  "r\u0254": 8311,
  "\u2581amakhala": 8312,
  "\u2581cells": 8313,
  "\u2581Eeci": 8314,
  "\u2581burning": 8315,
  "\u2581shed": 8316,
  "\u2581ingene": 8317,
  "\u2581royal": 8318,
  "\u2581Mugabo": 8319,
  "\u2581kwetsima": 8320,
  "phawu": 8321,
  "here": 8322,
  "\u2581kwee": 8323,
  "yiwa": 8324,
  "\u2581abantwana": 8325,
  "\u25812002": 8326,
  "bara": 8327,
  "of": 8328,
  "\u2581\u1e63\u00e9": 8329,
  "\u2581xidzana": 8330,
  "\u2581surface": 8331,
  "\u2581une": 8332,
  "She": 8333,
  "sanzwe": 8334,
  "\u2581pioneering": 8335,
  "\u2581kwihi": 8336,
  "ngiki": 8337,
  "tete": 8338,
  "\u2581encourages": 8339,
  "\u2581hakunene": 8340,
  "\u2581calendar": 8341,
  "ley": 8342,
  "\u2581differences": 8343,
  "\u2581review": 8344,
  "\u2581drive": 8345,
  "gala": 8346,
  "\u2581mumbungano": 8347,
  "\u2581Efeso": 8348,
  "\u2581Soviet": 8349,
  "\u2581yoba": 8350,
  "\u258138.": 8351,
  "\u2581tests": 8352,
  "\u2581vakwe": 8353,
  "\u2581victim": 8354,
  "\u2581ithi": 8355,
  "\u2581vukati": 8356,
  "l\u025b": 8357,
  "weereza": 8358,
  "ito": 8359,
  "nziwe": 8360,
  "\u2581JEHOVAH": 8361,
  "\u2581facing": 8362,
  "\u258112;": 8363,
  "\u2581River": 8364,
  "\u2581grave": 8365,
  "\u2581isa": 8366,
  "olu": 8367,
  "tupa": 8368,
  "\u2581brochure": 8369,
  "\u2581guha": 8370,
  "iye": 8371,
  "\u25812012": 8372,
  "umwuka": 8373,
  "\u2581\u1ecdn\u1ecdd\u1ee5": 8374,
  "\u2581t\u00ef": 8375,
  "\u2581lovingly": 8376,
  "\u2581hakona": 8377,
  "\u2581services": 8378,
  "rinda": 8379,
  "\u2581eru": 8380,
  "\u2581puts": 8381,
  "\u2581nku": 8382,
  "ridwa": 8383,
  "\u2581seventh": 8384,
  "\u2581Luc": 8385,
  "\u2581ik\u00fa": 8386,
  "\u2581okubi": 8387,
  "\u258156": 8388,
  "\u2581Moto": 8389,
  "tama": 8390,
  "\u2581lawo": 8391,
  "\u2581labor": 8392,
  "\u25811997": 8393,
  "lle": 8394,
  "landi": 8395,
  "rho": 8396,
  "\u2581biciye": 8397,
  "\u2581nii": 8398,
  "\u2581judges": 8399,
  "\u2581eti": 8400,
  "\u2581Seriveri": 8401,
  "\u2581Akukho": 8402,
  "\u2581reputation": 8403,
  "Who": 8404,
  "\u2581ensonga": 8405,
  "dzidza": 8406,
  "kende": 8407,
  "\u2581oyi": 8408,
  "\u2581China": 8409,
  "ili": 8410,
  "pula": 8411,
  "\u2581yakanga": 8412,
  "\u2581host": 8413,
  "\u25818;": 8414,
  "\u2581anymore": 8415,
  "\u2581w\u00e2": 8416,
  "\u2581preceding": 8417,
  "\u2581Halls": 8418,
  "\u2581\u00e0w\u00f2r\u00e1n": 8419,
  "reba": 8420,
  "\u2581readily": 8421,
  "\u2581moon": 8422,
  "\u2581Sathana": 8423,
  "\u2581kubeleka": 8424,
  "\u2581conducted": 8425,
  "\u2581lord": 8426,
  "NGO": 8427,
  "atu": 8428,
  "\u2581kofanda": 8429,
  "kumbi": 8430,
  "\u2581List": 8431,
  "\u2581exposed": 8432,
  "\u2581glorified": 8433,
  "dda": 8434,
  "\u2581Abisirayeli": 8435,
  "\u2581Sodom": 8436,
  "\u2581Vamwe": 8437,
  "\u2581bwiwe": 8438,
  "rika": 8439,
  "\u2581b\u1ecbara": 8440,
  "\u2581mubuumi": 8441,
  "rwo": 8442,
  "\u2581pieces": 8443,
  "\u2581waffe": 8444,
  "Nkosi": 8445,
  "\u2581kanamu": 8446,
  "\u2581majambo": 8447,
  "cisha": 8448,
  "\u2581companion": 8449,
  "\u2581r\u00e1n": 8450,
  "\u2581iron": 8451,
  "\u2581paying": 8452,
  "\u2581utumiki": 8453,
  "zimu": 8454,
  "\u2581benefited": 8455,
  "liwa": 8456,
  "\u2581mangomba": 8457,
  "kkomanisya": 8458,
  "\u2581ngezi": 8459,
  "\u2581Guhindura": 8460,
  "\u2581ntibi": 8461,
  "\u2581symbolic": 8462,
  "\u2581ME": 8463,
  "\u2581Mbo": 8464,
  "\u2581uyi": 8465,
  "\u2581vaKristu": 8466,
  "\u2581esithi": 8467,
  "\u2581stones": 8468,
  "manya": 8469,
  "\u25819;": 8470,
  "\u2581options": 8471,
  "khumbula": 8472,
  "tika": 8473,
  "yona": 8474,
  "\u2581kunjalo": 8475,
  "\u2581lyaamba": 8476,
  "\u2581mmehie": 8477,
  "n\u025b": 8478,
  "ED": 8479,
  "ziba": 8480,
  "\u2581liu": 8481,
  "\u2581printed": 8482,
  "p\u1ecd": 8483,
  "shure": 8484,
  "\u00e1\u00e0": 8485,
  "\u2581Ibbaibbele": 8486,
  "\u2581complex": 8487,
  "ima": 8488,
  "rema": 8489,
  "\u00d2": 8490,
  "itika": 8491,
  "\u2581Ibyo": 8492,
  "\u2581brief": 8493,
  "\u2581kelivulu": 8494,
  "\u2581uchi": 8495,
  "\u2581hanyuma": 8496,
  "\u2581sets": 8497,
  "\u2581Ikosa": 8498,
  "\u2581akp\u0254": 8499,
  "\u2581ngay": 8500,
  "kisaki": 8501,
  "\u2581skin": 8502,
  "\u2581threat": 8503,
  "niswa": 8504,
  "\u2581Ngemva": 8505,
  "ngere": 8506,
  "ngisi": 8507,
  "twara": 8508,
  "\u2581pens\u00e9": 8509,
  "meko": 8510,
  "\u2581taba": 8511,
  "oli": 8512,
  "\u2581muzi": 8513,
  "\u2581nyikela": 8514,
  "kabva": 8515,
  "sara": 8516,
  "thwe": 8517,
  "\u2581spake": 8518,
  "\u2581unrighteous": 8519,
  "\u2581xiya": 8520,
  "\u2581maladi": 8521,
  "\u2581yayogera": 8522,
  "\u2581Ebi": 8523,
  "\u2581VA": 8524,
  "\u25812010": 8525,
  "\u2581permanent": 8526,
  "\u2581Granted": 8527,
  "\u2581patiently": 8528,
  "\u25811991": 8529,
  "\u2581uti": 8530,
  "\u2581bada": 8531,
  "zibwa": 8532,
  "\u2581gutyo": 8533,
  "\u2581ibakali": 8534,
  "\u2581v\u0129vi": 8535,
  "\u2581ihu": 8536,
  "\u2581intumwa": 8537,
  "\u2581Makambo": 8538,
  "\u2581Eku": 8539,
  "\u2581koya": 8540,
  "\u2581appeal": 8541,
  "\u2581visits": 8542,
  "\u2581Religion": 8543,
  "\u2581Gideon": 8544,
  "buru": 8545,
  "\u25813]": 8546,
  "\u2581Lee": 8547,
  "\u2581literally": 8548,
  "\u2581quiet": 8549,
  "\u2581Try": 8550,
  "\u2581jur": 8551,
  "\u258127:": 8552,
  "\u2581anayamba": 8553,
  "\u2581pfu": 8554,
  "\u2581black": 8555,
  "yiphi": 8556,
  "\u2581ayeda": 8557,
  "\u2581vaiva": 8558,
  "\u2581wakaba": 8559,
  "\u2581wisely": 8560,
  "\u2581ahubwo": 8561,
  "\u2581ibindi": 8562,
  "\u2581identity": 8563,
  "\u2581gbia": 8564,
  "k\u00fan": 8565,
  "\u2581employment": 8566,
  "hlela": 8567,
  "\u2581fundamental": 8568,
  "\u2581vakuetu": 8569,
  "\u2581weaknesses": 8570,
  "\u2581\u1eccma": 8571,
  "\u25816;": 8572,
  "\u2581press": 8573,
  "\u2581gbata": 8574,
  "kwuo": 8575,
  "vhu": 8576,
  "\u2581Aji": 8577,
  "\u2581amazwi": 8578,
  "\u2581calm": 8579,
  "\u2581ucha": 8580,
  "shize": 8581,
  "\u2581145": 8582,
  "\u2581bandi": 8583,
  "\u2581b\u1ecba": 8584,
  "\u2581ekateli": 8585,
  "\u2581Chronicles": 8586,
  "tuuka": 8587,
  "\u2581Waye": 8588,
  "emu": 8589,
  "\u2581Kya": 8590,
  "\u2581emu": 8591,
  "\u2581w\u00e9": 8592,
  "\u2581cari": 8593,
  "\u2581Says": 8594,
  "rarama": 8595,
  "\u2581wadde": 8596,
  "pedza": 8597,
  "\u258136.": 8598,
  "\u2581sena": 8599,
  "okubuulira": 8600,
  "\u2581inclined": 8601,
  "\u2581ohali": 8602,
  "\u2581marked": 8603,
  "\u2581cig": 8604,
  "k\u00ec": 8605,
  "\u2581Aha": 8606,
  "\u2581desired": 8607,
  "\u2581noflaay": 8608,
  "\u2581xame": 8609,
  "\u2581S\u00edb": 8610,
  "\u2581Tua": 8611,
  "\u2581lili": 8612,
  "\u2581listeners": 8613,
  "\u2581possibly": 8614,
  "\u2581worldly": 8615,
  "\u2581Ibisobanuro": 8616,
  "\u2581Unknown": 8617,
  "\u2581doctors": 8618,
  "\u2581ebandeli": 8619,
  "\u2581kamere": 8620,
  "munu": 8621,
  "ngane": 8622,
  "ule": 8623,
  "zyintu": 8624,
  "ngami": 8625,
  "\u2581watching": 8626,
  "\u2581prominent": 8627,
  "\u2581remote": 8628,
  "ex": 8629,
  "\u2581ministeri": 8630,
  "\u2581Noa": 8631,
  "\u2581kubelesya": 8632,
  "\u2581saints": 8633,
  "lelwe": 8634,
  "mona": 8635,
  "\u2581koti": 8636,
  "\u2581tend": 8637,
  "\u2581soil": 8638,
  "\u2581Thomas": 8639,
  "\u2581akui": 8640,
  "\u2581district": 8641,
  "\u2581M\u0254": 8642,
  "\u2581painful": 8643,
  "\u2581mari": 8644,
  "\u2581Kirisitu": 8645,
  "dzidzi": 8646,
  "\u2581win": 8647,
  "\u2581equal": 8648,
  "khula": 8649,
  "shwe": 8650,
  "musha": 8651,
  "\u2581koka": 8652,
  "\u2581officials": 8653,
  "\u2581nyinshi": 8654,
  "\u2581Mateyu": 8655,
  "\u2581throw": 8656,
  "woo": 8657,
  "\u2581Nzembo": 8658,
  "\u2581newly": 8659,
  "y\u00f2": 8660,
  "\u2581anw\u1ee5": 8661,
  "\u2581buzuba": 8662,
  "\u2581rudo": 8663,
  "\u2581uvangi": 8664,
  "shima": 8665,
  "\u2581conviction": 8666,
  "\u2581fields": 8667,
  "\u2581lonke": 8668,
  "\u1e63\u00e0": 8669,
  "\u2581extended": 8670,
  "\u2581nzvimbo": 8671,
  "\u2581motuya": 8672,
  "\u2581Rev": 8673,
  "\u2581claimed": 8674,
  "\u2581ihenh\u1ecdr\u1ecd": 8675,
  "seki": 8676,
  "\u2581leyo": 8677,
  "\u25811950": 8678,
  "noratidza": 8679,
  "\u2581alal": 8680,
  "\u2581kas\u1ecb": 8681,
  "balulekile": 8682,
  "ary": 8683,
  "\u2581nw\u1ee5r\u1ee5": 8684,
  "\u2581songs": 8685,
  "mbwe": 8686,
  "\u2581Yokaana": 8687,
  "r\u00fan": 8688,
  "\u2581Way": 8689,
  "\u2581sungulukile": 8690,
  "\u2581\u00f9gw\u00f9": 8691,
  "\u25812009": 8692,
  "\u2581Hitler": 8693,
  "\u2581pedyo": 8694,
  "l\u1ebd": 8695,
  "\u2581Spiritual": 8696,
  "Man": 8697,
  "\u2581Inde": 8698,
  "\u2581Esau": 8699,
  "\u2581guilty": 8700,
  "\u2581am\u1ee5ma": 8701,
  "\u2581Nakambe": 8702,
  "Name": 8703,
  "sikhathi": 8704,
  "\u2581Stephen": 8705,
  "\u2581fourth": 8706,
  "\u2581Fade": 8707,
  "\u2581yalina": 8708,
  "\u2581d\u00e1a": 8709,
  "\u2581lingomba": 8710,
  "\u2581warns": 8711,
  "Ndax": 8712,
  "\u2581routine": 8713,
  "\u2581suggest": 8714,
  "zinto": 8715,
  "\u2581W\u00f2": 8716,
  "gb\u0254": 8717,
  "\u2581mbokk": 8718,
  "\u2581mukk": 8719,
  "piwa": 8720,
  "\u2581gutanga": 8721,
  "\u258119]": 8722,
  "\u2581muryango": 8723,
  "\u2581pornography": 8724,
  "\u2581vulu": 8725,
  "leme": 8726,
  "ngeri": 8727,
  "\u2581bamwebamwe": 8728,
  "\u2581kaamba": 8729,
  "\u2581mburu": 8730,
  "lamulira": 8731,
  "ronka": 8732,
  "vhi": 8733,
  "nana": 8734,
  "subi": 8735,
  "\u2581Maka": 8736,
  "nes": 8737,
  "\u2581koe": 8738,
  "\u2581repent": 8739,
  "mbono": 8740,
  "\u2581umurimo": 8741,
  "\u2581haico": 8742,
  "\u2581wone": 8743,
  "\u2581gb\u00e0d\u00far\u00e0": 8744,
  "\u2581gituma": 8745,
  "syi": 8746,
  "\u2581translations": 8747,
  "\u2581pictures": 8748,
  "\u2581pleasant": 8749,
  "\u2581wheat": 8750,
  "\u2581Umuntu": 8751,
  "\u2581Yobo": 8752,
  "\u2581generally": 8753,
  "\u2581password": 8754,
  "\u2581guided": 8755,
  "\u2581kabi": 8756,
  "\u2581momwe": 8757,
  "\u2581muto": 8758,
  "\u2581lee": 8759,
  "\u2581mukati": 8760,
  "\u2581mafuta": 8761,
  "\u2581\u00ecr\u00e1n": 8762,
  "\u2581heal": 8763,
  "\u2581\u0129ha": 8764,
  "viri": 8765,
  "\u2581inyigisho": 8766,
  "Ja": 8767,
  "\u2581await": 8768,
  "\u2581ponena": 8769,
  "f\u00e0": 8770,
  "\u2581tindlela": 8771,
  "Look": 8772,
  "\u2581chance": 8773,
  "cisi": 8774,
  "\u2581voro": 8775,
  "tshu": 8776,
  "\u2581burned": 8777,
  "polo": 8778,
  "\u25812011": 8779,
  "\u2581mourning": 8780,
  "\u25811994": 8781,
  "\u2581Ngokwesibonelo": 8782,
  "\u2581booba": 8783,
  "onse": 8784,
  "\u2581awali": 8785,
  "Ca": 8786,
  "lawula": 8787,
  "\u2581Shortly": 8788,
  "yongera": 8789,
  "\u2581generous": 8790,
  "\u2581sustain": 8791,
  "songo": 8792,
  "\u2581eje": 8793,
  "rushiriza": 8794,
  "s\u025b": 8795,
  "\u2581observes": 8796,
  "\u2581t\u00e0nn": 8797,
  "\u2581t\u00ebj": 8798,
  "soever": 8799,
  "\u2581kuzyiba": 8800,
  "men": 8801,
  "\u2581uyoo": 8802,
  "PA": 8803,
  "\u2581Pro": 8804,
  "\u2581bagize": 8805,
  "\u2581tsopano": 8806,
  "mbungano": 8807,
  "\u2581\u014bus\u1ebd": 8808,
  "\u2581madzi": 8809,
  "s\u00e9": 8810,
  "\u2581south": 8811,
  "\u2581vuto": 8812,
  "tal": 8813,
  "\u2581\u00e0p\u00f3": 8814,
  "\u2581tino": 8815,
  "\u2581ezaleli": 8816,
  "\u2581bwiza": 8817,
  "fike": 8818,
  "\u2581limitations": 8819,
  "sanyusa": 8820,
  "\u2581reply": 8821,
  "luyando": 8822,
  "\u2581ingorane": 8823,
  "ganiza": 8824,
  "kata": 8825,
  "\u2581Setan": 8826,
  "buumi": 8827,
  "\u2581navo": 8828,
  "\u2581amahoro": 8829,
  "\u2581nema": 8830,
  "\u2581yonguile": 8831,
  "\u2581serpent": 8832,
  "\u2581\u1eccba": 8833,
  "\u2581End": 8834,
  "\u2581n\u00edl\u00f2": 8835,
  "\u2581Devid": 8836,
  "\u2581Ezra": 8837,
  "\u2581J\u1ecdn": 8838,
  "\u2581kho": 8839,
  "\u2581accompany": 8840,
  "\u2581kokoka": 8841,
  "\u2581neva": 8842,
  "\u258128]": 8843,
  "manu": 8844,
  "\u2581l\u00e1gb\u00e1ra": 8845,
  "NG": 8846,
  "dina": 8847,
  "\u2581Nokuti": 8848,
  "\u2581lezi": 8849,
  "\u2581kwavo": 8850,
  "\u2581Imiterere": 8851,
  "\u2581print": 8852,
  "\u2581television": 8853,
  "\u2581Evolution": 8854,
  "\u2581akana": 8855,
  "sangano": 8856,
  "bla": 8857,
  "\u2581strangers": 8858,
  "\u2581traits": 8859,
  "DA": 8860,
  "vuze": 8861,
  "ndimi": 8862,
  "\u2581Default": 8863,
  "\u2581timhaka": 8864,
  "nzima": 8865,
  "\u2581endleka": 8866,
  "\u2581lulo": 8867,
  "leetera": 8868,
  "\u2581mmas\u1ecb": 8869,
  "\u2581weapons": 8870,
  "\u2581depends": 8871,
  "wee": 8872,
  "\u2581Anna": 8873,
  "\u2581r": 8874,
  "\u2581aboobo": 8875,
  "\u2581ebizibu": 8876,
  "\u2581ikwu": 8877,
  "\u2581gained": 8878,
  "IN": 8879,
  "fani": 8880,
  "use": 8881,
  "\u258111]": 8882,
  "\u2581arms": 8883,
  "\u2581hardly": 8884,
  "kolebwa": 8885,
  "\u2581kiringo": 8886,
  "\u2581reliable": 8887,
  "\u258137.": 8888,
  "\u2581Bill": 8889,
  "\u2581card": 8890,
  "khuthaza": 8891,
  "\u2581te\u0192e": 8892,
  "\u25811992": 8893,
  "Ya": 8894,
  "\u2581Ovin": 8895,
  "\u2581Oya": 8896,
  "\u2581izikhathi": 8897,
  "\u2581maintaining": 8898,
  "\u2581phezu": 8899,
  "botu": 8900,
  "\u2581wear": 8901,
  "\u2581Ove": 8902,
  "gbl\u1ebd": 8903,
  "\u2581kukho": 8904,
  "nzila": 8905,
  "\u2581zabwino": 8906,
  "busa": 8907,
  "meke": 8908,
  "\u2581idolatry": 8909,
  "LU": 8910,
  "b\u00f2": 8911,
  "ganizira": 8912,
  "\u2581munga": 8913,
  "\u2581vina": 8914,
  "\u1e63\u00ec": 8915,
  "\u2581Osimbu": 8916,
  "\u2581dees": 8917,
  "\u2581dellu": 8918,
  "\u2581p\u00e0\u00e1p\u00e0\u00e1": 8919,
  "\u2581reminders": 8920,
  "mise": 8921,
  "lesi": 8922,
  "\u2581(3)": 8923,
  "\u2581range": 8924,
  "\u0256o\u0256o": 8925,
  "\u2581Hope": 8926,
  "\u2581nyuie": 8927,
  "bulala": 8928,
  "\u2581AND": 8929,
  "\u2581Chokwadi": 8930,
  "\u2581abandon": 8931,
  "\u2581kokokisa": 8932,
  "\u2581\u1ecdba": 8933,
  "\u2581Gbia": 8934,
  "\u2581lisoro": 8935,
  "\u2581elements": 8936,
  "\u2581hell": 8937,
  "\u2581endowooza": 8938,
  "\u2581satisfied": 8939,
  "\u2581zethu": 8940,
  "nzwe": 8941,
  "Pe": 8942,
  "kuenda": 8943,
  "p\u1ee5tara": 8944,
  "\u2581Daniele": 8945,
  "b\u00f3": 8946,
  "\u2581nusi": 8947,
  "citika": 8948,
  "\u2581Death": 8949,
  "\u2581`%": 8950,
  "\u2581kusikila": 8951,
  "\u2581Mo\u00efse": 8952,
  "senza": 8953,
  "yera": 8954,
  "\u2581UN": 8955,
  "\u2581anachita": 8956,
  "idini": 8957,
  "\u2581associates": 8958,
  "\u2581y\u00e0n": 8959,
  "\u1eb9l\u00e9": 8960,
  "\u2581Kota": 8961,
  "lani": 8962,
  "mbiri": 8963,
  "\u2581niba": 8964,
  "\u016b": 8965,
  "\u2581pachena": 8966,
  "mvi": 8967,
  "via": 8968,
  "\u2581tlhele": 8969,
  "\u2581accepting": 8970,
  "mama": 8971,
  "keneye": 8972,
  "\u2581kwaari": 8973,
  "\u2581Vukreste": 8974,
  "\u2581as\u1ecb": 8975,
  "phele": 8976,
  "ike": 8977,
  "niki": 8978,
  "\u2581120": 8979,
  "\u2581safara": 8980,
  "\u2581s\u00f3ob": 8981,
  "NO": 8982,
  "\u2581pro": 8983,
  "\u2581Ena": 8984,
  "\u2581nesi": 8985,
  "\u2581Nsima": 8986,
  "con": 8987,
  "\u2581ryari": 8988,
  "\u2581thankful": 8989,
  "\u2581pansi": 8990,
  "\u2581bariko": 8991,
  "\u2581tradition": 8992,
  "Ki": 8993,
  "tenda": 8994,
  "lombangi": 8995,
  "\u2581bakho": 8996,
  "\u2581ohenda": 8997,
  "banza": 8998,
  "\u2581gare": 8999,
  "mvwa": 9000,
  "\u2581\u00f2fin": 9001,
  "\u2581umboni": 9002,
  "\u2581believing": 9003,
  "taki": 9004,
  "\u2581creature": 9005,
  "\u2581Ex": 9006,
  "lenga": 9007,
  "\u2581bake": 9008,
  "kota": 9009,
  "\u2581planet": 9010,
  "\u2581amukela": 9011,
  "\u2581heriki": 9012,
  "yobora": 9013,
  "\u2581oFakazi": 9014,
  "\u2581Ekigambo": 9015,
  "\u2581initiative": 9016,
  "\u2581b\u00e9\u00e8r\u00e8": 9017,
  "\u2581shortly": 9018,
  "\u2581habit": 9019,
  "\u2581hwake": 9020,
  "hana": 9021,
  "\u1eb8": 9022,
  "\u2581West": 9023,
  "\u2581kujana": 9024,
  "\u2581swiphiqo": 9025,
  "\u2581\u00e0n\u00ed": 9026,
  "nju": 9027,
  "nkonzo": 9028,
  "\u2581Somuenzaniso": 9029,
  "\u2581kangbi": 9030,
  "\u2581attacks": 9031,
  "hondo": 9032,
  "\u2581motives": 9033,
  "Boroom": 9034,
  "subira": 9035,
  "\u2581amafuta": 9036,
  "\u2581nkulu": 9037,
  "\u2581Dictionary": 9038,
  "\u2581w\u00ed": 9039,
  "\u2581lula": 9040,
  "\u2581rhu": 9041,
  "\u2018": 9042,
  "\u2581nazali": 9043,
  "\u2581kapa": 9044,
  "tindo": 9045,
  "\u2581ngangi": 9046,
  "\u2581hejuru": 9047,
  "shumi": 9048,
  "\u1ecdgbak\u1ecd": 9049,
  "ant": 9050,
  "Fakazi": 9051,
  "\u00ea": 9052,
  "\u2581amajambo": 9053,
  "\u2581kankan": 9054,
  "\u2581kwakho": 9055,
  "\u2581yakola": 9056,
  "\u2581\u1ecct\u1ee5t\u1ee5": 9057,
  "y\u00e1": 9058,
  "\u2581pinnu": 9059,
  "bikka": 9060,
  "\u2581Union": 9061,
  "\u2581s\u00e1b\u00e0": 9062,
  "karurama": 9063,
  "\u2581Ingano": 9064,
  "Zi": 9065,
  "hiri": 9066,
  "rura": 9067,
  "\u2581intense": 9068,
  "\u2581shoko": 9069,
  "nopfuura": 9070,
  "\u2581Choose": 9071,
  "\u2581configuration": 9072,
  "\u2581yangu": 9073,
  "\u2581Vyongeye": 9074,
  "\u2581firstborn": 9075,
  "\u2581kpl\u0254": 9076,
  "\u2581wakuti": 9077,
  "\u2581ffe": 9078,
  "\u2581ocipango": 9079,
  "\u2581umwanya": 9080,
  "\u2581bii": 9081,
  "\u2581arrested": 9082,
  "\u2581elavoko": 9083,
  "\u2581esinga": 9084,
  "\u2581imperfection": 9085,
  "ukuntu": 9086,
  "\u2581Rutherford": 9087,
  "\u2581method": 9088,
  "gha": 9089,
  "bomi": 9090,
  "\u2581hansi": 9091,
  "\u2581dekki": 9092,
  "\u2581t\u00e0nk": 9093,
  "\u2581t\u00ed\u00ec": 9094,
  "\u2581waxtu": 9095,
  "our": 9096,
  "\u2581nawu": 9097,
  "\u2581billion": 9098,
  "\u2581Molenge": 9099,
  "\u2581b\u1ecd": 9100,
[...]
